{
  "version": "1.0",
  "truncation": null,
  "padding": null,
  "added_tokens": [
    {
      "id": 0,
      "content": "[PAD]",
      "single_word": false,
      "lstrip": false,
      "rstrip": false,
      "normalized": false,
      "special": true
    },
    {
      "id": 1,
      "content": "[UNK]",
      "single_word": false,
      "lstrip": false,
      "rstrip": false,
      "normalized": false,
      "special": true
    },
    {
      "id": 2,
      "content": "[CLS]",
      "single_word": false,
      "lstrip": false,
      "rstrip": false,
      "normalized": false,
      "special": true
    },
    {
      "id": 3,
      "content": "[SEP]",
      "single_word": false,
      "lstrip": false,
      "rstrip": false,
      "normalized": false,
      "special": true
    },
    {
      "id": 4,
      "content": "[MASK]",
      "single_word": false,
      "lstrip": false,
      "rstrip": false,
      "normalized": false,
      "special": true
    }
  ],
  "normalizer": {
    "type": "BertNormalizer",
    "clean_text": true,
    "handle_chinese_chars": true,
    "strip_accents": null,
    "lowercase": true
  },
  "pre_tokenizer": {
    "type": "BertPreTokenizer"
  },
  "post_processor": {
    "type": "TemplateProcessing",
    "single": [
      {
        "SpecialToken": {
          "id": "[CLS]",
          "type_id": 0
        }
      },
      {
        "Sequence": {
          "id": "A",
          "type_id": 0
        }
      },
      {
        "SpecialToken": {
          "id": "[SEP]",
          "type_id": 0
        }
      }
    ],
    "pair": [
      {
        "SpecialToken": {
          "id": "[CLS]",
          "type_id": 0
        }
      },
      {
        "Sequence": {
          "id": "A",
          "type_id": 0
        }
      },
      {
        "SpecialToken": {
          "id": "[SEP]",
          "type_id": 0
        }
      },
      {
        "Sequence": {
          "id": "B",
          "type_id": 1
        }
      },
      {
        "SpecialToken": {
          "id": "[SEP]",
          "type_id": 1
        }
      }
    ],
    "special_tokens": {
      "[CLS]": {
        "id": "[CLS]",
        "ids": [
          2
        ],
        "tokens": [
          "[CLS]"
        ]
      },
      "[SEP]": {
        "id": "[SEP]",
        "ids": [
          3
        ],
        "tokens": [
          "[SEP]"
        ]
      }
    }
  },
  "decoder": {
    "type": "WordPiece",
    "prefix": "##",
    "cleanup": true
  },
  "model": {
    "type": "WordPiece",
    "unk_token": "[UNK]",
    "continuing_subword_prefix": "##",
    "max_input_chars_per_word": 100,
    "vocab": {
      "[PAD]": 0,
      "[UNK]": 1,
      "[CLS]": 2,
      "[SEP]": 3,
      "[MASK]": 4,
      "!": 5,
      "\"": 6,
      "#": 7,
      "%": 8,
      "&": 9,
      "'": 10,
      "(": 11,
      ")": 12,
      "*": 13,
      "+": 14,
      ",": 15,
      "-": 16,
      ".": 17,
      "/": 18,
      "0": 19,
      "1": 20,
      "2": 21,
      "3": 22,
      "4": 23,
      "5": 24,
      "6": 25,
      "7": 26,
      "8": 27,
      "9": 28,
      ":": 29,
      ";": 30,
      "<": 31,
      "=": 32,
      ">": 33,
      "?": 34,
      "@": 35,
      "[": 36,
      "\\": 37,
      "]": 38,
      "_": 39,
      "a": 40,
      "b": 41,
      "c": 42,
      "d": 43,
      "e": 44,
      "f": 45,
      "g": 46,
      "h": 47,
      "i": 48,
      "j": 49,
      "k": 50,
      "l": 51,
      "m": 52,
      "n": 53,
      "o": 54,
      "p": 55,
      "q": 56,
      "r": 57,
      "s": 58,
      "t": 59,
      "u": 60,
      "v": 61,
      "w": 62,
      "x": 63,
      "y": 64,
      "z": 65,
      "{": 66,
      "|": 67,
      "}": 68,
      "~": 69,
      "°": 70,
      "·": 71,
      "×": 72,
      "ə": 73,
      "ɪ": 74,
      "ʔ": 75,
      "ˈ": 76,
      "α": 77,
      "γ": 78,
      "η": 79,
      "ι": 80,
      "κ": 81,
      "λ": 82,
      "μ": 83,
      "ο": 84,
      "ς": 85,
      "σ": 86,
      "υ": 87,
      "э": 88,
      "–": 89,
      "—": 90,
      "‘": 91,
      "’": 92,
      "“": 93,
      "”": 94,
      "•": 95,
      "…": 96,
      "‰": 97,
      "′": 98,
      "─": 99,
      "、": 100,
      "。": 101,
      "〈": 102,
      "〉": 103,
      "《": 104,
      "》": 105,
      "「": 106,
      "」": 107,
      "『": 108,
      "』": 109,
      "【": 110,
      "】": 111,
      "・": 112,
      "︰": 113,
      "！": 114,
      "＂": 115,
      "％": 116,
      "（": 117,
      "）": 118,
      "，": 119,
      "－": 120,
      "．": 121,
      "／": 122,
      "：": 123,
      "；": 124,
      "？": 125,
      "～": 126,
      "𣏌": 127,
      "##h": 128,
      "##u": 129,
      "##o": 130,
      "##c": 131,
      "##i": 132,
      "##n": 133,
      "##g": 134,
      "##x": 135,
      "##e": 136,
      "##f": 137,
      "##l": 138,
      "##a": 139,
      "##z": 140,
      "##t": 141,
      "##s": 142,
      "##j": 143,
      "##9": 144,
      "##2": 145,
      "##3": 146,
      "##q": 147,
      "##d": 148,
      "##w": 149,
      "##r": 150,
      "##k": 151,
      "##p": 152,
      "##b": 153,
      "##m": 154,
      "##y": 155,
      "##v": 156,
      "##7": 157,
      "##4": 158,
      "##8": 159,
      "##0": 160,
      "##1": 161,
      "##5": 162,
      "##6": 163,
      "##η": 164,
      "##κ": 165,
      "##σ": 166,
      "##ο": 167,
      "##ς": 168,
      "##α": 169,
      "##─": 170,
      "##ə": 171,
      "##ʔ": 172,
      "##э": 173,
      "##γ": 174,
      "##ng": 175,
      "##an": 176,
      "##hi": 177,
      "##ong": 178,
      "##ang": 179,
      "##he": 180,
      "de": 181,
      "##ing": 182,
      "##hu": 183,
      "##ian": 184,
      "##ai": 185,
      "##ao": 186,
      "##uo": 187,
      "##ei": 188,
      "##en": 189,
      "##ji": 190,
      "##ou": 191,
      "ji": 192,
      "##ue": 193,
      "##heng": 194,
      "yi": 195,
      "##uan": 196,
      "shi": 197,
      "##hong": 198,
      "##shi": 199,
      "xi": 200,
      "##xue": 201,
      "##un": 202,
      "##xi": 203,
      "##li": 204,
      "li": 205,
      "##yi": 206,
      "##ui": 207,
      "zhong": 208,
      "##hang": 209,
      "zhi": 210,
      "zai": 211,
      "##eng": 212,
      "##zhi": 213,
      "he": 214,
      "you": 215,
      "##wei": 216,
      "##han": 217,
      "##guo": 218,
      "##yu": 219,
      "yu": 220,
      "##xing": 221,
      "ren": 222,
      "##qi": 223,
      "wei": 224,
      "##nian": 225,
      "qi": 226,
      "##hui": 227,
      "##hou": 228,
      "bu": 229,
      "zhu": 230,
      "zhe": 231,
      "she": 232,
      "ke": 233,
      "di": 234,
      "##tong": 235,
      "yan": 236,
      "##in": 237,
      "##ti": 238,
      "fa": 239,
      "gong": 240,
      "da": 241,
      "jing": 242,
      "cheng": 243,
      "zheng": 244,
      "##zhu": 245,
      "##shu": 246,
      "chu": 247,
      "##jian": 248,
      "ge": 249,
      "##jiu": 250,
      "##ge": 251,
      "shu": 252,
      "##jia": 253,
      "jie": 254,
      "le": 255,
      "zi": 256,
      "##zhong": 257,
      "##cheng": 258,
      "##xiang": 259,
      "##you": 260,
      "xing": 261,
      "##yuan": 262,
      "wu": 263,
      "##chu": 264,
      "##yong": 265,
      "##hua": 266,
      "er": 267,
      "guo": 268,
      "##fa": 269,
      "##zi": 270,
      "shang": 271,
      "##iao": 272,
      "##yue": 273,
      "yin": 274,
      "yanjiu": 275,
      "huo": 276,
      "xiang": 277,
      "tong": 278,
      "dui": 279,
      "##lun": 280,
      "ta": 281,
      "zhongguo": 282,
      "##er": 283,
      "##zhe": 284,
      "##hao": 285,
      "bei": 286,
      "jin": 287,
      "wen": 288,
      "##si": 289,
      "gu": 290,
      "xin": 291,
      "##xian": 292,
      "xian": 293,
      "ying": 294,
      "fen": 295,
      "ye": 296,
      "hu": 297,
      "##wu": 298,
      "bing": 299,
      "xue": 300,
      "sun": 301,
      "deng": 302,
      "guan": 303,
      "shehui": 304,
      "##bu": 305,
      "##jie": 306,
      "##xie": 307,
      "##ming": 308,
      "xitong": 309,
      "##fu": 310,
      "##dong": 311,
      "sheng": 312,
      "##ju": 313,
      "19": 314,
      "bao": 315,
      "fang": 316,
      "##yan": 317,
      "##chang": 318,
      "##sheng": 319,
      "jian": 320,
      "##dai": 321,
      "##zuo": 322,
      "zuo": 323,
      "hui": 324,
      "##ru": 325,
      "ti": 326,
      "##dao": 327,
      "suo": 328,
      "##de": 329,
      "##du": 330,
      "##jing": 331,
      "##yao": 332,
      "fu": 333,
      "##ye": 334,
      "yuan": 335,
      "jingji": 336,
      "mei": 337,
      "##ren": 338,
      "##ci": 339,
      "##ke": 340,
      "jia": 341,
      "dan": 342,
      "ling": 343,
      "##men": 344,
      "dian": 345,
      "##ben": 346,
      "zui": 347,
      "##ri": 348,
      "##duo": 349,
      "si": 350,
      "##lixue": 351,
      "20": 352,
      "jiang": 353,
      "##zheng": 354,
      "bi": 355,
      "jiao": 356,
      "bian": 357,
      "xu": 358,
      "##she": 359,
      "##yang": 360,
      "kai": 361,
      "dao": 362,
      "kexue": 363,
      "##ding": 364,
      "lilun": 365,
      "##zhan": 366,
      "yige": 367,
      "##nu": 368,
      "##wen": 369,
      "##lai": 370,
      "##liang": 371,
      "ci": 372,
      "##zu": 373,
      "##lv": 374,
      "lai": 375,
      "##fang": 376,
      "##da": 377,
      "##jin": 378,
      "ming": 379,
      "yong": 380,
      "nei": 381,
      "dang": 382,
      "shou": 383,
      "##min": 384,
      "gai": 385,
      "ju": 386,
      "##ha": 387,
      "##di": 388,
      "##qu": 389,
      "##xu": 390,
      "##zhuyi": 391,
      "jiu": 392,
      "keyi": 393,
      "ru": 394,
      "min": 395,
      "##lei": 396,
      "##ying": 397,
      "qu": 398,
      "##fen": 399,
      "##ran": 400,
      "##xin": 401,
      "##guan": 402,
      "fan": 403,
      "##gong": 404,
      "hai": 405,
      "##dian": 406,
      "##ta": 407,
      "chan": 408,
      "zu": 409,
      "shen": 410,
      "##zhang": 411,
      "zong": 412,
      "##ce": 413,
      "##gou": 414,
      "cong": 415,
      "dou": 416,
      "##mian": 417,
      "##qiu": 418,
      "##bi": 419,
      "hou": 420,
      "liang": 421,
      "renwei": 422,
      "shiyong": 423,
      "hua": 424,
      "##nux": 425,
      "guang": 426,
      "##suan": 427,
      "xiao": 428,
      "##zhou": 429,
      "##shan": 430,
      "qing": 431,
      "fazhan": 432,
      "chang": 433,
      "yun": 434,
      "##chan": 435,
      "yiji": 436,
      "ze": 437,
      "xia": 438,
      "neng": 439,
      "##dang": 440,
      "zhengzhi": 441,
      "chengwei": 442,
      "##jiao": 443,
      "duo": 444,
      "zhuan": 445,
      "linux": 446,
      "dai": 447,
      "cai": 448,
      "##zai": 449,
      "##ban": 450,
      "##lu": 451,
      "lishi": 452,
      "jingjixue": 453,
      "geng": 454,
      "##kuo": 455,
      "##quan": 456,
      "##su": 457,
      "##shang": 458,
      "qita": 459,
      "jisuan": 460,
      "te": 461,
      "cao": 462,
      "##la": 463,
      "baokuo": 464,
      "zao": 465,
      "##qian": 466,
      "tian": 467,
      "zhengfu": 468,
      "##tu": 469,
      "##biao": 470,
      "##0nian": 471,
      "qian": 472,
      "zhexue": 473,
      "dong": 474,
      "yao": 475,
      "yue": 476,
      "biao": 477,
      "ding": 478,
      "quan": 479,
      "butong": 480,
      "lingyu": 481,
      "guojia": 482,
      "gao": 483,
      "mo": 484,
      "##bian": 485,
      "wenti": 486,
      "ping": 487,
      "201": 488,
      "ri": 489,
      "caozuo": 490,
      "ruan": 491,
      "tai": 492,
      "shuxue": 493,
      "##cha": 494,
      "liru": 495,
      "sui": 496,
      "shijie": 497,
      "##bei": 498,
      "##shen": 499,
      "tamen": 500,
      "an": 501,
      "minzu": 502,
      "zhexie": 503,
      "##wai": 504,
      "jue": 505,
      "jun": 506,
      "##dui": 507,
      "##shou": 508,
      "##tai": 509,
      "##ma": 510,
      "xuan": 511,
      "fei": 512,
      "hen": 513,
      "shiji": 514,
      "wan": 515,
      "geming": 516,
      "##pin": 517,
      "##liao": 518,
      "yingxiang": 519,
      "fangfa": 520,
      "wang": 521,
      "shiyan": 522,
      "18": 523,
      "##qie": 524,
      "huan": 525,
      "##duan": 526,
      "han": 527,
      "mu": 528,
      "san": 529,
      "##hai": 530,
      "##ling": 531,
      "zhan": 532,
      "chuan": 533,
      "ban": 534,
      "##uang": 535,
      "##ze": 536,
      "yixie": 537,
      "##xiao": 538,
      "zhuyao": 539,
      "zhen": 540,
      "shuo": 541,
      "kong": 542,
      "##neng": 543,
      "ziyou": 544,
      "renlei": 545,
      "shehuixue": 546,
      "xie": 547,
      "xinlixue": 548,
      "##te": 549,
      "##jun": 550,
      "sunzhong": 551,
      "ma": 552,
      "##chi": 553,
      "##wang": 554,
      "##yin": 555,
      "kaishi": 556,
      "gui": 557,
      "sunzhongshan": 558,
      "liu": 559,
      "nian": 560,
      "huaxue": 561,
      "jinxing": 562,
      "xuduo": 563,
      "zhonghua": 564,
      "##shuo": 565,
      "bo": 566,
      "##le": 567,
      "##luo": 568,
      "##wan": 569,
      "##pai": 570,
      "chao": 571,
      "##bo": 572,
      "shichang": 573,
      "shengchan": 574,
      "ben": 575,
      "tu": 576,
      "fenxi": 577,
      "cun": 578,
      "jisuanji": 579,
      "feng": 580,
      "wai": 581,
      "##bie": 582,
      "##mu": 583,
      "ba": 584,
      "tou": 585,
      "shijian": 586,
      "du": 587,
      "lian": 588,
      "jiegou": 589,
      "renmin": 590,
      "chuang": 591,
      "##jue": 592,
      "ruanjian": 593,
      "tan": 594,
      "mou": 595,
      "nan": 596,
      "xingwei": 597,
      "guanxi": 598,
      "meiguo": 599,
      "neihe": 600,
      "duiyu": 601,
      "xiandai": 602,
      "yinyue": 603,
      "10": 604,
      "lun": 605,
      "##fan": 606,
      "##suo": 607,
      "##jiang": 608,
      "jichu": 609,
      "##xia": 610,
      "xingcheng": 611,
      "mi": 612,
      "zeng": 613,
      "tui": 614,
      "##ping": 615,
      "dianying": 616,
      "que": 617,
      "##qing": 618,
      "zhongyao": 619,
      "sheji": 620,
      "wo": 621,
      "##kou": 622,
      "wuzhi": 623,
      "lei": 624,
      "tiao": 625,
      "zhongyi": 626,
      "zhijian": 627,
      "falv": 628,
      "yingyong": 629,
      "na": 630,
      "ken": 631,
      "zhang": 632,
      "##deng": 633,
      "tichu": 634,
      "su": 635,
      "ziran": 636,
      "nong": 637,
      "reng": 638,
      "##nao": 639,
      "yinci": 640,
      "gen": 641,
      "##mi": 642,
      "##man": 643,
      "daxue": 644,
      "yinwei": 645,
      "shui": 646,
      "jishu": 647,
      "wulixue": 648,
      "200": 649,
      "tuo": 650,
      "xun": 651,
      "diannao": 652,
      "pu": 653,
      "##fei": 654,
      "diyi": 655,
      "tongguo": 656,
      "yundong": 657,
      "cunzai": 658,
      "ya": 659,
      "##5nian": 660,
      "##liu": 661,
      "shengwu": 662,
      "zuzhi": 663,
      "##gang": 664,
      "##que": 665,
      "##bai": 666,
      "##mo": 667,
      "wuli": 668,
      "zuowei": 669,
      "keneng": 670,
      "lu": 671,
      "##xun": 672,
      "##ting": 673,
      "qiang": 674,
      "meiyou": 675,
      "chansheng": 676,
      "##bao": 677,
      "##lie": 678,
      "pi": 679,
      "##kai": 680,
      "zhege": 681,
      "chong": 682,
      "ceng": 683,
      "##bing": 684,
      "gainian": 685,
      "##se": 686,
      "wenxue": 687,
      "xianxiang": 688,
      "##zao": 689,
      "lin": 690,
      "##ni": 691,
      "huang": 692,
      "##na": 693,
      "chengshi": 694,
      "daibiao": 695,
      "riben": 696,
      "yiban": 697,
      "can": 698,
      "gan": 699,
      "zhishi": 700,
      "zh": 701,
      "##2nian": 702,
      "##hen": 703,
      "tongyi": 704,
      "sixiang": 705,
      "jihua": 706,
      "shiqi": 707,
      "yuyan": 708,
      "jieshi": 709,
      "guomin": 710,
      "huanjing": 711,
      "##lian": 712,
      "##1nian": 713,
      "tao": 714,
      "yang": 715,
      "##ya": 716,
      "jiben": 717,
      "fangshi": 718,
      "jianli": 719,
      "tianwen": 720,
      "luo": 721,
      "yixue": 722,
      "chuxian": 723,
      "suoyou": 724,
      "ce": 725,
      "tigong": 726,
      "##00": 727,
      "qizhong": 728,
      "##cun": 729,
      "guocheng": 730,
      "##4nian": 731,
      "##shiji": 732,
      "lizi": 733,
      "xingshi": 734,
      "xueke": 735,
      "##zhun": 736,
      "tongchang": 737,
      "jiushi": 738,
      "heng": 739,
      "##ow": 740,
      "##gu": 741,
      "##3nian": 742,
      "##dan": 743,
      "##6nian": 744,
      "lixue": 745,
      "zhao": 746,
      "##heguo": 747,
      "youyu": 748,
      "dilixue": 749,
      "ziji": 750,
      "tongshi": 751,
      "##shao": 752,
      "xiju": 753,
      "bufen": 754,
      "199": 755,
      "kaifa": 756,
      "chuantong": 757,
      "lao": 758,
      "ni": 759,
      "##rong": 760,
      "##7nian": 761,
      "##huo": 762,
      "zhezhong": 763,
      "gnu": 764,
      "##nei": 765,
      "##tian": 766,
      "11": 767,
      "##gao": 768,
      "zuoye": 769,
      "chi": 770,
      "##lan": 771,
      "huodong": 772,
      "pai": 773,
      "##zhao": 774,
      "##0niandai": 775,
      "miao": 776,
      "nuo": 777,
      "win": 778,
      "##9nian": 779,
      "shishi": 780,
      "ran": 781,
      "##on": 782,
      "jiaoyu": 783,
      "chanpin": 784,
      "##meng": 785,
      "zuoyong": 786,
      "mian": 787,
      "mao": 788,
      "ou": 789,
      "yizhi": 790,
      "##lin": 791,
      "##zhuang": 792,
      "##bufen": 793,
      "faxue": 794,
      "##chuan": 795,
      "xianggang": 796,
      "xuyao": 797,
      "gou": 798,
      "re": 799,
      "zhou": 800,
      "##san": 801,
      "##dun": 802,
      "liyong": 803,
      "xuezhe": 804,
      "kan": 805,
      "##tuo": 806,
      "bingqie": 807,
      "ai": 808,
      "##dow": 809,
      "zhihou": 810,
      "zhidu": 811,
      "gongheguo": 812,
      "window": 813,
      "##gai": 814,
      "##pu": 815,
      "##huan": 816,
      "yuanzi": 817,
      "gongzuo": 818,
      "gezhong": 819,
      "wenhua": 820,
      "##uai": 821,
      "##kuang": 822,
      "liao": 823,
      "zhuang": 824,
      "diqu": 825,
      "kongjian": 826,
      "##shui": 827,
      "baohan": 828,
      "dangshi": 829,
      "zucheng": 830,
      "faxian": 831,
      "chengxu": 832,
      "geren": 833,
      "##or": 834,
      "renmen": 835,
      "zhengce": 836,
      "shuju": 837,
      "guoji": 838,
      "beijing": 839,
      "guance": 840,
      "duan": 841,
      "rang": 842,
      "jueding": 843,
      "henduo": 844,
      "windows": 845,
      "gei": 846,
      "##me": 847,
      "yijing": 848,
      "zhixing": 849,
      "diqiu": 850,
      "ao": 851,
      "kao": 852,
      "##os": 853,
      "zhiyi": 854,
      "gongchan": 855,
      "miaoshu": 856,
      "bai": 857,
      "yuzhou": 858,
      "gudian": 859,
      "guancha": 860,
      "12": 861,
      "renkou": 862,
      "191": 863,
      "guangzhou": 864,
      "dingyi": 865,
      "touguo": 866,
      "hao": 867,
      "xifang": 868,
      "zhichi": 869,
      "ershi": 870,
      "huode": 871,
      "xuqiu": 872,
      "hexin": 873,
      "bushi": 874,
      "dier": 875,
      "fangmian": 876,
      "minguo": 877,
      "10yue": 878,
      "##xuejia": 879,
      "renshi": 880,
      "qie": 881,
      "zhuzhang": 882,
      "198": 883,
      "190": 884,
      "bixu": 885,
      "banben": 886,
      "guomindang": 887,
      "men": 888,
      "##mei": 889,
      "zhongyang": 890,
      "chuli": 891,
      "jiazhi": 892,
      "genju": 893,
      "song": 894,
      "dengdeng": 895,
      "guanli": 896,
      "hengxing": 897,
      "shiwei": 898,
      "diao": 899,
      "gongsi": 900,
      "gongneng": 901,
      "chengli": 902,
      "wufa": 903,
      "duixiang": 904,
      "##og": 905,
      "jingshen": 906,
      "zhengshi": 907,
      "shuyu": 908,
      "ziyuan": 909,
      "##wa": 910,
      "##po": 911,
      "jiqi": 912,
      "jingyan": 913,
      "xiangguan": 914,
      "xinli": 915,
      "biaozhun": 916,
      "cha": 917,
      "hong": 918,
      "kuo": 919,
      "##tan": 920,
      "##re": 921,
      "shide": 922,
      "weiyuan": 923,
      "jieguo": 924,
      "qingkuang": 925,
      "zaoqi": 926,
      "fenzi": 927,
      "mouxie": 928,
      "suan": 929,
      "##nan": 930,
      "##el": 931,
      "##feng": 932,
      "danshi": 933,
      "nongye": 934,
      "11yue": 935,
      "##kong": 936,
      "yishu": 937,
      "qiyi": 938,
      "geti": 939,
      "##lve": 940,
      "ruhe": 941,
      "moxing": 942,
      "##ceng": 943,
      "##al": 944,
      "##kao": 945,
      "renhe": 946,
      "xingzhi": 947,
      "shanghai": 948,
      "xiangdui": 949,
      "jiage": 950,
      "chen": 951,
      "##8nian": 952,
      "shidai": 953,
      "##xiu": 954,
      "jieshou": 955,
      "zongjiao": 956,
      "nenggou": 957,
      "duli": 958,
      "zengjia": 959,
      "women": 960,
      "gongchandang": 961,
      "gongju": 962,
      "xuepai": 963,
      "weiyuanhui": 964,
      "shao": 965,
      "##yun": 966,
      "jilu": 967,
      "gongji": 968,
      "##zhen": 969,
      "fenwei": 970,
      "yongyou": 971,
      "shoudao": 972,
      "##beier": 973,
      "3yue": 974,
      "mai": 975,
      "pei": 976,
      "##chao": 977,
      "##pei": 978,
      "yilai": 979,
      "liyi": 980,
      "zhiliao": 981,
      "daliang": 982,
      "jiejue": 983,
      "huozhe": 984,
      "tongji": 985,
      "yonghu": 986,
      "juyou": 987,
      "ruanti": 988,
      "ouzhou": 989,
      "chou": 990,
      "man": 991,
      "##qun": 992,
      "##diao": 993,
      "jiyu": 994,
      "xiu": 995,
      "lijie": 996,
      "shuliang": 997,
      "197": 998,
      "tixi": 999,
      "yuanshi": 1000,
      "##kesi": 1001,
      "tebie": 1002,
      "taiwan": 1003,
      "xuanze": 1004,
      "rong": 1005,
      "##tuan": 1006,
      "##anguo": 1007,
      "buguo": 1008,
      "dizhi": 1009,
      "faxing": 1010,
      "gongyuan": 1011,
      "xingxi": 1012,
      "##chuang": 1013,
      "guanyu": 1014,
      "taiyang": 1015,
      "suiran": 1016,
      "189": 1017,
      "17": 1018,
      "hei": 1019,
      "##guang": 1020,
      "##sun": 1021,
      "fabu": 1022,
      "dabufen": 1023,
      "fuwu": 1024,
      "bijiao": 1025,
      "teding": 1026,
      "raner": 1027,
      "##cai": 1028,
      "##gan": 1029,
      "##za": 1030,
      "##pan": 1031,
      "shixian": 1032,
      "xila": 1033,
      "ziliao": 1034,
      "xianshi": 1035,
      "xueshu": 1036,
      "lingwai": 1037,
      "neirong": 1038,
      "junshi": 1039,
      "wanquan": 1040,
      "nuobeier": 1041,
      "16": 1042,
      "##mai": 1043,
      "fasheng": 1044,
      "gaibian": 1045,
      "fanwei": 1046,
      "liangzi": 1047,
      "yishi": 1048,
      "yisi": 1049,
      "zhongxin": 1050,
      "zhidao": 1051,
      "weile": 1052,
      "gongtong": 1053,
      "huoshi": 1054,
      "xinxi": 1055,
      "fenzhi": 1056,
      "hudong": 1057,
      "bingbu": 1058,
      "196": 1059,
      "chanye": 1060,
      "tang": 1061,
      "##ba": 1062,
      "jiyi": 1063,
      "zhineng": 1064,
      "youshi": 1065,
      "dili": 1066,
      "jinguan": 1067,
      "tuowa": 1068,
      "piping": 1069,
      "tuowazi": 1070,
      "shan": 1071,
      "zhuming": 1072,
      "zheyang": 1073,
      "gongcheng": 1074,
      "dadao": 1075,
      "chenggong": 1076,
      "chengzhang": 1077,
      "zixun": 1078,
      "xingxing": 1079,
      "xuexi": 1080,
      "zhengzhixue": 1081,
      "makesi": 1082,
      "chuangli": 1083,
      "zengzhang": 1084,
      "hun": 1085,
      "kang": 1086,
      "la": 1087,
      "tuan": 1088,
      "##tou": 1089,
      "jishi": 1090,
      "lixing": 1091,
      "qin": 1092,
      "zhuzuo": 1093,
      "xianghu": 1094,
      "shenghuo": 1095,
      "biru": 1096,
      "haiyou": 1097,
      "yunxing": 1098,
      "zhuanye": 1099,
      "quanli": 1100,
      "co": 1101,
      "in": 1102,
      "lv": 1103,
      "os": 1104,
      "po": 1105,
      "ruo": 1106,
      "##chen": 1107,
      "huiyi": 1108,
      "yuansu": 1109,
      "guangfan": 1110,
      "anquan": 1111,
      "mudi": 1112,
      "maoyi": 1113,
      "cuo": 1114,
      "ha": 1115,
      "dedao": 1116,
      "##uer": 1117,
      "gonggong": 1118,
      "zhengti": 1119,
      "195": 1120,
      "jiagou": 1121,
      "fanying": 1122,
      "houlai": 1123,
      "xinlixuejia": 1124,
      "chaoguo": 1125,
      "tiaojian": 1126,
      "gang": 1127,
      "hang": 1128,
      "of": 1129,
      "ting": 1130,
      "zun": 1131,
      "zhichu": 1132,
      "renzhi": 1133,
      "xiangdang": 1134,
      "192": 1135,
      "bianhua": 1136,
      "daozhi": 1137,
      "yongyu": 1138,
      "ruguo": 1139,
      "shenzhi": 1140,
      "feichang": 1141,
      "kuai": 1142,
      "nai": 1143,
      "##tao": 1144,
      "##ter": 1145,
      "##pian": 1146,
      "yuce": 1147,
      "jingzheng": 1148,
      "jingdian": 1149,
      "chun": 1150,
      "chule": 1151,
      "yingguo": 1152,
      "zuopin": 1153,
      "suoyi": 1154,
      "fuza": 1155,
      "quanguo": 1156,
      "zaocheng": 1157,
      "tianti": 1158,
      "dongwu": 1159,
      "quanqiu": 1160,
      "minzuzhuyi": 1161,
      "##gui": 1162,
      "zhijie": 1163,
      "gongli": 1164,
      "yinsu": 1165,
      "dangzhong": 1166,
      "nengli": 1167,
      "suizhu": 1168,
      "pian": 1169,
      "pin": 1170,
      "##kang": 1171,
      "lie": 1172,
      "zhuyi": 1173,
      "chengben": 1174,
      "jiemian": 1175,
      "gudai": 1176,
      "jiashe": 1177,
      "dianzi": 1178,
      "haiyang": 1179,
      "zhexuejia": 1180,
      "cu": 1181,
      "meng": 1182,
      "##ku": 1183,
      "##pi": 1184,
      "yiyi": 1185,
      "zaiyu": 1186,
      "youxie": 1187,
      "youguan": 1188,
      "qiyuan": 1189,
      "buduan": 1190,
      "zhun": 1191,
      "##tion": 1192,
      "fabiao": 1193,
      "dalu": 1194,
      "ziben": 1195,
      "yinhang": 1196,
      "guandian": 1197,
      "dangan": 1198,
      "daima": 1199,
      "muqian": 1200,
      "kongzhi": 1201,
      "pubian": 1202,
      "linshi": 1203,
      "tianwenxue": 1204,
      "laodong": 1205,
      "6yue": 1206,
      "sel": 1207,
      "zhiyou": 1208,
      "daduo": 1209,
      "chengdu": 1210,
      "wancheng": 1211,
      "liuxing": 1212,
      "qiangdiao": 1213,
      "niu": 1214,
      "tuanti": 1215,
      "self": 1216,
      "9yue": 1217,
      "bang": 1218,
      "uni": 1219,
      "shiye": 1220,
      "##qin": 1221,
      "keji": 1222,
      "difang": 1223,
      "jiehe": 1224,
      "shangye": 1225,
      "yinggai": 1226,
      "baohu": 1227,
      "kexuejia": 1228,
      "qude": 1229,
      "shiyongzhe": 1230,
      "caiyong": 1231,
      "moshi": 1232,
      "2010nian": 1233,
      "shengwuxue": 1234,
      "canyu": 1235,
      "1yue": 1236,
      "4yue": 1237,
      "##sha": 1238,
      "jidu": 1239,
      "yiyuan": 1240,
      "weizhi": 1241,
      "chulai": 1242,
      "wenzi": 1243,
      "fenpei": 1244,
      "xuesheng": 1245,
      "gaige": 1246,
      "fandui": 1247,
      "yaoqiu": 1248,
      "mubiao": 1249,
      "zhenjiu": 1250,
      "benshen": 1251,
      "15": 1252,
      "ka": 1253,
      "qun": 1254,
      "so": 1255,
      "##fou": 1256,
      "##bin": 1257,
      "jijin": 1258,
      "qijian": 1259,
      "zhujian": 1260,
      "gongye": 1261,
      "wuti": 1262,
      "liangzhe": 1263,
      "zhuanzhu": 1264,
      "jingjixuejia": 1265,
      "biaoshi": 1266,
      "yali": 1267,
      "liaojie": 1268,
      "14": 1269,
      "7yue": 1270,
      "ku": 1271,
      "nv": 1272,
      "##song": 1273,
      "##ra": 1274,
      "##kan": 1275,
      "##kuai": 1276,
      "yiwai": 1277,
      "zhiqian": 1278,
      "zheshi": 1279,
      "disan": 1280,
      "yanhua": 1281,
      "daqi": 1282,
      "dacheng": 1283,
      "jingguo": 1284,
      "jingchang": 1285,
      "chuban": 1286,
      "yuanyin": 1287,
      "lingdao": 1288,
      "situo": 1289,
      "bianji": 1290,
      "tuxing": 1291,
      "leisi": 1292,
      "sulian": 1293,
      "gongyuanqian": 1294,
      "ix": 1295,
      "the": 1296,
      "##ol": 1297,
      "##chou": 1298,
      "##yibu": 1299,
      "zhongduo": 1300,
      "zhiliang": 1301,
      "zhuti": 1302,
      "ditu": 1303,
      "dahui": 1304,
      "zhengge": 1305,
      "guofu": 1306,
      "xueyuan": 1307,
      "tie": 1308,
      "laishuo": 1309,
      "minzhu": 1310,
      "zonghe": 1311,
      "unix": 1312,
      "situoman": 1313,
      "kou": 1314,
      "zhui": 1315,
      "##xuan": 1316,
      "##lang": 1317,
      "##zong": 1318,
      "##sai": 1319,
      "renwu": 1320,
      "faguo": 1321,
      "daxing": 1322,
      "xiangmu": 1323,
      "fenbie": 1324,
      "fushe": 1325,
      "neibu": 1326,
      "dinglv": 1327,
      "pingheng": 1328,
      "juese": 1329,
      "benzhi": 1330,
      "rengran": 1331,
      "linchuang": 1332,
      "luoji": 1333,
      "##zou": 1334,
      "##kuan": 1335,
      "yiju": 1336,
      "shiwu": 1337,
      "zhiwu": 1338,
      "youxiao": 1339,
      "weir": 1340,
      "zhuliu": 1341,
      "jieduan": 1342,
      "xingzheng": 1343,
      "guoqu": 1344,
      "jinru": 1345,
      "jinri": 1346,
      "biancheng": 1347,
      "2015nian": 1348,
      "2012nian": 1349,
      "shehuixuejia": 1350,
      "touru": 1351,
      "kuang": 1352,
      "peng": 1353,
      "yiwei": 1354,
      "faming": 1355,
      "gongxian": 1356,
      "shuang": 1357,
      "eryan": 1358,
      "huobi": 1359,
      "xinyang": 1360,
      "yingti": 1361,
      "laizi": 1362,
      "quyu": 1363,
      "cailiao": 1364,
      "taolun": 1365,
      "celiang": 1366,
      "diaocha": 1367,
      "13": 1368,
      "8yue": 1369,
      "pa": 1370,
      "##ch": 1371,
      "##che": 1372,
      "##st": 1373,
      "##sen": 1374,
      "##dou": 1375,
      "deguo": 1376,
      "jixu": 1377,
      "weixing": 1378,
      "buke": 1379,
      "sheli": 1380,
      "diwei": 1381,
      "##zhuan": 1382,
      "tongmeng": 1383,
      "fenlei": 1384,
      "xuexiao": 1385,
      "fuhe": 1386,
      "meige": 1387,
      "jiaru": 1388,
      "zuizhong": 1389,
      "kaien": 1390,
      "daode": 1391,
      "minzhong": 1392,
      "wangwang": 1393,
      "zhendui": 1394,
      "pan": 1395,
      "##ka": 1396,
      "yiding": 1397,
      "yiqie": 1398,
      "shihou": 1399,
      "shizheng": 1400,
      "xibao": 1401,
      "zhongda": 1402,
      "qiu": 1403,
      "zishen": 1404,
      "erqie": 1405,
      "tongyong": 1406,
      "fenbu": 1407,
      "shengming": 1408,
      "jiandan": 1409,
      "zuochu": 1410,
      "tigao": 1411,
      "bianyi": 1412,
      "xuke": 1413,
      "kaifang": 1414,
      "pinglun": 1415,
      "2011nian": 1416,
      "naxie": 1417,
      "chixu": 1418,
      "jiyiti": 1419,
      "ib": 1420,
      "##bang": 1421,
      "jihe": 1422,
      "jizhi": 1423,
      "shixing": 1424,
      "shifou": 1425,
      "zhihui": 1426,
      "##qiang": 1427,
      "weihu": 1428,
      "weilai": 1429,
      "qishi": 1430,
      "zhengming": 1431,
      "tongzhi": 1432,
      "tongyang": 1433,
      "xianzhi": 1434,
      "huxiang": 1435,
      "194": 1436,
      "suowei": 1437,
      "yuanze": 1438,
      "meiyuan": 1439,
      "jiating": 1440,
      "jiaoyi": 1441,
      "ruci": 1442,
      "shenme": 1443,
      "changchang": 1444,
      "duozhong": 1445,
      "teshu": 1446,
      "##latu": 1447,
      "biaoyan": 1448,
      "junheng": 1449,
      "wanglu": 1450,
      "chayi": 1451,
      "xiangduilun": 1452,
      "faxingban": 1453,
      "cuowu": 1454,
      "daduoshu": 1455,
      "ibm": 1456,
      "25": 1457,
      "##et": 1458,
      "##tang": 1459,
      "yiti": 1460,
      "yishang": 1461,
      "shitu": 1462,
      "##linux": 1463,
      "zhongshi": 1464,
      "hezuo": 1465,
      "renyuan": 1466,
      "weizhu": 1467,
      "yanchu": 1468,
      "##tiao": 1469,
      "gongmin": 1470,
      "jieji": 1471,
      "guonei": 1472,
      "xianzai": 1473,
      "dianci": 1474,
      "##duode": 1475,
      "jiaodu": 1476,
      "##fangmian": 1477,
      "yonglai": 1478,
      "guangyi": 1479,
      "guangdong": 1480,
      "xiaolv": 1481,
      "yunxu": 1482,
      "yuehan": 1483,
      "shiyanshi": 1484,
      "guifan": 1485,
      "tuidong": 1486,
      "zhuangzhi": 1487,
      "12yue": 1488,
      "yuanshikai": 1489,
      "##olog": 1490,
      "5yue": 1491,
      "tw": 1492,
      "##wo": 1493,
      "##ro": 1494,
      "yushi": 1495,
      "renwen": 1496,
      "zhengyi": 1497,
      "shehuizhuyi": 1498,
      "shengyin": 1499,
      "jiancha": 1500,
      "fuhao": 1501,
      "yuanli": 1502,
      "danwei": 1503,
      "zongli": 1504,
      "xiaofei": 1505,
      "dailai": 1506,
      "tezheng": 1507,
      "tance": 1508,
      "mouzhong": 1509,
      "nanjing": 1510,
      "goucheng": 1511,
      "yisilan": 1512,
      "jijinhui": 1513,
      "tongmenghui": 1514,
      "gp": 1515,
      "##cao": 1516,
      "jiji": 1517,
      "jinian": 1518,
      "jihui": 1519,
      "jigou": 1520,
      "yibufen": 1521,
      "zhili": 1522,
      "zhizuo": 1523,
      "zhiding": 1524,
      "youren": 1525,
      "weiyi": 1526,
      "qihou": 1527,
      "keguan": 1528,
      "xingdong": 1529,
      "xianjin": 1530,
      "zongti": 1531,
      "nengliang": 1532,
      "wangluo": 1533,
      "hans": 1534,
      "xieyi": 1535,
      "tudi": 1536,
      "tansuo": 1537,
      "##nasi": 1538,
      "21": 1539,
      "2yue": 1540,
      "nlinux": 1541,
      "##cui": 1542,
      "##ll": 1543,
      "##kui": 1544,
      "jihu": 1545,
      "yiyang": 1546,
      "##xuepai": 1547,
      "zhongwen": 1548,
      "zhongdian": 1549,
      "zhizao": 1550,
      "youqi": 1551,
      "zhuo": 1552,
      "shebei": 1553,
      "jingli": 1554,
      "chengguo": 1555,
      "chengyuan": 1556,
      "gege": 1557,
      "jiezhi": 1558,
      "guohui": 1559,
      "yindu": 1560,
      "jindai": 1561,
      "guxi": 1562,
      "xianfa": 1563,
      "xiansheng": 1564,
      "sunwen": 1565,
      "guanzhu": 1566,
      "biye": 1567,
      "shouji": 1568,
      "xuanbu": 1569,
      "wanzheng": 1570,
      "bolatu": 1571,
      "chuangzao": 1572,
      "zhongyixue": 1573,
      "nuowei": 1574,
      "tebieshi": 1575,
      "bangzhu": 1576,
      "000": 1577,
      "30": 1578,
      "kun": 1579,
      "lang": 1580,
      "za": 1581,
      "zan": 1582,
      "##lao": 1583,
      "##zui": 1584,
      "##huai": 1585,
      "jibing": 1586,
      "zhongshan": 1587,
      "zhiyuan": 1588,
      "youxian": 1589,
      "##weiyi": 1590,
      "zhuzhong": 1591,
      "shuai": 1592,
      "xiangxin": 1593,
      "wenming": 1594,
      "xuewen": 1595,
      "193": 1596,
      "meiti": 1597,
      "zuichu": 1598,
      "##laiyue": 1599,
      "ciwai": 1600,
      "##die": 1601,
      "xiaoguo": 1602,
      "changshi": 1603,
      "yuelaiyue": 1604,
      "dingwei": 1605,
      "2016nian": 1606,
      "zhanzheng": 1607,
      "shuofa": 1608,
      "chongxin": 1609,
      "chongtu": 1610,
      "yange": 1611,
      "shaoshu": 1612,
      "chouxiang": 1613,
      "xiugai": 1614,
      "com": 1615,
      "500": 1616,
      "dos": 1617,
      "##zang": 1618,
      "##rd": 1619,
      "yixia": 1620,
      "zhonggong": 1621,
      "bujin": 1622,
      "zhuguan": 1623,
      "zhengque": 1624,
      "wuxian": 1625,
      "jinyibu": 1626,
      "wenjian": 1627,
      "shengyu": 1628,
      "fangwen": 1629,
      "cishi": 1630,
      "mingcheng": 1631,
      "juli": 1632,
      "juxing": 1633,
      "##zhuyizhe": 1634,
      "qudong": 1635,
      "fanchou": 1636,
      "shenjing": 1637,
      "conger": 1638,
      "gengjia": 1639,
      "2014nian": 1640,
      "187": 1641,
      "miqie": 1642,
      "huangxing": 1643,
      "soci": 1644,
      "26": 1645,
      "go": 1646,
      "nu": 1647,
      "sai": 1648,
      "jiguan": 1649,
      "jizai": 1650,
      "yiqi": 1651,
      "yihou": 1652,
      "xiwang": 1653,
      "zhongshiji": 1654,
      "yuqi": 1655,
      "kecheng": 1656,
      "dida": 1657,
      "yanyuan": 1658,
      "yanjin": 1659,
      "##geming": 1660,
      "jieyou": 1661,
      "xingqu": 1662,
      "xingtai": 1663,
      "xiangying": 1664,
      "jinbu": 1665,
      "wending": 1666,
      "shouru": 1667,
      "gaizu": 1668,
      "minjian": 1669,
      "chanchu": 1670,
      "yunyong": 1671,
      "zhuanbian": 1672,
      "188": 1673,
      "hanyi": 1674,
      "guiding": 1675,
      "chaoji": 1676,
      "lianxi": 1677,
      "chuangzuo": 1678,
      "leixing": 1679,
      "putong": 1680,
      "ranhou": 1681,
      "niudun": 1682,
      "kua": 1683,
      "cn": 1684,
      "cang": 1685,
      "nt": 1686,
      "ning": 1687,
      "sha": 1688,
      "##chong": 1689,
      "##gen": 1690,
      "##sa": 1691,
      "##rui": 1692,
      "yisheng": 1693,
      "yiqian": 1694,
      "yiliao": 1695,
      "##lisi": 1696,
      "licha": 1697,
      "weiguan": 1698,
      "qiao": 1699,
      "yanzhong": 1700,
      "fachu": 1701,
      "zhenglun": 1702,
      "gedi": 1703,
      "##ziran": 1704,
      "yiner": 1705,
      "xiangtong": 1706,
      "yingjian": 1707,
      "shengtai": 1708,
      "jianshi": 1709,
      "zuihou": 1710,
      "simi": 1711,
      "jiaohu": 1712,
      "mingming": 1713,
      "juda": 1714,
      "changqi": 1715,
      "qianwang": 1716,
      "gaodu": 1717,
      "touzi": 1718,
      "tuichu": 1719,
      "pipan": 1720,
      "linnasi": 1721,
      "kaifazhe": 1722,
      "kuozhang": 1723,
      "jidujiao": 1724,
      "zhuanzhuyu": 1725,
      "tielu": 1726,
      "weiruan": 1727,
      "kaiensi": 1728,
      "xukezheng": 1729,
      "guxila": 1730,
      "cui": 1731,
      "##op": 1732,
      "##es": 1733,
      "##luan": 1734,
      "##ty": 1735,
      "deyi": 1736,
      "lifa": 1737,
      "zhijin": 1738,
      "fadong": 1739,
      "gongshi": 1740,
      "shuzhi": 1741,
      "beifa": 1742,
      "beiju": 1743,
      "jinnian": 1744,
      "jintian": 1745,
      "xinwen": 1746,
      "huai": 1747,
      "guannian": 1748,
      "fangxiang": 1749,
      "jianzhu": 1750,
      "jianshe": 1751,
      "huifu": 1752,
      "tizhi": 1753,
      "jiashuo": 1754,
      "dansheng": 1755,
      "dianji": 1756,
      "bili": 1757,
      "bianzheng": 1758,
      "kaiyuan": 1759,
      "laiyuan": 1760,
      "mingque": 1761,
      "dangyuan": 1762,
      "shouduan": 1763,
      "##minzhuyi": 1764,
      "changjian": 1765,
      "caifu": 1766,
      "yueqi": 1767,
      "pingtai": 1768,
      "suizhe": 1769,
      "sanminzhuyi": 1770,
      "zhenzheng": 1771,
      "##luosi": 1772,
      "waijiao": 1773,
      "zhaodao": 1774,
      "shishishang": 1775,
      "zhuangtai": 1776,
      "duanqi": 1777,
      "kuozhan": 1778,
      "nuobeierjiang": 1779,
      "kangde": 1780,
      "1ri": 1781,
      "22": 1782,
      "long": 1783,
      "wa": 1784,
      "##cang": 1785,
      "##ys": 1786,
      "jixie": 1787,
      "##shishuo": 1788,
      "zhongzi": 1789,
      "youxi": 1790,
      "##qiao": 1791,
      "qiye": 1792,
      "buzhi": 1793,
      "zhudao": 1794,
      "##gela": 1795,
      "zizhi": 1796,
      "shangshu": 1797,
      "yinqi": 1798,
      "jinzhi": 1799,
      "wendu": 1800,
      "yingwen": 1801,
      "tidao": 1802,
      "fuze": 1803,
      "jingjiti": 1804,
      "danyi": 1805,
      "bici": 1806,
      "jiaoshou": 1807,
      "bianliang": 1808,
      "dangdai": 1809,
      "jujue": 1810,
      "qushi": 1811,
      "fanzui": 1812,
      "zongdu": 1813,
      "xiaoshuo": 1814,
      "zhuanmen": 1815,
      "dongjing": 1816,
      "biaoxian": 1817,
      "moni": 1818,
      "pingjun": 1819,
      "xuancheng": 1820,
      "xuanyan": 1821,
      "shijishang": 1822,
      "hant": 1823,
      "banyan": 1824,
      "shuoming": 1825,
      "fengge": 1826,
      "genben": 1827,
      "zhaokai": 1828,
      "tongjixue": 1829,
      "makesizhuyi": 1830,
      "kuaisu": 1831,
      "yalishi": 1832,
      "gpl": 1833,
      "27": 1834,
      "che": 1835,
      "pang": 1836,
      "zou": 1837,
      "##ct": 1838,
      "##long": 1839,
      "##sd": 1840,
      "##lizi": 1841,
      "liliang": 1842,
      "hecheng": 1843,
      "qilai": 1844,
      "dixia": 1845,
      "daxiao": 1846,
      "daziran": 1847,
      "chengshu": 1848,
      "zhengju": 1849,
      "chufa": 1850,
      "chusheng": 1851,
      "##jiushishuo": 1852,
      "guowu": 1853,
      "yinli": 1854,
      "tongnian": 1855,
      "jinrong": 1856,
      "xianxing": 1857,
      "yejiushishuo": 1858,
      "baozhang": 1859,
      "baoluo": 1860,
      "jiankang": 1861,
      "fuxing": 1862,
      "meinian": 1863,
      "siwei": 1864,
      "202": 1865,
      "jiangou": 1866,
      "shouci": 1867,
      "juti": 1868,
      "qudai": 1869,
      "zujian": 1870,
      "changyong": 1871,
      "xiayi": 1872,
      "xiaweiyi": 1873,
      "duoci": 1874,
      "##labo": 1875,
      "tianqi": 1876,
      "yaosu": 1877,
      "biaoda": 1878,
      "2013nian": 1879,
      "gemingdang": 1880,
      "huanying": 1881,
      "sanda": 1882,
      "xiezhu": 1883,
      "mac": 1884,
      "guilv": 1885,
      "liupai": 1886,
      "queding": 1887,
      "zhongyiyao": 1888,
      "2007nian": 1889,
      "tuoli": 1890,
      "luoma": 1891,
      "laogong": 1892,
      "chenji": 1893,
      "29": 1894,
      "23": 1895,
      "eluosi": 1896,
      "lan": 1897,
      "##cs": 1898,
      "##nong": 1899,
      "##ruo": 1900,
      "##miao": 1901,
      "jiti": 1902,
      "yici": 1903,
      "shixue": 1904,
      "shizhi": 1905,
      "shibai": 1906,
      "##yifangmian": 1907,
      "zhongzhi": 1908,
      "zhixia": 1909,
      "yousuo": 1910,
      "weiji": 1911,
      "weiyu": 1912,
      "weibo": 1913,
      "zhuxi": 1914,
      "shequn": 1915,
      "yansheng": 1916,
      "faqi": 1917,
      "dayue": 1918,
      "chengjiu": 1919,
      "chengren": 1920,
      "chuyu": 1921,
      "geguo": 1922,
      "##geer": 1923,
      "jieda": 1924,
      "wudao": 1925,
      "xiangfan": 1926,
      "jinhua": 1927,
      "fenli": 1928,
      "bingfei": 1929,
      "baogao": 1930,
      "jianyan": 1931,
      "##rushi": 1932,
      "fuli": 1933,
      "jiayi": 1934,
      "lingyifangmian": 1935,
      "dianshi": 1936,
      "zuiduo": 1937,
      "zuida": 1938,
      "sifa": 1939,
      "##zhengfu": 1940,
      "qubie": 1941,
      "gengwei": 1942,
      "tezhi": 1943,
      "dingliang": 1944,
      "2017nian": 1945,
      "shuxuejia": 1946,
      "suihou": 1947,
      "and": 1948,
      "anzhuang": 1949,
      "juece": 1950,
      "juedui": 1951,
      "waibu": 1952,
      "lianhe": 1953,
      "tantao": 1954,
      "lundun": 1955,
      "nongmin": 1956,
      "rengong": 1957,
      "shuiping": 1958,
      "xuni": 1959,
      "cengjing": 1960,
      "tianwenxuejia": 1961,
      "mianxiang": 1962,
      "kaolv": 1963,
      "##ogra": 1964,
      "taiyangxi": 1965,
      "tingzhi": 1966,
      "25ri": 1967,
      "##ologi": 1968,
      "youqishi": 1969,
      "nuli": 1970,
      "baoluoting": 1971,
      "24": 1972,
      "alabo": 1973,
      "ga": 1974,
      "ph": 1975,
      "sa": 1976,
      "##ca": 1977,
      "##ar": 1978,
      "##sui": 1979,
      "##ds": 1980,
      "##run": 1981,
      "##hewu": 1982,
      "##hun": 1983,
      "yizhu": 1984,
      "shijiu": 1985,
      "shifen": 1986,
      "##xiong": 1987,
      "lirun": 1988,
      "zhonglei": 1989,
      "zhizhi": 1990,
      "zhiyu": 1991,
      "zhiwai": 1992,
      "heping": 1993,
      "youde": 1994,
      "rensheng": 1995,
      "qiti": 1996,
      "qixiang": 1997,
      "gongkai": 1998,
      "dazhi": 1999,
      "jingque": 2000,
      "shuyuan": 2001,
      "##jiate": 2002,
      "##xiangshan": 2003,
      "xingqi": 2004,
      "xinger": 2005,
      "wuzhong": 2006,
      "wutai": 2007,
      "xiangxi": 2008,
      "##eren": 2009,
      "guji": 2010,
      "xinxing": 2011,
      "fenlie": 2012,
      "xuehui": 2013,
      "guanjian": 2014,
      "shengcheng": 2015,
      "baoliu": 2016,
      "danren": 2017,
      "sikao": 2018,
      "biande": 2019,
      "rutong": 2020,
      "haishi": 2021,
      "shenxue": 2022,
      "zongtong": 2023,
      "yunzuo": 2024,
      "xialai": 2025,
      "caizheng": 2026,
      "lishixue": 2027,
      "tese": 2028,
      "qianrushi": 2029,
      "dongxi": 2030,
      "dingli": 2031,
      "quanji": 2032,
      "186": 2033,
      "chuanbo": 2034,
      "xiehui": 2035,
      "xietiao": 2036,
      "boshi": 2037,
      "##bote": 2038,
      "fengfu": 2039,
      "chuangjian": 2040,
      "queli": 2041,
      "##qingling": 2042,
      "renge": 2043,
      "mianji": 2044,
      "liaofa": 2045,
      "1912nian": 2046,
      "songqingling": 2047,
      "maijia": 2048,
      "huozheshi": 2049,
      "rongyi": 2050,
      "naijiate": 2051,
      "chuncui": 2052,
      "cujin": 2053,
      "qunti": 2054,
      "yalishiduode": 2055,
      "zuidahua": 2056,
      "hk": 2057,
      "op": 2058,
      "pao": 2059,
      "rui": 2060,
      "tuer": 2061,
      "un": 2062,
      "##cal": 2063,
      "##th": 2064,
      "##juan": 2065,
      "##vi": 2066,
      "yida": 2067,
      "##uni": 2068,
      "zhishao": 2069,
      "yanzheng": 2070,
      "fashe": 2071,
      "gongchang": 2072,
      "chengzuo": 2073,
      "zhengzai": 2074,
      "shuchu": 2075,
      "jiechu": 2076,
      "jiefang": 2077,
      "xingzhong": 2078,
      "wuchang": 2079,
      "##chun": 2080,
      "guoshi": 2081,
      "shangpin": 2082,
      "yinhe": 2083,
      "xianzhu": 2084,
      "fencheng": 2085,
      "fenlan": 2086,
      "sunshi": 2087,
      "sunyi": 2088,
      "jianyi": 2089,
      "fuzhi": 2090,
      "fuluo": 2091,
      "yuanyu": 2092,
      "zuizao": 2093,
      "20shiji": 2094,
      "##fanggong": 2095,
      "mingzi": 2096,
      "mingci": 2097,
      "juben": 2098,
      "zuhe": 2099,
      "guangxue": 2100,
      "qingxiang": 2101,
      "texing": 2102,
      "dongbei": 2103,
      "yaowu": 2104,
      "dingzhi": 2105,
      "pingdeng": 2106,
      "junfa": 2107,
      "zhanlve": 2108,
      "banfa": 2109,
      "renleixue": 2110,
      "guina": 2111,
      "fengong": 2112,
      "waiguo": 2113,
      "dute": 2114,
      "renminbi": 2115,
      "tanxiangshan": 2116,
      "name": 2117,
      "xunqiu": 2118,
      "xunlian": 2119,
      "cankao": 2120,
      "sixiangjia": 2121,
      "1991nian": 2122,
      "zhouqi": 2123,
      "geichu": 2124,
      "kaocha": 2125,
      "1980niandai": 2126,
      "hongguan": 2127,
      "kuoda": 2128,
      "zhunque": 2129,
      "kaer": 2130,
      "kuangjia": 2131,
      "26ri": 2132,
      "chenjiong": 2133,
      "64": 2134,
      "aer": 2135,
      "bin": 2136,
      "ex": 2137,
      "kuan": 2138,
      "piao": 2139,
      "sou": 2140,
      "##co": 2141,
      "##nuo": 2142,
      "##0wan": 2143,
      "##ening": 2144,
      "shiling": 2145,
      "xiong": 2146,
      "##yide": 2147,
      "zhongyu": 2148,
      "zhizhong": 2149,
      "zhizi": 2150,
      "zhiye": 2151,
      "zhizhao": 2152,
      "renti": 2153,
      "qiyue": 2154,
      "shequ": 2155,
      "zhengfa": 2156,
      "chukou": 2157,
      "gezi": 2158,
      "shuzi": 2159,
      "duiying": 2160,
      "jinjin": 2161,
      "gushi": 2162,
      "yingyu": 2163,
      "19shiji": 2164,
      "fangqi": 2165,
      "jiancheng": 2166,
      "zuozhe": 2167,
      "jiazu": 2168,
      "jianguo": 2169,
      "jiaowei": 2170,
      "jiaozuo": 2171,
      "bianqian": 2172,
      "##dingxing": 2173,
      "mingxian": 2174,
      "mingling": 2175,
      "quxiao": 2176,
      "congshi": 2177,
      "nengyuan": 2178,
      "duoyang": 2179,
      "caineng": 2180,
      "biaozhi": 2181,
      "quanshi": 2182,
      "pingguo": 2183,
      "xuanju": 2184,
      "hanyou": 2185,
      "##zedong": 2186,
      "guimo": 2187,
      "niandai": 2188,
      "tur": 2189,
      "lianheguo": 2190,
      "nanfang": 2191,
      "sudu": 2192,
      "huangdi": 2193,
      "1990niandai": 2194,
      "maozedong": 2195,
      "goumai": 2196,
      "12ri": 2197,
      "manzu": 2198,
      "heigeer": 2199,
      "pohuai": 2200,
      "zibenzhuyi": 2201,
      "xingzhengqu": 2202,
      "compu": 2203,
      "ningju": 2204,
      "##lisideng": 2205,
      "lichade": 2206,
      "70": 2207,
      "9ri": 2208,
      "ho": 2209,
      "lou": 2210,
      "me": 2211,
      "pos": 2212,
      "se": 2213,
      "sys": 2214,
      "##ona": 2215,
      "##ck": 2216,
      "##cong": 2217,
      "##zha": 2218,
      "##pe": 2219,
      "##peng": 2220,
      "dehua": 2221,
      "jicheng": 2222,
      "yikao": 2223,
      "shiyi": 2224,
      "xiyi": 2225,
      "xiqu": 2226,
      "xishou": 2227,
      "xizang": 2228,
      "lixiang": 2229,
      "liening": 2230,
      "zhicheng": 2231,
      "zhishang": 2232,
      "zhiling": 2233,
      "zainei": 2234,
      "rending": 2235,
      "weili": 2236,
      "bushao": 2237,
      "zhuru": 2238,
      "sheying": 2239,
      "dishi": 2240,
      "diyu": 2241,
      "disi": 2242,
      "yanshi": 2243,
      "yanxu": 2244,
      "##tie": 2245,
      "gongzi": 2246,
      "chengfen": 2247,
      "zhengdang": 2248,
      "##shuji": 2249,
      "geshi": 2250,
      "gesheng": 2251,
      "shuji": 2252,
      "shuru": 2253,
      "jieshu": 2254,
      "zizhu": 2255,
      "zidong": 2256,
      "xingbie": 2257,
      "##yuanjing": 2258,
      "wulun": 2259,
      "yanjiusuo": 2260,
      "xiangfa": 2261,
      "xiangyao": 2262,
      "tongxun": 2263,
      "wenyi": 2264,
      "guwen": 2265,
      "yeyu": 2266,
      "guanzhong": 2267,
      "guanlian": 2268,
      "baochi": 2269,
      "jianchi": 2270,
      "jianshao": 2271,
      "zuoyou": 2272,
      "tisheng": 2273,
      "ticai": 2274,
      "yuanyi": 2275,
      "yuanzhu": 2276,
      "dianli": 2277,
      "dianding": 2278,
      "zuiwei": 2279,
      "20ri": 2280,
      "jiangdi": 2281,
      "bianxie": 2282,
      "yongyi": 2283,
      "quxian": 2284,
      "fanyi": 2285,
      "zugou": 2286,
      "zuqun": 2287,
      "shenru": 2288,
      "houzhe": 2289,
      "qingxu": 2290,
      "qingting": 2291,
      "caiqu": 2292,
      "lishixuejia": 2293,
      "biaomian": 2294,
      "gaosu": 2295,
      "pinggu": 2296,
      "richang": 2297,
      "##masi": 2298,
      "yingxiangli": 2299,
      "wangyuanjing": 2300,
      "hanzu": 2301,
      "zhanju": 2302,
      "kongde": 2303,
      "##tem": 2304,
      "xingweizhuyi": 2305,
      "10ri": 2306,
      "lunshu": 2307,
      "tiaozheng": 2308,
      "zhangwo": 2309,
      "2000nian": 2310,
      "2005nian": 2311,
      "2009nian": 2312,
      "xunhuan": 2313,
      "yazhou": 2314,
      "cehui": 2315,
      "dilixuejia": 2316,
      "chidu": 2317,
      "maodun": 2318,
      "aomen": 2319,
      "gudianzhuyi": 2320,
      "dizhixue": 2321,
      "gongchengxue": 2322,
      "qiyuanyu": 2323,
      "14ri": 2324,
      "zhuisu": 2325,
      "xiaofeizhe": 2326,
      "jinnianlai": 2327,
      "##ograp": 2328,
      "xingershang": 2329,
      "xingzhonghui": 2330,
      "28": 2331,
      "80": 2332,
      "fo": 2333,
      "for": 2334,
      "sta": 2335,
      "tor": 2336,
      "##ik": 2337,
      "##ed": 2338,
      "##mao": 2339,
      "##ve": 2340,
      "jizhong": 2341,
      "jiyin": 2342,
      "yixi": 2343,
      "yiwu": 2344,
      "yidong": 2345,
      "yiyao": 2346,
      "yiran": 2347,
      "shiying": 2348,
      "shiguan": 2349,
      "xilie": 2350,
      "lichang": 2351,
      "zhongli": 2352,
      "zhiji": 2353,
      "youji": 2354,
      "weihe": 2355,
      "weichi": 2356,
      "buque": 2357,
      "zhuquan": 2358,
      "zhuchi": 2359,
      "yanzou": 2360,
      "##inei": 2361,
      "gongbu": 2362,
      "gongren": 2363,
      "dawei": 2364,
      "chenghu": 2365,
      "chuqi": 2366,
      "zixing": 2367,
      "xingfa": 2368,
      "guodu": 2369,
      "yinru": 2370,
      "yanjiuzhe": 2371,
      "xiangxiang": 2372,
      "jineng": 2373,
      "jincheng": 2374,
      "jiner": 2375,
      "##site": 2376,
      "guding": 2377,
      "xuewei": 2378,
      "baofa": 2379,
      "jiashang": 2380,
      "biran": 2381,
      "bimian": 2382,
      "jiaohuan": 2383,
      "xushu": 2384,
      "##shexian": 2385,
      "gaishan": 2386,
      "juban": 2387,
      "qufen": 2388,
      "shenhua": 2389,
      "lianghao": 2390,
      "xiaoxi": 2391,
      "changsuo": 2392,
      "zhuanjia": 2393,
      "yuefa": 2394,
      "pingfanggong": 2395,
      "xuanchuan": 2396,
      "wanshan": 2397,
      "zhanxian": 2398,
      "zhanling": 2399,
      "zhenli": 2400,
      "nianqing": 2401,
      "shengchanzhe": 2402,
      "duhui": 2403,
      "lianjie": 2404,
      "xiandaihua": 2405,
      "lunli": 2406,
      "quefa": 2407,
      "ludi": 2408,
      "canjia": 2409,
      "yanghua": 2410,
      "faxueyuan": 2411,
      "kanfa": 2412,
      "jiqiao": 2413,
      "suanfa": 2414,
      "chenshao": 2415,
      "birushuo": 2416,
      "inter": 2417,
      "##zongtong": 2418,
      "##kaer": 2419,
      "duanqirui": 2420,
      "longduan": 2421,
      "guowuyuan": 2422,
      "2020nian": 2423,
      "fuluoyide": 2424,
      "piaofang": 2425,
      "system": 2426,
      "xingershangxue": 2427,
      "buquedingxing": 2428,
      "36": 2429,
      "fs": 2430,
      "fou": 2431,
      "ms": 2432,
      "sci": 2433,
      "zen": 2434,
      "##is": 2435,
      "##ning": 2436,
      "##for": 2437,
      "##den": 2438,
      "##mou": 2439,
      "##val": 2440,
      "dezhu": 2441,
      "##huang": 2442,
      "jiwei": 2443,
      "jituan": 2444,
      "yiben": 2445,
      "yichuan": 2446,
      "shili": 2447,
      "licheng": 2448,
      "likai": 2449,
      "zhixu": 2450,
      "zhijue": 2451,
      "heer": 2452,
      "hebing": 2453,
      "youyi": 2454,
      "youzhe": 2455,
      "weisheng": 2456,
      "bujian": 2457,
      "dashi": 2458,
      "jingnei": 2459,
      "zhenghe": 2460,
      "shun": 2461,
      "shuxing": 2462,
      "jieru": 2463,
      "xingzhuang": 2464,
      "wuxing": 2465,
      "huoyue": 2466,
      "xiangshi": 2467,
      "wenshi": 2468,
      "wenben": 2469,
      "##siling": 2470,
      "guli": 2471,
      "xinhai": 2472,
      "fendou": 2473,
      "##wuzhi": 2474,
      "sunzi": 2475,
      "sundi": 2476,
      "guanfang": 2477,
      "shengli": 2478,
      "shenglixue": 2479,
      "jianzao": 2480,
      "tiyu": 2481,
      "fuzhu": 2482,
      "fuqin": 2483,
      "yuanxian": 2484,
      "jiali": 2485,
      "lingxiu": 2486,
      "zuigao": 2487,
      "jiangxiang": 2488,
      "biang": 2489,
      "jiaohui": 2490,
      "##nus": 2491,
      "cilei": 2492,
      "neicun": 2493,
      "dangjin": 2494,
      "dangran": 2495,
      "chanwu": 2496,
      "shenhu": 2497,
      "shencha": 2498,
      "zongzhi": 2499,
      "huafen": 2500,
      "guangbo": 2501,
      "xiaoying": 2502,
      "duoshu": 2503,
      "zhuanyi": 2504,
      "zhuanxie": 2505,
      "caichan": 2506,
      "gengxin": 2507,
      "zaodao": 2508,
      "dongji": 2509,
      "dingxing": 2510,
      "wangye": 2511,
      "zhenshi": 2512,
      "liuchuan": 2513,
      "bochang": 2514,
      "bencao": 2515,
      "cunqu": 2516,
      "fengxian": 2517,
      "lianxu": 2518,
      "lunzheng": 2519,
      "midu": 2520,
      "tuiguang": 2521,
      "tiaoyue": 2522,
      "nongcun": 2523,
      "2003nian": 2524,
      "2006nian": 2525,
      "puji": 2526,
      "luhao": 2527,
      "ganyu": 2528,
      "11ri": 2529,
      "paihang": 2530,
      "gouzao": 2531,
      "relixue": 2532,
      "kanzuo": 2533,
      "1900nian": 2534,
      "1904nian": 2535,
      "songjiao": 2536,
      "suanshu": 2537,
      "peizhi": 2538,
      "1895nian": 2539,
      "16ri": 2540,
      "zunxun": 2541,
      "1949nian": 2542,
      "saiju": 2543,
      "kaiensizhuyi": 2544,
      "29ri": 2545,
      "yinhexi": 2546,
      "loudong": 2547,
      "fojiao": 2548,
      "torval": 2549,
      "yixilie": 2550,
      "scien": 2551,
      "torvalds": 2552,
      "32": 2553,
      "31": 2554,
      "96": 2555,
      "as": 2556,
      "nke": 2557,
      "sen": 2558,
      "sco": 2559,
      "##tui": 2560,
      "yichan": 2561,
      "shihe": 2562,
      "shiyou": 2563,
      "shijue": 2564,
      "zhongxue": 2565,
      "zhiming": 2566,
      "##zhiwei": 2567,
      "heli": 2568,
      "##weiai": 2569,
      "rentong": 2570,
      "renshu": 2571,
      "weiqi": 2572,
      "weiwu": 2573,
      "weineng": 2574,
      "bumen": 2575,
      "buzu": 2576,
      "budan": 2577,
      "zheli": 2578,
      "kejian": 2579,
      "kekao": 2580,
      "diguo": 2581,
      "dikaer": 2582,
      "yanshuo": 2583,
      "gongqi": 2584,
      "jingfei": 2585,
      "zhengquan": 2586,
      "chucun": 2587,
      "zixi": 2588,
      "wuqi": 2589,
      "wuran": 2590,
      "wupin": 2591,
      "shanghan": 2592,
      "shangsheng": 2593,
      "yinyong": 2594,
      "yincang": 2595,
      "duili": 2596,
      "##sitan": 2597,
      "gulao": 2598,
      "xinan": 2599,
      "xianchang": 2600,
      "yingdang": 2601,
      "huzhao": 2602,
      "sunyu": 2603,
      "##busi": 2604,
      "shengji": 2605,
      "shengyue": 2606,
      "baozhi": 2607,
      "fangcheng": 2608,
      "zuojia": 2609,
      "huida": 2610,
      "tiyi": 2611,
      "##jingwei": 2612,
      "fushu": 2613,
      "jiasu": 2614,
      "lingting": 2615,
      "##ment": 2616,
      "zuijin": 2617,
      "sixuepai": 2618,
      "bianjie": 2619,
      "daojiao": 2620,
      "mingyi": 2621,
      "neige": 2622,
      "##xinji": 2623,
      "haiwai": 2624,
      "zongjie": 2625,
      "zongsiling": 2626,
      "douzheng": 2627,
      "huamian": 2628,
      "huahewu": 2629,
      "xiaozu": 2630,
      "qingxing": 2631,
      "changdao": 2632,
      "zhuanyou": 2633,
      "zhuanhuan": 2634,
      "daishu": 2635,
      "dongbu": 2636,
      "biaoshu": 2637,
      "biaoming": 2638,
      "gaoji": 2639,
      "riyi": 2640,
      "taidu": 2641,
      "taikong": 2642,
      "jueda": 2643,
      "jundui": 2644,
      "wangjingwei": 2645,
      "185": 2646,
      "18ri": 2647,
      "zhenduan": 2648,
      "nianqian": 2649,
      "huaxuejia": 2650,
      "chaoxian": 2651,
      "chaoxin": 2652,
      "tupo": 2653,
      "bali": 2654,
      "liandai": 2655,
      "nanyi": 2656,
      "lunzhi": 2657,
      "mimi": 2658,
      "tuifan": 2659,
      "zhongyaoxing": 2660,
      "nation": 2661,
      "sung": 2662,
      "2004nian": 2663,
      "tuomasi": 2664,
      "xunsu": 2665,
      "chongfen": 2666,
      "cengmian": 2667,
      "xianxiangxue": 2668,
      "ganjue": 2669,
      "taoyuan": 2670,
      "ceshi": 2671,
      "1992nian": 2672,
      "paichu": 2673,
      "paishe": 2674,
      "kandao": 2675,
      "gongchanzhuyi": 2676,
      "1911nian": 2677,
      "##meiyou": 2678,
      "chuliqi": 2679,
      "hongwai": 2680,
      "manman": 2681,
      "heidong": 2682,
      "shanmai": 2683,
      "daqiceng": 2684,
      "shizhengzhuyi": 2685,
      "bianyiqi": 2686,
      "##ology": 2687,
      "zhiliyu": 2688,
      "zhuomian": 2689,
      "zazhi": 2690,
      "cuiheng": 2691,
      "24ri": 2692,
      "tuergan": 2693,
      "turang": 2694,
      "##iki": 2695,
      "pingfanggongli": 2696,
      "chenshaobai": 2697,
      "songjiaoren": 2698,
      "science": 2699,
      "nkelisideng": 2700,
      "ac": 2701,
      "beng": 2702,
      "bsd": 2703,
      "chui": 2704,
      "cpu": 2705,
      "fi": 2706,
      "no": 2707,
      "pro": 2708,
      "to": 2709,
      "##nv": 2710,
      "##fi": 2711,
      "##fs": 2712,
      "##ation": 2713,
      "##zeng": 2714,
      "##zhai": 2715,
      "##pa": 2716,
      "##ver": 2717,
      "##86": 2718,
      "##enan": 2719,
      "jichang": 2720,
      "yijian": 2721,
      "yifangmian": 2722,
      "shiti": 2723,
      "shizu": 2724,
      "shibie": 2725,
      "shisan": 2726,
      "xijin": 2727,
      "linus": 2728,
      "zhongji": 2729,
      "zhize": 2730,
      "youli": 2731,
      "youming": 2732,
      "yuenan": 2733,
      "weixin": 2734,
      "weilian": 2735,
      "qiong": 2736,
      "qikan": 2737,
      "budui": 2738,
      "zhuji": 2739,
      "zhubu": 2740,
      "zhejiu": 2741,
      "sheyou": 2742,
      "##tongshi": 2743,
      "yanhai": 2744,
      "yanjiang": 2745,
      "##tiona": 2746,
      "fayu": 2747,
      "fayuan": 2748,
      "fada": 2749,
      "gonghe": 2750,
      "gongzhong": 2751,
      "gongxiang": 2752,
      "dali": 2753,
      "dazhong": 2754,
      "dafu": 2755,
      "jingzhi": 2756,
      "jingwei": 2757,
      "jingqi": 2758,
      "zhengqu": 2759,
      "##zhuyu": 2760,
      "chuxi": 2761,
      "gelei": 2762,
      "gebie": 2763,
      "geograp": 2764,
      "jiejin": 2765,
      "jieshao": 2766,
      "xingrong": 2767,
      "xingyun": 2768,
      "guofang": 2769,
      "yinyang": 2770,
      "tonghuo": 2771,
      "duici": 2772,
      "duichen": 2773,
      "jinshu": 2774,
      "guyong": 2775,
      "xianqu": 2776,
      "yinguo": 2777,
      "yingping": 2778,
      "yingxiong": 2779,
      "bingmeiyou": 2780,
      "xueshuo": 2781,
      "sunda": 2782,
      "guanyuan": 2783,
      "guanxin": 2784,
      "baoxian": 2785,
      "baozha": 2786,
      "fangan": 2787,
      "##shengwu": 2788,
      "huidao": 2789,
      "tidai": 2790,
      "yuanben": 2791,
      "sibin": 2792,
      "biyao": 2793,
      "cihui": 2794,
      "cifu": 2795,
      "cichang": 2796,
      "##dazongtong": 2797,
      "yongtu": 2798,
      "neizai": 2799,
      "gaijin": 2800,
      "juxian": 2801,
      "jubei": 2802,
      "##dili": 2803,
      "##dice": 2804,
      "mini": 2805,
      "quchu": 2806,
      "fanhui": 2807,
      "shenfen": 2808,
      "xiaoshi": 2809,
      "xiaoxue": 2810,
      "xiaoxing": 2811,
      "qingchao": 2812,
      "zhuanjing": 2813,
      "##lasi": 2814,
      "zaojiu": 2815,
      "quanti": 2816,
      "quanmian": 2817,
      "butongyu": 2818,
      "mokuai": 2819,
      "pingjia": 2820,
      "rixin": 2821,
      "anjian": 2822,
      "jueyi": 2823,
      "junzhengfu": 2824,
      "feidan": 2825,
      "wanmei": 2826,
      "huanju": 2827,
      "hanshu": 2828,
      "mulu": 2829,
      "sanshi": 2830,
      "xiezuo": 2831,
      "lianmeng": 2832,
      "nanhai": 2833,
      "100": 2834,
      "lunwen": 2835,
      "mima": 2836,
      "queshi": 2837,
      "tiaozhan": 2838,
      "nage": 2839,
      "suweiai": 2840,
      "wulixuezhe": 2841,
      "xunzhao": 2842,
      "yadang": 2843,
      "yapo": 2844,
      "huangpu": 2845,
      "celve": 2846,
      "##000": 2847,
      "hengbin": 2848,
      "zhaochu": 2849,
      "nimen": 2850,
      "chicun": 2851,
      "##menggu": 2852,
      "zhounian": 2853,
      "liaoxiao": 2854,
      "beijingshi": 2855,
      "aodili": 2856,
      "baituo": 2857,
      "yuzhouxue": 2858,
      "1913nian": 2859,
      "1919nian": 2860,
      "ershishiji": 2861,
      "1989nian": 2862,
      "1905nian": 2863,
      "##ogle": 2864,
      "zhengshiliang": 2865,
      "chenai": 2866,
      "1970niandai": 2867,
      "1896nian": 2868,
      "fuwuqi": 2869,
      "xueshujie": 2870,
      "1960niandai": 2871,
      "hunluan": 2872,
      "codice": 2873,
      "zuncheng": 2874,
      "##guimo": 2875,
      "zhunze": 2876,
      "tuxinghua": 2877,
      "diancixue": 2878,
      "guangdongsheng": 2879,
      "21ri": 2880,
      "kunnan": 2881,
      "google": 2882,
      "huaiyi": 2883,
      "zizhiqu": 2884,
      "pangda": 2885,
      "chenjiongming": 2886,
      "duoyangxing": 2887,
      "heerxinji": 2888,
      "xinhaigeming": 2889,
      "chaoxinxing": 2890,
      "cuihengcun": 2891,
      "44": 2892,
      "50": 2893,
      "51": 2894,
      "6ri": 2895,
      "8ri": 2896,
      "fre": 2897,
      "##cc": 2898,
      "##gei": 2899,
      "##ad": 2900,
      "##ada": 2901,
      "##zan": 2902,
      "##wuer": 2903,
      "##ken": 2904,
      "##piao": 2905,
      "##mp": 2906,
      "##50": 2907,
      "##uoji": 2908,
      "##jiya": 2909,
      "jiyou": 2910,
      "jizhe": 2911,
      "jilie": 2912,
      "yixian": 2913,
      "yidai": 2914,
      "yifang": 2915,
      "yilei": 2916,
      "yibian": 2917,
      "yiwang": 2918,
      "shige": 2919,
      "shiren": 2920,
      "shiqian": 2921,
      "shipin": 2922,
      "##hongzhang": 2923,
      "xige": 2924,
      "linian": 2925,
      "lihongzhang": 2926,
      "##yiyuan": 2927,
      "zhongxi": 2928,
      "zhongwei": 2929,
      "zhongdong": 2930,
      "zhongzu": 2931,
      "zhongduan": 2932,
      "zhishu": 2933,
      "zhiyao": 2934,
      "##zhishi": 2935,
      "##zhiyi": 2936,
      "hezhong": 2937,
      "youci": 2938,
      "##hanmin": 2939,
      "yuci": 2940,
      "renben": 2941,
      "weiren": 2942,
      "weida": 2943,
      "weinei": 2944,
      "buyi": 2945,
      "buwei": 2946,
      "bujiu": 2947,
      "bulun": 2948,
      "zhuduo": 2949,
      "zhuce": 2950,
      "shexian": 2951,
      "kejiang": 2952,
      "dimian": 2953,
      "yanlun": 2954,
      "yanbian": 2955,
      "yanshen": 2956,
      "fadian": 2957,
      "faze": 2958,
      "fayin": 2959,
      "gongyou": 2960,
      "dayuan": 2961,
      "daguimo": 2962,
      "chengxian": 2963,
      "chengzhiwei": 2964,
      "zhengli": 2965,
      "shuli": 2966,
      "##jiapo": 2967,
      "jiexian": 2968,
      "wushu": 2969,
      "##huashuo": 2970,
      "erzi": 2971,
      "yanjiuyuan": 2972,
      "huoqu": 2973,
      "xiangji": 2974,
      "xiangyou": 2975,
      "xiangbi": 2976,
      "xiangjiao": 2977,
      "duihua": 2978,
      "duibi": 2979,
      "##eru": 2980,
      "jinqi": 2981,
      "jinzhan": 2982,
      "jinkou": 2983,
      "wenzhang": 2984,
      "##siji": 2985,
      "xinjiang": 2986,
      "xinfeng": 2987,
      "xinjiapo": 2988,
      "xianyou": 2989,
      "fenshi": 2990,
      "hufa": 2991,
      "hulian": 2992,
      "huhanmin": 2993,
      "bingli": 2994,
      "xuefen": 2995,
      "sunmei": 2996,
      "dengji": 2997,
      "##jieji": 2998,
      "fangying": 2999,
      "fangzhen": 3000,
      "jianding": 3001,
      "meijie": 3002,
      "dianhe": 3003,
      "dianbo": 3004,
      "bida": 3005,
      "bianlun": 3006,
      "daoli": 3007,
      "cidie": 3008,
      "##jinyibu": 3009,
      "shouyi": 3010,
      "shouxian": 3011,
      "juji": 3012,
      "juzhu": 3013,
      "jumian": 3014,
      "rujing": 3015,
      "minsheng": 3016,
      "quzhu": 3017,
      "quxiang": 3018,
      "fanfu": 3019,
      "haijun": 3020,
      "chanshu": 3021,
      "shenmi": 3022,
      "zongshuji": 3023,
      "houshi": 3024,
      "##chanjieji": 3025,
      "zhengzhixuejia": 3026,
      "zhuanli": 3027,
      "gengjinyibu": 3028,
      "qianyi": 3029,
      "dongzuo": 3030,
      "dongfang": 3031,
      "yueqiu": 3032,
      "quanwei": 3033,
      "gaozhong": 3034,
      "gaodeng": 3035,
      "mozu": 3036,
      "ande": 3037,
      "anzhao": 3038,
      "wanbei": 3039,
      "183": 3040,
      "hanyu": 3041,
      "##haizi": 3042,
      "##tel": 3043,
      "##ted": 3044,
      "tujing": 3045,
      "mouge": 3046,
      "nanti": 3047,
      "mier": 3048,
      "zengjin": 3049,
      "tuidao": 3050,
      "tiaohe": 3051,
      "##mier": 3052,
      "2008nian": 3053,
      "yundonghui": 3054,
      "shengwuti": 3055,
      "kenengxing": 3056,
      "qiangzhi": 3057,
      "pizhun": 3058,
      "##kaishi": 3059,
      "cengci": 3060,
      "ganshou": 3061,
      "tongyige": 3062,
      "taojian": 3063,
      "jibenshang": 3064,
      "xingshihua": 3065,
      "1997nian": 3066,
      "miandui": 3067,
      "mianfei": 3068,
      "red": 3069,
      "zhuangkuang": 3070,
      "chengxuyuan": 3071,
      "diaodu": 3072,
      "peihe": 3073,
      "manqing": 3074,
      "yuanshima": 3075,
      "ronghe": 3076,
      "kangyi": 3077,
      "lading": 3078,
      "ruoshi": 3079,
      "hat": 3080,
      "1950niandai": 3081,
      "hangai": 3082,
      "hangtian": 3083,
      "zunshou": 3084,
      "1925nian": 3085,
      "1923nian": 3086,
      "liewei": 3087,
      "cushi": 3088,
      "niuyue": 3089,
      "shiyelv": 3090,
      "15ri": 3091,
      "qunzhong": 3092,
      "nvxing": 3093,
      "lingdaoren": 3094,
      "shuangfang": 3095,
      "laiziyu": 3096,
      "13ri": 3097,
      "panduan": 3098,
      "weihuzhe": 3099,
      "##gelasi": 3100,
      "27ri": 3101,
      "gama": 3102,
      "open": 3103,
      "jiefangjun": 3104,
      "qingxiangyu": 3105,
      "##pengzhang": 3106,
      "luhaodong": 3107,
      "geographi": 3108,
      "tonghuopengzhang": 3109,
      "cifuqi": 3110,
      "huanjuhuashuo": 3111,
      "kejianguang": 3112,
      "2ri": 3113,
      "3ri": 3114,
      "46": 3115,
      "4ri": 3116,
      "59": 3117,
      "62": 3118,
      "60": 3119,
      "91": 3120,
      "at": 3121,
      "am": 3122,
      "api": 3123,
      "dun": 3124,
      "dna": 3125,
      "eguo": 3126,
      "gcc": 3127,
      "juan": 3128,
      "ne": 3129,
      "now": 3130,
      "nor": 3131,
      "ps": 3132,
      "phi": 3133,
      "rao": 3134,
      "sma": 3135,
      "wi": 3136,
      "xshexian": 3137,
      "──": 3138,
      "##od": 3139,
      "##can": 3140,
      "##lla": 3141,
      "##tp": 3142,
      "##sh": 3143,
      "##je": 3144,
      "##dinei": 3145,
      "##rt": 3146,
      "##rao": 3147,
      "##rou": 3148,
      "##ron": 3149,
      "##ros": 3150,
      "##pao": 3151,
      "yidao": 3152,
      "yike": 3153,
      "yiwen": 3154,
      "yimian": 3155,
      "shizhong": 3156,
      "shizuo": 3157,
      "shici": 3158,
      "shifang": 3159,
      "##shihua": 3160,
      "xisu": 3161,
      "xiyin": 3162,
      "liyou": 3163,
      "liwai": 3164,
      "zhongqi": 3165,
      "zhijia": 3166,
      "zhiguan": 3167,
      "zhiquan": 3168,
      "zhisuo": 3169,
      "zaiyi": 3170,
      "zaici": 3171,
      "hexie": 3172,
      "youjian": 3173,
      "youyong": 3174,
      "yuang": 3175,
      "renxing": 3176,
      "##qiong": 3177,
      "weidu": 3178,
      "weijing": 3179,
      "weishou": 3180,
      "weiwuer": 3181,
      "qimeng": 3182,
      "buding": 3183,
      "sheshi": 3184,
      "shezhi": 3185,
      "sheding": 3186,
      "kemu": 3187,
      "dibiao": 3188,
      "yanyi": 3189,
      "faan": 3190,
      "dachen": 3191,
      "chengji": 3192,
      "zhengchang": 3193,
      "shumian": 3194,
      "jieti": 3195,
      "jielun": 3196,
      "jiehun": 3197,
      "zicong": 3198,
      "xingji": 3199,
      "xingti": 3200,
      "wuyi": 3201,
      "wuke": 3202,
      "wuquan": 3203,
      "ertong": 3204,
      "shangwei": 3205,
      "yanjiufa": 3206,
      "huojiang": 3207,
      "xiangzheng": 3208,
      "xiangliang": 3209,
      "xiangshan": 3210,
      "beiyang": 3211,
      "beifang": 3212,
      "beishang": 3213,
      "jinci": 3214,
      "jinmi": 3215,
      "##sic": 3216,
      "gua": 3217,
      "xinling": 3218,
      "hushi": 3219,
      "hubei": 3220,
      "hupo": 3221,
      "xuemen": 3222,
      "##jieshi": 3223,
      "shengzhang": 3224,
      "fanglve": 3225,
      "jiandu": 3226,
      "jianada": 3227,
      "zuofa": 3228,
      "huizhi": 3229,
      "tixian": 3230,
      "suozai": 3231,
      "fuyu": 3232,
      "furen": 3233,
      "yuanxing": 3234,
      "yuanjian": 3235,
      "jiaqiang": 3236,
      "lingtu": 3237,
      "dianxing": 3238,
      "##ris": 3239,
      "siwang": 3240,
      "jianguan": 3241,
      "bisai": 3242,
      "bianshu": 3243,
      "xushi": 3244,
      "kaichuang": 3245,
      "daoda": 3246,
      "daolu": 3247,
      "ciji": 3248,
      "cizhi": 3249,
      "dangju": 3250,
      "dangdi": 3251,
      "shouheng": 3252,
      "gailiang": 3253,
      "gaizao": 3254,
      "juchang": 3255,
      "shenqing": 3256,
      "zonghui": 3257,
      "zongbu": 3258,
      "zongmian": 3259,
      "congzhong": 3260,
      "houqi": 3261,
      "liangdu": 3262,
      "guangwu": 3263,
      "guangda": 3264,
      "xiaoshou": 3265,
      "qingchu": 3266,
      "changzhu": 3267,
      "changshang": 3268,
      "yunnan": 3269,
      "xiaji": 3270,
      "xiajiang": 3271,
      "duoshao": 3272,
      "zhuanzhi": 3273,
      "caixiang": 3274,
      "qitaren": 3275,
      "tedian": 3276,
      "tianjin": 3277,
      "qianxi": 3278,
      "qianzheng": 3279,
      "donglixue": 3280,
      "dongtai": 3281,
      "quanbu": 3282,
      "rihou": 3283,
      "anshi": 3284,
      "anmo": 3285,
      "anwuzhi": 3286,
      "jueqi": 3287,
      "junzhu": 3288,
      "feizhou": 3289,
      "henei": 3290,
      "henkuai": 3291,
      "18shiji": 3292,
      "hanmin": 3293,
      "zhanshi": 3294,
      "zhankai": 3295,
      "bansui": 3296,
      "zhenya": 3297,
      "xieding": 3298,
      "xieshang": 3299,
      "masheng": 3300,
      "##yinsitan": 3301,
      "guihua": 3302,
      "guidao": 3303,
      "guize": 3304,
      "liuxue": 3305,
      "liulan": 3306,
      "chaoyue": 3307,
      "benren": 3308,
      "waizai": 3309,
      "lianbang": 3310,
      "chuangshi": 3311,
      "chuangban": 3312,
      "lunlixue": 3313,
      "tiaojie": 3314,
      "zhongyishi": 3315,
      "zhanguo": 3316,
      "zhangcheng": 3317,
      "zhangguan": 3318,
      "##mie": 3319,
      "shuizhun": 3320,
      "puxue": 3321,
      "pucha": 3322,
      "luxian": 3323,
      "luxu": 3324,
      "lujun": 3325,
      "qiangda": 3326,
      "cengji": 3327,
      "##sear": 3328,
      "##nisi": 3329,
      "huangjin": 3330,
      "huangdinei": 3331,
      "##nade": 3332,
      "canyiyuan": 3333,
      "ganzhi": 3334,
      "tianwentai": 3335,
      "hengliang": 3336,
      "chiyou": 3337,
      "paiming": 3338,
      "##mengde": 3339,
      "oumei": 3340,
      "##linpi": 3341,
      "resear": 3342,
      "zhoufen": 3343,
      "aiji": 3344,
      "aiyinsitan": 3345,
      "baihua": 3346,
      "1915nian": 3347,
      "haode": 3348,
      "renshilun": 3349,
      "1985nian": 3350,
      "1903nian": 3351,
      "jingyanzhuyi": 3352,
      "chaju": 3353,
      "suanshi": 3354,
      "##ell": 3355,
      "xiangduiyu": 3356,
      "1971nian": 3357,
      "17ri": 3358,
      "gongtongti": 3359,
      "shanhou": 3360,
      "intel": 3361,
      "lvshi": 3362,
      "cuoshi": 3363,
      "hangkong": 3364,
      "naizhi": 3365,
      "fuzaxing": 3366,
      "pinzhi": 3367,
      "pinqiong": 3368,
      "haiyangxue": 3369,
      "zhunbei": 3370,
      "linshidazongtong": 3371,
      "laodongli": 3372,
      "jidutu": 3373,
      "zhenjiushi": 3374,
      "##saier": 3375,
      "pengzhuang": 3376,
      "sociologi": 3377,
      "kuaxue": 3378,
      "23ri": 3379,
      "xuniji": 3380,
      "qixiangxue": 3381,
      "ruidian": 3382,
      "gongchanguoji": 3383,
      "ext": 3384,
      "quanshijie": 3385,
      "computer": 3386,
      "28ri": 3387,
      "zenyang": 3388,
      "weiwuzhuyi": 3389,
      "bengkui": 3390,
      "minix": 3391,
      "zhongweizi": 3392,
      "bidagelasi": 3393,
      "nowiki": 3394,
      "small": 3395,
      "zhijiage": 3396,
      "zhisuoyi": 3397,
      "jinciyu": 3398,
      "zongmianji": 3399,
      "liulanqi": 3400,
      "huangdineijing": 3401,
      "##linpike": 3402,
      "research": 3403,
      "33": 3404,
      "49": 3405,
      "47": 3406,
      "58": 3407,
      "85": 3408,
      "akui": 3409,
      "be": 3410,
      "ber": 3411,
      "con": 3412,
      "en": 3413,
      "is": 3414,
      "leng": 3415,
      "oop": 3416,
      "pc": 3417,
      "ro": 3418,
      "rou": 3419,
      "we": 3420,
      "##ho": 3421,
      "##cuo": 3422,
      "##ne": 3423,
      "##gian": 3424,
      "##egian": 3425,
      "##age": 3426,
      "##wegian": 3427,
      "##kun": 3428,
      "##bs": 3429,
      "##ble": 3430,
      "##bsd": 3431,
      "##va": 3432,
      "##nguan": 3433,
      "##anguan": 3434,
      "dechu": 3435,
      "jixing": 3436,
      "jiliang": 3437,
      "jilv": 3438,
      "jifeng": 3439,
      "jiguang": 3440,
      "yijia": 3441,
      "yixiang": 3442,
      "yiri": 3443,
      "yidian": 3444,
      "yizhao": 3445,
      "yikaishi": 3446,
      "shishu": 3447,
      "shier": 3448,
      "shisu": 3449,
      "shibian": 3450,
      "shiqing": 3451,
      "xiai": 3452,
      "xisheng": 3453,
      "xibei": 3454,
      "xibo": 3455,
      "##xiya": 3456,
      "liji": 3457,
      "lixi": 3458,
      "ligong": 3459,
      "lisan": 3460,
      "##yixue": 3461,
      "zhongye": 3462,
      "zhongshang": 3463,
      "zhimin": 3464,
      "zhitu": 3465,
      "zaidu": 3466,
      "heji": 3467,
      "hefa": 3468,
      "hewu": 3469,
      "yousheng": 3470,
      "##yuyan": 3471,
      "yudao": 3472,
      "yusuan": 3473,
      "yule": 3474,
      "yubao": 3475,
      "renquan": 3476,
      "weijie": 3477,
      "weiju": 3478,
      "##niandai": 3479,
      "qia": 3480,
      "qiguan": 3481,
      "qiwang": 3482,
      "buzhu": 3483,
      "bude": 3484,
      "buman": 3485,
      "kexi": 3486,
      "kexing": 3487,
      "keyong": 3488,
      "di1": 3489,
      "diwu": 3490,
      "yanfa": 3491,
      "##tics": 3492,
      "fazhi": 3493,
      "daan": 3494,
      "daxi": 3495,
      "jinggao": 3496,
      "chubu": 3497,
      "gewu": 3498,
      "geju": 3499,
      "gexin": 3500,
      "shushi": 3501,
      "jiedai": 3502,
      "jiekou": 3503,
      "jiesan": 3504,
      "jiekuan": 3505,
      "ziwo": 3506,
      "wuhan": 3507,
      "wuzhuang": 3508,
      "erke": 3509,
      "guozu": 3510,
      "shangan": 3511,
      "shangshi": 3512,
      "shangren": 3513,
      "yinshi": 3514,
      "huoli": 3515,
      "xiangjian": 3516,
      "tongcheng": 3517,
      "tongxiang": 3518,
      "tongbu": 3519,
      "duiwai": 3520,
      "zhongguoren": 3521,
      "##eri": 3522,
      "##ersi": 3523,
      "##eryan": 3524,
      "beibu": 3525,
      "beike": 3526,
      "jini": 3527,
      "jinsi": 3528,
      "##sibo": 3529,
      "##silin": 3530,
      "guluo": 3531,
      "xianyu": 3532,
      "xianhou": 3533,
      "xianru": 3534,
      "xiancun": 3535,
      "fenhui": 3536,
      "fenkai": 3537,
      "fensan": 3538,
      "bingren": 3539,
      "xueshi": 3540,
      "xueli": 3541,
      "sunzai": 3542,
      "shengxue": 3543,
      "shengcun": 3544,
      "baocun": 3545,
      "fangji": 3546,
      "fangzhi": 3547,
      "jianzhi": 3548,
      "jianjian": 3549,
      "jianhua": 3550,
      "zuoqu": 3551,
      "huilv": 3552,
      "huizhou": 3553,
      "huibian": 3554,
      "tiyan": 3555,
      "fujin": 3556,
      "fumu": 3557,
      "yuanlai": 3558,
      "meixue": 3559,
      "jiazhou": 3560,
      "danao": 3561,
      "dandao": 3562,
      "danchen": 3563,
      "danchun": 3564,
      "##rity": 3565,
      "##duoshu": 3566,
      "siyou": 3567,
      "siren": 3568,
      "jiangxi": 3569,
      "jiangjieshi": 3570,
      "bie": 3571,
      "jiaoshi": 3572,
      "jiaotong": 3573,
      "jiaoke": 3574,
      "jiaoliu": 3575,
      "bianque": 3576,
      "##lvbin": 3577,
      "mingdai": 3578,
      "mingbai": 3579,
      "dangren": 3580,
      "shouyu": 3581,
      "shouyao": 3582,
      "shouquan": 3583,
      "jumin": 3584,
      "jujiao": 3585,
      "junguan": 3586,
      "##dia": 3587,
      "jiuzhi": 3588,
      "jiudu": 3589,
      "jiuye": 3590,
      "jiujin": 3591,
      "rujia": 3592,
      "minbao": 3593,
      "qujue": 3594,
      "##fenzhiyi": 3595,
      "fanzhi": 3596,
      "fanqing": 3597,
      "haizi": 3598,
      "##tal": 3599,
      "chanliang": 3600,
      "zuyi": 3601,
      "zuxian": 3602,
      "shenti": 3603,
      "shenshang": 3604,
      "lianghua": 3605,
      "huaming": 3606,
      "huaren": 3607,
      "huaqiao": 3608,
      "guangxian": 3609,
      "qingnian": 3610,
      "qingdai": 3611,
      "qingjing": 3612,
      "qingqiu": 3613,
      "qinggan": 3614,
      "qinglizi": 3615,
      "changhe": 3616,
      "changlun": 3617,
      "changdu": 3618,
      "yunsuan": 3619,
      "duonian": 3620,
      "zhuanxing": 3621,
      "caise": 3622,
      "genggai": 3623,
      "tequan": 3624,
      "zaoyu": 3625,
      "qianti": 3626,
      "qianzai": 3627,
      "dongli": 3628,
      "dongnan": 3629,
      "yuedu": 3630,
      "dingduan": 3631,
      "taiwu": 3632,
      "taibei": 3633,
      "taiping": 3634,
      "suizhi": 3635,
      "xuanshi": 3636,
      "feichu": 3637,
      "feilvbin": 3638,
      "wanqi": 3639,
      "wangji": 3640,
      "180": 3641,
      "huanyuan": 3642,
      "sannian": 3643,
      "zhanyou": 3644,
      "chuanshu": 3645,
      "chuanru": 3646,
      "banbu": 3647,
      "shuoshi": 3648,
      "kongqi": 3649,
      "shehuixuexi": 3650,
      "##teer": 3651,
      "liudong": 3652,
      "nianhou": 3653,
      "nianling": 3654,
      "bolin": 3655,
      "fengyu": 3656,
      "fenghui": 3657,
      "fengte": 3658,
      "dushu": 3659,
      "tanxing": 3660,
      "tanjiu": 3661,
      "tanpan": 3662,
      "mousheng": 3663,
      "nanxing": 3664,
      "mixin": 3665,
      "quebao": 3666,
      "naru": 3667,
      "sugela": 3668,
      "ziranjie": 3669,
      "rengjiu": 3670,
      "shuizi": 3671,
      "shuijing": 3672,
      "2001nian": 3673,
      "xunxi": 3674,
      "luyin": 3675,
      "qianglie": 3676,
      "chongzu": 3677,
      "gandao": 3678,
      "luoxuan": 3679,
      "##00duo": 3680,
      "1990nian": 3681,
      "zuoyongli": 3682,
      "mianlin": 3683,
      "goutong": 3684,
      "shujuku": 3685,
      "aolinpike": 3686,
      "kaoshi": 3687,
      "kaoliang": 3688,
      "1986nian": 3689,
      "1907nian": 3690,
      "##xiusi": 3691,
      "peixun": 3692,
      "faxingshang": 3693,
      "1894nian": 3694,
      "178": 3695,
      "hunhe": 3696,
      "lixingzhuyi": 3697,
      "code": 3698,
      "lvyou": 3699,
      "ruogan": 3700,
      "chunqiu": 3701,
      "liebiao": 3702,
      "canyuzhe": 3703,
      "pengbo": 3704,
      "tanceqi": 3705,
      "30ri": 3706,
      "langfei": 3707,
      "bujinjin": 3708,
      "societ": 3709,
      "wendingxing": 3710,
      "canguan": 3711,
      "shamo": 3712,
      "##sake": 3713,
      "22ri": 3714,
      "dixiashui": 3715,
      "weijifen": 3716,
      "19shijimo": 3717,
      "360": 3718,
      "jialilve": 3719,
      "31ri": 3720,
      "juedaduoshu": 3721,
      "weixinzhuyi": 3722,
      "duichenxing": 3723,
      "xigesibo": 3724,
      "yucitongshi": 3725,
      "xiangjiaoyu": 3726,
      "hulianwang": 3727,
      "minshengzhuyi": 3728,
      "norwegian": 3729,
      "zaiyiqi": 3730,
      "oops": 3731,
      "guluoma": 3732,
      "qujueyu": 3733,
      "sugeladi": 3734,
      "2wan": 3735,
      "48": 3736,
      "40": 3737,
      "50niandai": 3738,
      "63": 3739,
      "60niandai": 3740,
      "84": 3741,
      "95": 3742,
      "ad": 3743,
      "agen": 3744,
      "br": 3745,
      "cyuyan": 3746,
      "eng": 3747,
      "ftp": 3748,
      "jo": 3749,
      "ja": 3750,
      "net": 3751,
      "pr": 3752,
      "teng": 3753,
      "vis": 3754,
      "wun": 3755,
      "weng": 3756,
      "zha": 3757,
      "zeren": 3758,
      "##ot": 3759,
      "##ob": 3760,
      "##cu": 3761,
      "##cy": 3762,
      "##cros": 3763,
      "##id": 3764,
      "##ist": 3765,
      "##no": 3766,
      "##eming": 3767,
      "##fes": 3768,
      "##lk": 3769,
      "##leng": 3770,
      "##to": 3771,
      "##ts": 3772,
      "##teng": 3773,
      "##tuer": 3774,
      "##so": 3775,
      "##sang": 3776,
      "##shaizi": 3777,
      "##rn": 3778,
      "##ks": 3779,
      "##pen": 3780,
      "##bun": 3781,
      "##ysi": 3782,
      "##vo": 3783,
      "##70": 3784,
      "dezhi": 3785,
      "jilei": 3786,
      "jidian": 3787,
      "jibai": 3788,
      "jizhun": 3789,
      "yijiu": 3790,
      "yifa": 3791,
      "yilv": 3792,
      "yibai": 3793,
      "yilian": 3794,
      "yidan": 3795,
      "shida": 3796,
      "shiqu": 3797,
      "zhongxing": 3798,
      "zhongdu": 3799,
      "zhongnong": 3800,
      "zhiwei": 3801,
      "zhide": 3802,
      "hezi": 3803,
      "heliu": 3804,
      "youtu": 3805,
      "youzhuyu": 3806,
      "##weiqi": 3807,
      "yuyi": 3808,
      "yuyuan": 3809,
      "yudi": 3810,
      "renji": 3811,
      "renjun": 3812,
      "renqun": 3813,
      "weiyou": 3814,
      "weixian": 3815,
      "qiyu": 3816,
      "qidong": 3817,
      "qitu": 3818,
      "bushu": 3819,
      "budao": 3820,
      "bulu": 3821,
      "zhuli": 3822,
      "keti": 3823,
      "dixing": 3824,
      "diqi": 3825,
      "yanzhi": 3826,
      "yanzhu": 3827,
      "yansuan": 3828,
      "##ine": 3829,
      "fat": 3830,
      "fahui": 3831,
      "falixue": 3832,
      "fading": 3833,
      "fafang": 3834,
      "gonghui": 3835,
      "gongping": 3836,
      "daji": 3837,
      "dayi": 3838,
      "daer": 3839,
      "dadu": 3840,
      "dafang": 3841,
      "dadi": 3842,
      "dajiang": 3843,
      "dagang": 3844,
      "jingyou": 3845,
      "jingyuan": 3846,
      "jingying": 3847,
      "chengnuo": 3848,
      "zhengmian": 3849,
      "zhengzhuang": 3850,
      "##shua": 3851,
      "chuji": 3852,
      "chushi": 3853,
      "chuxing": 3854,
      "chuzi": 3855,
      "shufu": 3856,
      "shuma": 3857,
      "jieri": 3858,
      "zige": 3859,
      "zicheng": 3860,
      "ziwai": 3861,
      "zisha": 3862,
      "zichanjieji": 3863,
      "##xiangji": 3864,
      "xingneng": 3865,
      "xingtuan": 3866,
      "eryuan": 3867,
      "guowai": 3868,
      "shangdi": 3869,
      "shangbiao": 3870,
      "shangdou": 3871,
      "yinfa": 3872,
      "yinjin": 3873,
      "yinte": 3874,
      "huobusi": 3875,
      "xiangsi": 3876,
      "duizhao": 3877,
      "talk": 3878,
      "beihou": 3879,
      "jinxian": 3880,
      "wenbing": 3881,
      "##sita": 3882,
      "xinshang": 3883,
      "##xianfa": 3884,
      "xianyan": 3885,
      "yingshi": 3886,
      "fenqi": 3887,
      "fenhua": 3888,
      "huxi": 3889,
      "hurd": 3890,
      "sundao": 3891,
      "sunde": 3892,
      "sunjing": 3893,
      "sunbao": 3894,
      "dengtong": 3895,
      "guanzhi": 3896,
      "##fulei": 3897,
      "19ri": 3898,
      "fangshe": 3899,
      "fanghuo": 3900,
      "jianjie": 3901,
      "jianshen": 3902,
      "zuowu": 3903,
      "huixue": 3904,
      "huixing": 3905,
      "huihui": 3906,
      "huiying": 3907,
      "tichang": 3908,
      "suode": 3909,
      "suoxu": 3910,
      "##desi": 3911,
      "fubai": 3912,
      "yuanyuan": 3913,
      "yuanxiao": 3914,
      "meisuo": 3915,
      "dandu": 3916,
      "danbai": 3917,
      "danshui": 3918,
      "linguo": 3919,
      "dianhua": 3920,
      "zuixian": 3921,
      "zuixin": 3922,
      "sihu": 3923,
      "simu": 3924,
      "sichuan": 3925,
      "sitan": 3926,
      "sichao": 3927,
      "situer": 3928,
      "jiangzhong": 3929,
      "jiangjin": 3930,
      "bios": 3931,
      "biyun": 3932,
      "jiaoxue": 3933,
      "biannian": 3934,
      "biandong": 3935,
      "bianma": 3936,
      "xugou": 3937,
      "kaiji": 3938,
      "kaishe": 3939,
      "##dageming": 3940,
      "mingti": 3941,
      "mingdan": 3942,
      "yongzuo": 3943,
      "dange": 3944,
      "dangji": 3945,
      "dangqian": 3946,
      "shouwei": 3947,
      "shoufa": 3948,
      "shouming": 3949,
      "shoudu": 3950,
      "gaicheng": 3951,
      "##quyun": 3952,
      "ruxue": 3953,
      "rujin": 3954,
      "ruxia": 3955,
      "minquan": 3956,
      "##fenzi": 3957,
      "fanshi": 3958,
      "fanren": 3959,
      "haixia": 3960,
      "haiba": 3961,
      "channeng": 3962,
      "shendu": 3963,
      "huashi": 3964,
      "huafei": 3965,
      "guangwei": 3966,
      "xiaoyong": 3967,
      "xiaokang": 3968,
      "qingyuan": 3969,
      "changwu": 3970,
      "duoyuan": 3971,
      "zhuanhua": 3972,
      "zhuaner": 3973,
      "daidong": 3974,
      "caiji": 3975,
      "lishihui": 3976,
      "##las": 3977,
      "qianhou": 3978,
      "qianshu": 3979,
      "qianzhe": 3980,
      "qianxian": 3981,
      "qianshen": 3982,
      "donghan": 3983,
      "donghua": 3984,
      "donghai": 3985,
      "dongya": 3986,
      "yueshu": 3987,
      "quanshu": 3988,
      "gaoyu": 3989,
      "gaoyuan": 3990,
      "suiji": 3991,
      "suishi": 3992,
      "ansha": 3993,
      "jueshi": 3994,
      "wangzhan": 3995,
      "shiyanxing": 3996,
      "shiyanzhe": 3997,
      "182": 3998,
      "huanzhe": 3999,
      "hanzi": 4000,
      "musilin": 4001,
      "banjiang": 4002,
      "banzou": 4003,
      "##xiaolv": 4004,
      "kongbu": 4005,
      "xieshi": 4006,
      "maxiu": 4007,
      "guilei": 4008,
      "bosi": 4009,
      "bodong": 4010,
      "bofang": 4011,
      "chaoda": 4012,
      "benxing": 4013,
      "benlai": 4014,
      "tuxiang": 4015,
      "cunchu": 4016,
      "waijie": 4017,
      "basic": 4018,
      "nanbei": 4019,
      "lunti": 4020,
      "lunzhe": 4021,
      "miya": 4022,
      "tuiwei": 4023,
      "queren": 4024,
      "wor": 4025,
      "leiji": 4026,
      "nashi": 4027,
      "zhangxun": 4028,
      "suzhu": 4029,
      "nongzuo": 4030,
      "shuiti": 4031,
      "shuiwu": 4032,
      "shuiwen": 4033,
      "2002nian": 4034,
      "tuoyuan": 4035,
      "shengwuxuejia": 4036,
      "##moer": 4037,
      "luzhi": 4038,
      "qianghua": 4039,
      "chongfu": 4040,
      "chongqing": 4041,
      "wenxuejiang": 4042,
      "daibiaotuan": 4043,
      "yangshi": 4044,
      "yangquyun": 4045,
      "luohou": 4046,
      "luoke": 4047,
      "1995nian": 4048,
      "1996nian": 4049,
      "1999nian": 4050,
      "##lanke": 4051,
      "goujian": 4052,
      "redai": 4053,
      "##tuosi": 4054,
      "aili": 4055,
      "wenhuadageming": 4056,
      "##ory": 4057,
      "1917nian": 4058,
      "1987nian": 4059,
      "1908nian": 4060,
      "genjudi": 4061,
      "songming": 4062,
      "##redai": 4063,
      "peiyang": 4064,
      "1973nian": 4065,
      "1976nian": 4066,
      "rongyu": 4067,
      "taiyangfeng": 4068,
      "179": 4069,
      "heike": 4070,
      "heilong": 4071,
      "1969nian": 4072,
      "tangchao": 4073,
      "zixunxue": 4074,
      "qinshi": 4075,
      "ins": 4076,
      "lve": 4077,
      "150": 4078,
      "nver": 4079,
      "bianjiqi": 4080,
      "koutou": 4081,
      "weirao": 4082,
      "pengzhang": 4083,
      "gongxianzhe": 4084,
      "paluo": 4085,
      "fenbushi": 4086,
      "biaoyanzhe": 4087,
      "##roid": 4088,
      "jinianri": 4089,
      "zhuozhong": 4090,
      "langman": 4091,
      "qiaoliang": 4092,
      "android": 4093,
      "waibuxing": 4094,
      "yidali": 4095,
      "kuandu": 4096,
      "wulunshi": 4097,
      "##forma": 4098,
      "shunxu": 4099,
      "biangeng": 4100,
      "caichanquan": 4101,
      "senlin": 4102,
      "shanghanlun": 4103,
      "liandaigan": 4104,
      "profes": 4105,
      "##fice": 4106,
      "##tional": 4107,
      "##shengwuxue": 4108,
      "xiaoxingxing": 4109,
      "rixinshuo": 4110,
      "renbenzhuyi": 4111,
      "weineihe": 4112,
      "wuquanxianfa": 4113,
      "liuxuesheng": 4114,
      "zhongshangzhuyi": 4115,
      "jinianguan": 4116,
      "jiaokeshu": 4117,
      "fengyuxiang": 4118,
      "shuiziyuan": 4119,
      "vista": 4120,
      "yintewang": 4121,
      "jinxiandai": 4122,
      "fanghuoqiang": 4123,
      "situerte": 4124,
      "02": 4125,
      "0ban": 4126,
      "45": 4127,
      "400": 4128,
      "52": 4129,
      "57": 4130,
      "55": 4131,
      "56": 4132,
      "77": 4133,
      "7ri": 4134,
      "90": 4135,
      "al": 4136,
      "ang": 4137,
      "clang": 4138,
      "ema": 4139,
      "fun": 4140,
      "gi": 4141,
      "grou": 4142,
      "hanguo": 4143,
      "nya": 4144,
      "ntian": 4145,
      "nsun": 4146,
      "pen": 4147,
      "per": 4148,
      "sin": 4149,
      "tinei": 4150,
      "vi": 4151,
      "yian": 4152,
      "##chui": 4153,
      "##cti": 4154,
      "##ner": 4155,
      "##net": 4156,
      "##go": 4157,
      "##gi": 4158,
      "##gin": 4159,
      "##gnu": 4160,
      "##ee": 4161,
      "##am": 4162,
      "##zei": 4163,
      "##the": 4164,
      "##sp": 4165,
      "##sm": 4166,
      "##ser": 4167,
      "##puer": 4168,
      "##bli": 4169,
      "##ber": 4170,
      "##bre": 4171,
      "##ms": 4172,
      "##hei": 4173,
      "deyu": 4174,
      "jixian": 4175,
      "jida": 4176,
      "jiwa": 4177,
      "jilong": 4178,
      "yihe": 4179,
      "yiyu": 4180,
      "yizhe": 4181,
      "yichang": 4182,
      "yimin": 4183,
      "yiwan": 4184,
      "yipi": 4185,
      "shiyu": 4186,
      "shizhu": 4187,
      "shichu": 4188,
      "shidu": 4189,
      "shidang": 4190,
      "shikong": 4191,
      "shiba": 4192,
      "xizhi": 4193,
      "xiyuan": 4194,
      "xier": 4195,
      "xiyang": 4196,
      "xiguan": 4197,
      "xiban": 4198,
      "xiluo": 4199,
      "##lihe": 4200,
      "##lilun": 4201,
      "lishu": 4202,
      "lijia": 4203,
      "lixian": 4204,
      "lidai": 4205,
      "lide": 4206,
      "like": 4207,
      "lilie": 4208,
      "##yilai": 4209,
      "zhongjian": 4210,
      "zhongding": 4211,
      "zhixue": 4212,
      "zhifa": 4213,
      "zhiyue": 4214,
      "zhibei": 4215,
      "zhipei": 4216,
      "zaixian": 4217,
      "##zhiwai": 4218,
      "heqi": 4219,
      "hechang": 4220,
      "hechuan": 4221,
      "youhua": 4222,
      "youke": 4223,
      "youhai": 4224,
      "youxiu": 4225,
      "##guoer": 4226,
      "##guozhang": 4227,
      "yuzhi": 4228,
      "yulun": 4229,
      "yuxian": 4230,
      "yusuo": 4231,
      "renyi": 4232,
      "renming": 4233,
      "renke": 4234,
      "renma": 4235,
      "##qia": 4236,
      "##qilai": 4237,
      "##qimei": 4238,
      "weishi": 4239,
      "weier": 4240,
      "weixie": 4241,
      "weiming": 4242,
      "qicheng": 4243,
      "qigong": 4244,
      "qicai": 4245,
      "buyao": 4246,
      "bulai": 4247,
      "buliang": 4248,
      "buzhang": 4249,
      "zhuyou": 4250,
      "zhuren": 4251,
      "zheme": 4252,
      "shedian": 4253,
      "shejiao": 4254,
      "keyan": 4255,
      "kern": 4256,
      "dizhong": 4257,
      "dique": 4258,
      "diceng": 4259,
      "diba": 4260,
      "ditie": 4261,
      "dimao": 4262,
      "dixiaolv": 4263,
      "yanxi": 4264,
      "yanjing": 4265,
      "##tic": 4266,
      "fajia": 4267,
      "fayang": 4268,
      "faguan": 4269,
      "gongxu": 4270,
      "gongying": 4271,
      "gonglu": 4272,
      "gongchi": 4273,
      "daguo": 4274,
      "dayu": 4275,
      "dajia": 4276,
      "daben": 4277,
      "dazhan": 4278,
      "dasuan": 4279,
      "dapo": 4280,
      "dageming": 4281,
      "jinghu": 4282,
      "jinggang": 4283,
      "jingtou": 4284,
      "chengzhen": 4285,
      "zhengshu": 4286,
      "zhengxiang": 4287,
      "zhengduan": 4288,
      "zhenggui": 4289,
      "##shuai": 4290,
      "churen": 4291,
      "chuci": 4292,
      "chuxin": 4293,
      "geji": 4294,
      "geli": 4295,
      "gelun": 4296,
      "gejie": 4297,
      "gechang": 4298,
      "gequ": 4299,
      "##ger": 4300,
      "shuwei": 4301,
      "shuqian": 4302,
      "##jiashu": 4303,
      "jiexi": 4304,
      "jiezhu": 4305,
      "jiejian": 4306,
      "jiemu": 4307,
      "jieceng": 4308,
      "zimu": 4309,
      "##zhongjing": 4310,
      "##zhongkai": 4311,
      "##youqi": 4312,
      "xingxue": 4313,
      "xingge": 4314,
      "xingming": 4315,
      "xingbiao": 4316,
      "wushi": 4317,
      "wujian": 4318,
      "wuda": 4319,
      "eryi": 4320,
      "erzhe": 4321,
      "guogong": 4322,
      "guowang": 4323,
      "yinzhi": 4324,
      "yinying": 4325,
      "yinse": 4326,
      "yinshua": 4327,
      "huoxing": 4328,
      "huoche": 4329,
      "tongwei": 4330,
      "tongxin": 4331,
      "tongling": 4332,
      "##era": 4333,
      "##eryi": 4334,
      "##haosi": 4335,
      "beiji": 4336,
      "beipo": 4337,
      "jinshi": 4338,
      "jinlai": 4339,
      "jinpai": 4340,
      "wendai": 4341,
      "wenlei": 4342,
      "wenjuan": 4343,
      "##siding": 4344,
      "##silu": 4345,
      "##sion": 4346,
      "##siduode": 4347,
      "guti": 4348,
      "gusuan": 4349,
      "guchui": 4350,
      "xianming": 4351,
      "xianding": 4352,
      "xianzhuang": 4353,
      "yingbang": 4354,
      "yingteer": 4355,
      "fenfa": 4356,
      "fenjie": 4357,
      "fenfen": 4358,
      "yetai": 4359,
      "yelin": 4360,
      "huwei": 4361,
      "huyu": 4362,
      "huzhu": 4363,
      "hubu": 4364,
      "hulve": 4365,
      "bingxing": 4366,
      "bingchuan": 4367,
      "xuetong": 4368,
      "xuejie": 4369,
      "sunwei": 4370,
      "sunhui": 4371,
      "sunfu": 4372,
      "sunke": 4373,
      "##buwei": 4374,
      "xitongxing": 4375,
      "shengxing": 4376,
      "shengfen": 4377,
      "baoli": 4378,
      "baowei": 4379,
      "baojian": 4380,
      "baodao": 4381,
      "baozheng": 4382,
      "baomu": 4383,
      "fanguo": 4384,
      "fangzai": 4385,
      "fangmai": 4386,
      "jianrong": 4387,
      "jianpan": 4388,
      "##zuolin": 4389,
      "huiguo": 4390,
      "huiyuan": 4391,
      "huiwu": 4392,
      "huimian": 4393,
      "huitan": 4394,
      "tiji": 4395,
      "timing": 4396,
      "suoxie": 4397,
      "##deluo": 4398,
      "fushang": 4399,
      "yuanhu": 4400,
      "yuandai": 4401,
      "yuanwen": 4402,
      "meiwu": 4403,
      "meiri": 4404,
      "##renkou": 4405,
      "##kela": 4406,
      "jiazhong": 4407,
      "jiawu": 4408,
      "jiari": 4409,
      "dannei": 4410,
      "danmai": 4411,
      "##ria": 4412,
      "203": 4413,
      "jianglai": 4414,
      "bisheng": 4415,
      "jiaoyang": 4416,
      "jiaojuan": 4417,
      "bianshi": 4418,
      "bianxing": 4419,
      "xuqi": 4420,
      "daoyu": 4421,
      "daoyan": 4422,
      "kexueyuan": 4423,
      "##laishuo": 4424,
      "ciju": 4425,
      "ciqu": 4426,
      "##lv3": 4427,
      "laikan": 4428,
      "##daguo": 4429,
      "##jinshu": 4430,
      "yongyuan": 4431,
      "neizhan": 4432,
      "neimenggu": 4433,
      "dangzuo": 4434,
      "shoushu": 4435,
      "shoubu": 4436,
      "gaiguo": 4437,
      "juzhong": 4438,
      "jiuren": 4439,
      "fanduo": 4440,
      "fanshe": 4441,
      "fantan": 4442,
      "haiyu": 4443,
      "haiyao": 4444,
      "haidi": 4445,
      "haishen": 4446,
      "zufu": 4447,
      "shenwei": 4448,
      "shenzhen": 4449,
      "zonge": 4450,
      "zongliang": 4451,
      "congci": 4452,
      "##bilun": 4453,
      "##bimian": 4454,
      "liangan": 4455,
      "liangji": 4456,
      "huatuo": 4457,
      "guangfu": 4458,
      "guangsu": 4459,
      "guangpu": 4460,
      "xiaoyi": 4461,
      "xiaozhang": 4462,
      "qingzhu": 4463,
      "qinghua": 4464,
      "qingdan": 4465,
      "change": 4466,
      "changjiang": 4467,
      "zhengzhijia": 4468,
      "##jiaoshi": 4469,
      "zhuanxiang": 4470,
      "zhuanwang": 4471,
      "daiyou": 4472,
      "gengming": 4473,
      "gengzuo": 4474,
      "gengdi": 4475,
      "caokong": 4476,
      "zaoyi": 4477,
      "tianxiang": 4478,
      "tianran": 4479,
      "dongguan": 4480,
      "dongdang": 4481,
      "yaopin": 4482,
      "yaoqing": 4483,
      "gaoneng": 4484,
      "mor": 4485,
      "moli": 4486,
      "moqi": 4487,
      "moca": 4488,
      "pingjie": 4489,
      "pingmian": 4490,
      "pingshan": 4491,
      "2018nian": 4492,
      "rishi": 4493,
      "riyue": 4494,
      "ribao": 4495,
      "rizhishi": 4496,
      "anpai": 4497,
      "juede": 4498,
      "junxiao": 4499,
      "junhuo": 4500,
      "##maha": 4501,
      "xuanchu": 4502,
      "shijimo": 4503,
      "wanwu": 4504,
      "gemingjun": 4505,
      "handai": 4506,
      "muqin": 4507,
      "mukuan": 4508,
      "sanwen": 4509,
      "zhanyong": 4510,
      "zhanmu": 4511,
      "banquan": 4512,
      "zhence": 4513,
      "kongzi": 4514,
      "xiexia": 4515,
      "liuti": 4516,
      "liucheng": 4517,
      "nianjian": 4518,
      "nianzhong": 4519,
      "boxue": 4520,
      "boli": 4521,
      "bolan": 4522,
      "bopuer": 4523,
      "##les": 4524,
      "chaochu": 4525,
      "shengchanli": 4526,
      "fenge": 4527,
      "fengci": 4528,
      "fengguozhang": 4529,
      "babilun": 4530,
      "touming": 4531,
      "toupiao": 4532,
      "duzhe": 4533,
      "chuangxin": 4534,
      "chuangkou": 4535,
      "taneng": 4536,
      "nanxia": 4537,
      "xiandaixing": 4538,
      "yinyuejia": 4539,
      "mishu": 4540,
      "misi": 4541,
      "micros": 4542,
      "tuili": 4543,
      "tuilun": 4544,
      "dianyingyuan": 4545,
      "tiaoli": 4546,
      "falvxi": 4547,
      "zhangkong": 4548,
      "zhangzhongjing": 4549,
      "zhangzuolin": 4550,
      "genji": 4551,
      "genyuan": 4552,
      "tuoxie": 4553,
      "tuozhan": 4554,
      "xunchang": 4555,
      "puxian": 4556,
      "yasuo": 4557,
      "yamaha": 4558,
      "luyouqi": 4559,
      "qiangdu": 4560,
      "piru": 4561,
      "chongji": 4562,
      "chongman": 4563,
      "chongdie": 4564,
      "huanghua": 4565,
      "ribenren": 4566,
      "canjian": 4567,
      "ganshe": 4568,
      "ganran": 4569,
      "ganqing": 4570,
      "yuyanxue": 4571,
      "yanghe": 4572,
      "yixueyuan": 4573,
      "cehua": 4574,
      "cedong": 4575,
      "##gula": 4576,
      "zhaoji": 4577,
      "1992": 4578,
      "1994nian": 4579,
      "1993nian": 4580,
      "laonian": 4581,
      "laoling": 4582,
      "nigula": 4583,
      "nuojiya": 4584,
      "wine": 4585,
      "ranliao": 4586,
      "maoe": 4587,
      "faxuejia": 4588,
      "yuanzihe": 4589,
      "yuanziyu": 4590,
      "liaozhongkai": 4591,
      "##ore": 4592,
      "juedingxing": 4593,
      "juedinglun": 4594,
      "aoli": 4595,
      "aogu": 4596,
      "aosilu": 4597,
      "kaogu": 4598,
      "1910nian": 4599,
      "zhichizhe": 4600,
      "1984nian": 4601,
      "1983nian": 4602,
      "1988nian": 4603,
      "1902nian": 4604,
      "1901nian": 4605,
      "##meizhou": 4606,
      "songjiashu": 4607,
      "fenzishengwuxue": 4608,
      "shanghaishi": 4609,
      "chouhua": 4610,
      "xiumo": 4611,
      "1978nian": 4612,
      "xingxiqun": 4613,
      "xingxituan": 4614,
      "1892nian": 4615,
      "1897nian": 4616,
      "177": 4617,
      "heibai": 4618,
      "1960nian": 4619,
      "1961nian": 4620,
      "hunxiao": 4621,
      "hundun": 4622,
      "kangri": 4623,
      "qinfan": 4624,
      "zhuanyehua": 4625,
      "informa": 4626,
      "hafu": 4627,
      "1950nian": 4628,
      "1956nian": 4629,
      "renzhizhuyi": 4630,
      "1920nian": 4631,
      "1922nian": 4632,
      "culve": 4633,
      "menggu": 4634,
      "sola": 4635,
      "gongyehua": 4636,
      "yalisiduode": 4637,
      "kouchi": 4638,
      "zhuiqiu": 4639,
      "kuangwu": 4640,
      "kuangchan": 4641,
      "1940nian": 4642,
      "junhengdian": 4643,
      "diancibo": 4644,
      "biyeyu": 4645,
      "shuaifu": 4646,
      "1879nian": 4647,
      "sociology": 4648,
      "1884nian": 4649,
      "1888nian": 4650,
      "chaojidaguo": 4651,
      "##chongxing": 4652,
      "##sasi": 4653,
      "beifajun": 4654,
      "chedi": 4655,
      "chetui": 4656,
      "zouxiang": 4657,
      "##cts": 4658,
      "gemingdangren": 4659,
      "jinhualun": 4660,
      "dianshitai": 4661,
      "juecezhe": 4662,
      "physi": 4663,
      "shijiushiji": 4664,
      "zongtongfu": 4665,
      "1860nian": 4666,
      "paoqi": 4667,
      "##vice": 4668,
      "sunyixian": 4669,
      "zhouqixing": 4670,
      "computing": 4671,
      "mee": 4672,
      "##peci": 4673,
      "cehuixue": 4674,
      "yiyaoxue": 4675,
      "fouding": 4676,
      "sundida": 4677,
      "biange": 4678,
      "kekaoxing": 4679,
      "zixitong": 4680,
      "chuizhi": 4681,
      "nov": 4682,
      "bulunshi": 4683,
      "qianyishi": 4684,
      "gamashexian": 4685,
      "ameri": 4686,
      "chuangshiren": 4687,
      "kuaxueke": 4688,
      "jiujinshan": 4689,
      "shuijingguan": 4690,
      "society": 4691,
      "xigesiboshaizi": 4692,
      "java": 4693,
      "yilianchuan": 4694,
      "budaode": 4695,
      "sunjingxian": 4696,
      "sunbaoqi": 4697,
      "danbaizhi": 4698,
      "simula": 4699,
      "jiangzhongzheng": 4700,
      "biyunsi": 4701,
      "nongzuowu": 4702,
      "shuiwuran": 4703,
      "emacs": 4704,
      "group": 4705,
      "xierbote": 4706,
      "xiluoduode": 4707,
      "liliejun": 4708,
      "kernel": 4709,
      "chucizhiwai": 4710,
      "american": 4711,
      "39": 4712,
      "34": 4713,
      "3yi": 4714,
      "386": 4715,
      "42": 4716,
      "4wan": 4717,
      "53": 4718,
      "54": 4719,
      "65": 4720,
      "72": 4721,
      "700": 4722,
      "82": 4723,
      "83": 4724,
      "87": 4725,
      "86": 4726,
      "97": 4727,
      "ap": 4728,
      "ab": 4729,
      "bla": 4730,
      "ca": 4731,
      "ec": 4732,
      "es": 4733,
      "ehua": 4734,
      "gis": 4735,
      "gno": 4736,
      "ima": 4737,
      "kui": 4738,
      "kde": 4739,
      "lo": 4740,
      "llv": 4741,
      "log": 4742,
      "mang": 4743,
      "nao": 4744,
      "on": 4745,
      "ori": 4746,
      "ole": 4747,
      "pe": 4748,
      "pri": 4749,
      "pal": 4750,
      "st": 4751,
      "sy": 4752,
      "sang": 4753,
      "sao": 4754,
      "ser": 4755,
      "speci": 4756,
      "xp": 4757,
      "zang": 4758,
      "zuan": 4759,
      "##hy": 4760,
      "##us": 4761,
      "##ox": 4762,
      "##omi": 4763,
      "##cd": 4764,
      "##ie": 4765,
      "##idia": 4766,
      "##nt": 4767,
      "##ga": 4768,
      "##geng": 4769,
      "##esi": 4770,
      "##fox": 4771,
      "##lou": 4772,
      "##los": 4773,
      "##ak": 4774,
      "##zuan": 4775,
      "##zhui": 4776,
      "##ten": 4777,
      "##tter": 4778,
      "##son": 4779,
      "##29": 4780,
      "##db": 4781,
      "##dy": 4782,
      "##der": 4783,
      "##wm": 4784,
      "##wor": 4785,
      "##ry": 4786,
      "##rai": 4787,
      "##rti": 4788,
      "##kb": 4789,
      "##bje": 4790,
      "##mang": 4791,
      "##ych": 4792,
      "##van": 4793,
      "##44nian": 4794,
      "##8yi": 4795,
      "##0yi": 4796,
      "##10": 4797,
      "##50nian": 4798,
      "##heyi": 4799,
      "##hehui": 4800,
      "deli": 4801,
      "deming": 4802,
      "debian": 4803,
      "##aolan": 4804,
      "##jihua": 4805,
      "##jisuan": 4806,
      "##jitao": 4807,
      "jifa": 4808,
      "jijie": 4809,
      "jiren": 4810,
      "jidi": 4811,
      "jiran": 4812,
      "jiduan": 4813,
      "jimi": 4814,
      "yitong": 4815,
      "yifu": 4816,
      "yixu": 4817,
      "yilu": 4818,
      "yijun": 4819,
      "yiliu": 4820,
      "yiaolan": 4821,
      "shiming": 4822,
      "shidi": 4823,
      "shile": 4824,
      "shifan": 4825,
      "shichuang": 4826,
      "##shinian": 4827,
      "##shizi": 4828,
      "xihan": 4829,
      "xifen": 4830,
      "xizhou": 4831,
      "xima": 4832,
      "xijun": 4833,
      "xique": 4834,
      "xihuan": 4835,
      "xituan": 4836,
      "xisai": 4837,
      "##xiju": 4838,
      "##xite": 4839,
      "lizhi": 4840,
      "liqi": 4841,
      "liyuan": 4842,
      "liding": 4843,
      "limian": 4844,
      "lihun": 4845,
      "live": 4846,
      "lieru": 4847,
      "##yixing": 4848,
      "##yiman": 4849,
      "zhongzhong": 4850,
      "zhongjie": 4851,
      "zhici": 4852,
      "zhizheng": 4853,
      "zhidian": 4854,
      "zhizai": 4855,
      "zaisheng": 4856,
      "zainan": 4857,
      "hede": 4858,
      "helei": 4859,
      "hesu": 4860,
      "youru": 4861,
      "youbie": 4862,
      "youlie": 4863,
      "yuhui": 4864,
      "yuye": 4865,
      "yushe": 4866,
      "yufang": 4867,
      "renli": 4868,
      "rencheng": 4869,
      "renci": 4870,
      "renda": 4871,
      "renzao": 4872,
      "renxuan": 4873,
      "weixi": 4874,
      "weiwei": 4875,
      "weifen": 4876,
      "weishen": 4877,
      "weituo": 4878,
      "qizhi": 4879,
      "qifa": 4880,
      "qidian": 4881,
      "qisu": 4882,
      "qiya": 4883,
      "qimei": 4884,
      "qiche": 4885,
      "qicao": 4886,
      "bucheng": 4887,
      "buyong": 4888,
      "bufu": 4889,
      "bubi": 4890,
      "buzhou": 4891,
      "zhuxian": 4892,
      "zhudong": 4893,
      "zhushe": 4894,
      "zhujiao": 4895,
      "zhujue": 4896,
      "zhujiang": 4897,
      "zhuzhai": 4898,
      "zhexiang": 4899,
      "shell": 4900,
      "keshi": 4901,
      "keer": 4902,
      "kefu": 4903,
      "keshui": 4904,
      "kefou": 4905,
      "kelisideng": 4906,
      "die": 4907,
      "dis": 4908,
      "di7": 4909,
      "dizhu": 4910,
      "didian": 4911,
      "diquan": 4912,
      "dire": 4913,
      "yanhou": 4914,
      "yanchang": 4915,
      "##titu": 4916,
      "fasong": 4917,
      "falanke": 4918,
      "gongzhi": 4919,
      "gongjia": 4920,
      "gongfa": 4921,
      "gongshang": 4922,
      "zhengxing": 4923,
      "zhengtong": 4924,
      "zhengru": 4925,
      "zhengke": 4926,
      "##zhujiao": 4927,
      "chubei": 4928,
      "geshu": 4929,
      "gexiang": 4930,
      "geci": 4931,
      "gebai": 4932,
      "##gelan": 4933,
      "##gelang": 4934,
      "shuyi": 4935,
      "shulun": 4936,
      "shuxie": 4937,
      "##jiazheng": 4938,
      "jier": 4939,
      "jiema": 4940,
      "ziwei": 4941,
      "zijue": 4942,
      "zigu": 4943,
      "##zhongzi": 4944,
      "##xiangchu": 4945,
      "##xiangming": 4946,
      "xingfu": 4947,
      "wusheng": 4948,
      "##chukou": 4949,
      "erhou": 4950,
      "erjin": 4951,
      "guoli": 4952,
      "guoyou": 4953,
      "guoming": 4954,
      "##fake": 4955,
      "shangxian": 4956,
      "shangwu": 4957,
      "shangsu": 4958,
      "shangceng": 4959,
      "shangsha": 4960,
      "yinxiang": 4961,
      "yindao": 4962,
      "yinshen": 4963,
      "yanjiushi": 4964,
      "yanjiusheng": 4965,
      "huocheng": 4966,
      "huoban": 4967,
      "xiangyi": 4968,
      "xiangqi": 4969,
      "xiangjin": 4970,
      "xiangrong": 4971,
      "tonghang": 4972,
      "tongdian": 4973,
      "tongsu": 4974,
      "tongbao": 4975,
      "taren": 4976,
      "##erlai": 4977,
      "beisong": 4978,
      "beidou": 4979,
      "jinyu": 4980,
      "jinyuan": 4981,
      "jinren": 4982,
      "jinping": 4983,
      "jinxiu": 4984,
      "jinchukou": 4985,
      "wenxian": 4986,
      "wenyan": 4987,
      "##sike": 4988,
      "##siman": 4989,
      "guzhu": 4990,
      "guren": 4991,
      "gusita": 4992,
      "xianwei": 4993,
      "xianran": 4994,
      "xianqian": 4995,
      "xianqin": 4996,
      "yingao": 4997,
      "yingui": 4998,
      "yinger": 4999,
      "yingfu": 5000,
      "yingde": 5001,
      "yingdui": 5002,
      "yingpian": 5003,
      "yingdie": 5004,
      "##wuyuan": 5005,
      "bingqing": 5006,
      "sunzhi": 5007,
      "sunchu": 5008,
      "sunyue": 5009,
      "sunming": 5010,
      "sunshou": 5011,
      "dengdai": 5012,
      "dengdao": 5013,
      "dengxiao": 5014,
      "denglizi": 5015,
      "guandao": 5016,
      "guanliao": 5017,
      "##butong": 5018,
      "##jieduan": 5019,
      "xitonghua": 5020,
      "##fushe": 5021,
      "##fuluo": 5022,
      "shengchu": 5023,
      "fangong": 5024,
      "fangjia": 5025,
      "fangyuan": 5026,
      "fangbian": 5027,
      "fangeming": 5028,
      "jianyu": 5029,
      "jianmian": 5030,
      "zuodao": 5031,
      "zuozhan": 5032,
      "huiji": 5033,
      "huishi": 5034,
      "huigui": 5035,
      "tiqu": 5036,
      "tijiao": 5037,
      "##del": 5038,
      "##dehua": 5039,
      "##dula": 5040,
      "fushi": 5041,
      "fuyi": 5042,
      "fujia": 5043,
      "fuzuo": 5044,
      "fumian": 5045,
      "fuzhou": 5046,
      "fuchan": 5047,
      "furedai": 5048,
      "yuantou": 5049,
      "meide": 5050,
      "meiren": 5051,
      "meizhou": 5052,
      "##renzhi": 5053,
      "##ciation": 5054,
      "##kexi": 5055,
      "##kete": 5056,
      "##keluo": 5057,
      "jiajian": 5058,
      "jiakuai": 5059,
      "jiaruo": 5060,
      "danci": 5061,
      "lingxing": 5062,
      "linghun": 5063,
      "dianfan": 5064,
      "zuihao": 5065,
      "sili": 5066,
      "sita": 5067,
      "sibian": 5068,
      "jiangu": 5069,
      "jiangshui": 5070,
      "bir": 5071,
      "biqi": 5072,
      "bieren": 5073,
      "jiaoxiang": 5074,
      "jiaoben": 5075,
      "jiaoshe": 5076,
      "jiaodian": 5077,
      "bianzhi": 5078,
      "bianzhong": 5079,
      "bianding": 5080,
      "bianbing": 5081,
      "xumu": 5082,
      "##yanghua": 5083,
      "kaizhan": 5084,
      "kaipu": 5085,
      "daochu": 5086,
      "kexuexing": 5087,
      "kexuehua": 5088,
      "##zhanzheng": 5089,
      "##wenben": 5090,
      "cixing": 5091,
      "cihou": 5092,
      "cishu": 5093,
      "laidao": 5094,
      "##jinqi": 5095,
      "mingzhi": 5096,
      "mingyu": 5097,
      "mingwen": 5098,
      "mingyun": 5099,
      "mingchao": 5100,
      "yongjiu": 5101,
      "yongfa": 5102,
      "neijian": 5103,
      "neixin": 5104,
      "neihai": 5105,
      "dangnian": 5106,
      "dangpai": 5107,
      "dangnei": 5108,
      "shouli": 5109,
      "shouling": 5110,
      "shouchuang": 5111,
      "jushi": 5112,
      "jubu": 5113,
      "jubian": 5114,
      "juqing": 5115,
      "julie": 5116,
      "jiujing": 5117,
      "jiuci": 5118,
      "jiuzheng": 5119,
      "minyi": 5120,
      "##leisi": 5121,
      "qushe": 5122,
      "fanxiang": 5123,
      "fanyuan": 5124,
      "fanmai": 5125,
      "fankang": 5126,
      "hainan": 5127,
      "zuqiu": 5128,
      "shenshi": 5129,
      "shenming": 5130,
      "shenshou": 5131,
      "zongrenkou": 5132,
      "congshu": 5133,
      "conglai": 5134,
      "##bit": 5135,
      "##biya": 5136,
      "liangqi": 5137,
      "liangguang": 5138,
      "huayu": 5139,
      "huadong": 5140,
      "huaju": 5141,
      "guangxi": 5142,
      "xiaoji": 5143,
      "xiaohao": 5144,
      "xiaoneng": 5145,
      "xiaotiao": 5146,
      "xiaomie": 5147,
      "qingyi": 5148,
      "qingjie": 5149,
      "changyi": 5150,
      "changcheng": 5151,
      "changpian": 5152,
      "yunshu": 5153,
      "yunwen": 5154,
      "yunchou": 5155,
      "xiamen": 5156,
      "xiamian": 5157,
      "xialing": 5158,
      "xiatian": 5159,
      "duoyu": 5160,
      "duoban": 5161,
      "zhuanzheng": 5162,
      "daijia": 5163,
      "daibu": 5164,
      "daidian": 5165,
      "daijitao": 5166,
      "caina": 5167,
      "genghuan": 5168,
      "teli": 5169,
      "caoni": 5170,
      "caozong": 5171,
      "##laya": 5172,
      "##latuosi": 5173,
      "zaogao": 5174,
      "##qianwan": 5175,
      "tianfu": 5176,
      "tianren": 5177,
      "tianzhujiao": 5178,
      "##tur": 5179,
      "##ture": 5180,
      "qianshe": 5181,
      "qianding": 5182,
      "qianlai": 5183,
      "qianjin": 5184,
      "qianneng": 5185,
      "zhexueshi": 5186,
      "yaoce": 5187,
      "yaogan": 5188,
      "yueshi": 5189,
      "yuejun": 5190,
      "yuepu": 5191,
      "dingqi": 5192,
      "dingju": 5193,
      "quanyi": 5194,
      "quanyang": 5195,
      "quanquan": 5196,
      "gaowen": 5197,
      "gaoxiao": 5198,
      "mojia": 5199,
      "mozi": 5200,
      "pingyuan": 5201,
      "riqi": 5202,
      "suixing": 5203,
      "anli": 5204,
      "anwei": 5205,
      "anhui": 5206,
      "juebu": 5207,
      "juexin": 5208,
      "junjian": 5209,
      "junren": 5210,
      "feiji": 5211,
      "feizhi": 5212,
      "feixing": 5213,
      "feiman": 5214,
      "wanxing": 5215,
      "wanshang": 5216,
      "wangguo": 5217,
      "wangxiangchu": 5218,
      "wangfake": 5219,
      "181": 5220,
      "huanqiu": 5221,
      "hanwen": 5222,
      "mul": 5223,
      "mushi": 5224,
      "sanlei": 5225,
      "sanjiao": 5226,
      "sanhehui": 5227,
      "zhanxin": 5228,
      "chuancheng": 5229,
      "chuandi": 5230,
      "chuanran": 5231,
      "chuanshuo": 5232,
      "chuantou": 5233,
      "chuanjiaoshi": 5234,
      "shuohua": 5235,
      "shuowen": 5236,
      "kongxu": 5237,
      "maer": 5238,
      "malin": 5239,
      "mach": 5240,
      "mazui": 5241,
      "masite": 5242,
      "mathe": 5243,
      "guizu": 5244,
      "liuyi": 5245,
      "liuyu": 5246,
      "liuliang": 5247,
      "bohai": 5248,
      "chaoxiang": 5249,
      "chaodao": 5250,
      "chaoliu": 5251,
      "chaowenben": 5252,
      "##bola": 5253,
      "benti": 5254,
      "turan": 5255,
      "tuling": 5256,
      "tufei": 5257,
      "fengbi": 5258,
      "waiwei": 5259,
      "waijing": 5260,
      "waike": 5261,
      "waiceng": 5262,
      "waimenggu": 5263,
      "##muzhen": 5264,
      "baxi": 5265,
      "bazi": 5266,
      "bada": 5267,
      "dushi": 5268,
      "duchang": 5269,
      "duliang": 5270,
      "liantong": 5271,
      "lianjia": 5272,
      "lianming": 5273,
      "lianluo": 5274,
      "lianjinshu": 5275,
      "jiegouzhuyi": 5276,
      "chuangkan": 5277,
      "tanqiu": 5278,
      "nanji": 5279,
      "100wan": 5280,
      "lunwei": 5281,
      "##fanshi": 5282,
      "mie": 5283,
      "tuiyi": 5284,
      "tuixing": 5285,
      "tuisuan": 5286,
      "quedian": 5287,
      "tiaokuan": 5288,
      "nayang": 5289,
      "kending": 5290,
      "zhangji": 5291,
      "zhangzi": 5292,
      "zhangbai": 5293,
      "zhangbing": 5294,
      "suzhou": 5295,
      "nongchang": 5296,
      "nonggong": 5297,
      "nongwan": 5298,
      "gena": 5299,
      "##mann": 5300,
      "shuiyu": 5301,
      "tuofu": 5302,
      "tuolei": 5303,
      "yake": 5304,
      "shengwuquan": 5305,
      "##mon": 5306,
      "luyi": 5307,
      "lujing": 5308,
      "lumuzhen": 5309,
      "##xunhuan": 5310,
      "qiangzi": 5311,
      "qiangxian": 5312,
      "##kaiguoer": 5313,
      "huangjia": 5314,
      "ganrao": 5315,
      "zhishifenzi": 5316,
      "shiqishiji": 5317,
      "taowang": 5318,
      "taotian": 5319,
      "taozei": 5320,
      "yangji": 5321,
      "yangsheng": 5322,
      "yangliu": 5323,
      "luobote": 5324,
      "ceding": 5325,
      "##gua": 5326,
      "zhaoliao": 5327,
      "zhaopian": 5328,
      "1994": 5329,
      "##huoque": 5330,
      "##neisi": 5331,
      "paixi": 5332,
      "paifang": 5333,
      "paiqian": 5334,
      "pailie": 5335,
      "yizhixing": 5336,
      "gouxiang": 5337,
      "reli": 5338,
      "zhoubian": 5339,
      "xuezhemen": 5340,
      "kanchu": 5341,
      "kandai": 5342,
      "kanqilai": 5343,
      "aiguo": 5344,
      "aibin": 5345,
      "aimier": 5346,
      "ailatuosi": 5347,
      "zhiduzhuyi": 5348,
      "zhuangji": 5349,
      "zhuangbei": 5350,
      "duanzan": 5351,
      "aoer": 5352,
      "kaozheng": 5353,
      "##osh": 5354,
      "miaoshuxing": 5355,
      "baiwen": 5356,
      "baijiazheng": 5357,
      "haoji": 5358,
      "ershisi": 5359,
      "qiehuan": 5360,
      "1909nian": 5361,
      "diaoyong": 5362,
      "jiqiren": 5363,
      "chabie": 5364,
      "chaersi": 5365,
      "hongmen": 5366,
      "##refox": 5367,
      "suanxing": 5368,
      "suanjian": 5369,
      "maixiang": 5370,
      "mailuo": 5371,
      "maichongxing": 5372,
      "peigen": 5373,
      "huozheshuo": 5374,
      "ouzhouren": 5375,
      "choubei": 5376,
      "manyi": 5377,
      "xiuxi": 5378,
      "xiubu": 5379,
      "xiufu": 5380,
      "xiuding": 5381,
      "1975nian": 5382,
      "1979nian": 5383,
      "taiyangneng": 5384,
      "1890nian": 5385,
      "1893nian": 5386,
      "17shiji": 5387,
      "xilayu": 5388,
      "ziliaoku": 5389,
      "161": 5390,
      "xinxixue": 5391,
      "1962nian": 5392,
      "1963nian": 5393,
      "tangshao": 5394,
      "tangxiangming": 5395,
      "##bawm": 5396,
      "youshihou": 5397,
      "pipingzhe": 5398,
      "zengzhanglv": 5399,
      "hunan": 5400,
      "hunhewu": 5401,
      "lagelang": 5402,
      "tuanjie": 5403,
      "pojie": 5404,
      "haian": 5405,
      "1954nian": 5406,
      "1953nian": 5407,
      "1958nian": 5408,
      "ganguan": 5409,
      "gangmu": 5410,
      "hangtai": 5411,
      "xiangdangyu": 5412,
      "1924nian": 5413,
      "shenzhiyu": 5414,
      "jingzhengzhe": 5415,
      "pianhao": 5416,
      "piancha": 5417,
      "pinlv": 5418,
      "liechu": 5419,
      "lieju": 5420,
      "zhexuejiamen": 5421,
      "cucheng": 5422,
      "mengnan": 5423,
      "mengdesi": 5424,
      "zhunxu": 5425,
      "zhenjiuxue": 5426,
      "kala": 5427,
      "nvzi": 5428,
      "nvidia": 5429,
      "bianjizhuyi": 5430,
      "youxiaoxing": 5431,
      "weird": 5432,
      "pengyou": 5433,
      "panjun": 5434,
      "pinglunzhe": 5435,
      "jihelun": 5436,
      "ruciyilai": 5437,
      "yuehanneisi": 5438,
      "jianchayuan": 5439,
      "yisilanjiao": 5440,
      "gplv3": 5441,
      "000duo": 5442,
      "000wan": 5443,
      "zanyang": 5444,
      "shuaibian": 5445,
      "1930niandai": 5446,
      "1939nian": 5447,
      "comp": 5448,
      "shengyulv": 5449,
      "1871nian": 5450,
      "1874nian": 5451,
      "1882nian": 5452,
      "1883nian": 5453,
      "hanyixue": 5454,
      "leixingti": 5455,
      "qiaozhi": 5456,
      "kuozhangxing": 5457,
      "guxilayu": 5458,
      "waijiaobu": 5459,
      "kangdeli": 5460,
      "kangdezhuyi": 5461,
      "xianxingzhe": 5462,
      "lanqiu": 5463,
      "zhongzhiye": 5464,
      "fuliman": 5465,
      "##ogram": 5466,
      "##ological": 5467,
      "opera": 5468,
      "ruishi": 5469,
      "##thon": 5470,
      "##viron": 5471,
      "aerbote": 5472,
      "aerfulei": 5473,
      "souji": 5474,
      "##nuosha": 5475,
      "xiongdi": 5476,
      "heigeerzhuyi": 5477,
      "hobs": 5478,
      "sheyingji": 5479,
      "zidonghua": 5480,
      "state": 5481,
      "weihexin": 5482,
      "yanzouzhe": 5483,
      "nianqingren": 5484,
      "interna": 5485,
      "internet": 5486,
      "fouze": 5487,
      "zenme": 5488,
      "yichuanxue": 5489,
      "asso": 5490,
      "diguozhuyi": 5491,
      "jiasuqi": 5492,
      "1857nian": 5493,
      "sungai": 5494,
      "taoyuanjun": 5495,
      "acm": 5496,
      "firefox": 5497,
      "xijinping": 5498,
      "dafudu": 5499,
      "sundacheng": 5500,
      "sibinsai": 5501,
      "sibinnuosha": 5502,
      "##ader": 5503,
      "zhongxiyi": 5504,
      "andelu": 5505,
      "psych": 5506,
      "phic": 5507,
      "wil": 5508,
      "yuangu": 5509,
      "guazhan": 5510,
      "qianxinian": 5511,
      "sociologie": 5512,
      "environ": 5513,
      "qiadang": 5514,
      "buzhuo": 5515,
      "daxiyang": 5516,
      "zuoqujia": 5517,
      "biede": 5518,
      "dongnanya": 5519,
      "taipingyang": 5520,
      "1789nian": 5521,
      "lvyouye": 5522,
      "agency": 5523,
      "engesi": 5524,
      "program": 5525,
      "##obe": 5526,
      "##penden": 5527,
      "zhongnongzhuyi": 5528,
      "ziwaixian": 5529,
      "zishalv": 5530,
      "huobusibang": 5531,
      "ailike": 5532,
      "institu": 5533,
      "langmanzhuyi": 5534,
      "nyadang": 5535,
      "yiminju": 5536,
      "##lihete": 5537,
      "lijiatu": 5538,
      "dizhonghai": 5539,
      "dabenying": 5540,
      "tongweisu": 5541,
      "haishenmu": 5542,
      "shenzhenshi": 5543,
      "zhanmushi": 5544,
      "huanghuagang": 5545,
      "yangheling": 5546,
      "aogusiding": 5547,
      "solaris": 5548,
      "physics": 5549,
      "novell": 5550,
      "llvm": 5551,
      "orien": 5552,
      "peter": 5553,
      "palm": 5554,
      "##teni": 5555,
      "##jisuanji": 5556,
      "ximalaya": 5557,
      "heleidun": 5558,
      "youbieyu": 5559,
      "weishenme": 5560,
      "qimeier": 5561,
      "keerkaiguoer": 5562,
      "gebaini": 5563,
      "erjinzhi": 5564,
      "gusitafu": 5565,
      "dengxiaoping": 5566,
      "kaipulei": 5567,
      "masitelihete": 5568,
      "zhangbinglin": 5569,
      "aibinhaosi": 5570,
      "ailatuositeni": 5571,
      "baijiazhengming": 5572,
      "mengdesijiu": 5573,
      "aerfuleide": 5574,
      "hobsbawm": 5575,
      "association": 5576,
      "1qianwan": 5577,
      "38": 5578,
      "35": 5579,
      "300": 5580,
      "3000": 5581,
      "300duo": 5582,
      "4g": 5583,
      "43": 5584,
      "4yi": 5585,
      "5ri": 5586,
      "61": 5587,
      "66": 5588,
      "600": 5589,
      "600duo": 5590,
      "73": 5591,
      "75": 5592,
      "70niandai": 5593,
      "8yi": 5594,
      "8wan": 5595,
      "80niandai": 5596,
      "94": 5597,
      "9yi": 5598,
      "90niandai": 5599,
      "awei": 5600,
      "ast": 5601,
      "art": 5602,
      "ch": 5603,
      "cen": 5604,
      "chai": 5605,
      "cal": 5606,
      "car": 5607,
      "core": 5608,
      "do": 5609,
      "em": 5610,
      "ele": 5611,
      "emp": 5612,
      "fli": 5613,
      "fos": 5614,
      "fed": 5615,
      "hp": 5616,
      "hist": 5617,
      "ip": 5618,
      "kb": 5619,
      "keng": 5620,
      "lk": 5621,
      "nhua": 5622,
      "or": 5623,
      "ouni": 5624,
      "pp": 5625,
      "py": 5626,
      "pla": 5627,
      "pow": 5628,
      "pet": 5629,
      "ped": 5630,
      "ra": 5631,
      "rei": 5632,
      "smi": 5633,
      "shaizi": 5634,
      "tun": 5635,
      "tran": 5636,
      "ur": 5637,
      "ubun": 5638,
      "va": 5639,
      "wiki": 5640,
      "who": 5641,
      "zin": 5642,
      "zhai": 5643,
      "##up": 5644,
      "##uage": 5645,
      "##of": 5646,
      "##om": 5647,
      "##cl": 5648,
      "##cen": 5649,
      "##cra": 5650,
      "##ii": 5651,
      "##nm": 5652,
      "##nai": 5653,
      "##nes": 5654,
      "##gun": 5655,
      "##ft": 5656,
      "##lo": 5657,
      "##ld": 5658,
      "##lm": 5659,
      "##ler": 5660,
      "##lor": 5661,
      "##log": 5662,
      "##awei": 5663,
      "##ard": 5664,
      "##akexi": 5665,
      "##zeren": 5666,
      "##tt": 5667,
      "##tograp": 5668,
      "##ss": 5669,
      "##sk": 5670,
      "##93": 5671,
      "##24": 5672,
      "##2yi": 5673,
      "##rm": 5674,
      "##rdai": 5675,
      "##rna": 5676,
      "##king": 5677,
      "##pou": 5678,
      "##buni": 5679,
      "##12": 5680,
      "##17": 5681,
      "##here": 5682,
      "dec": 5683,
      "desi": 5684,
      "debun": 5685,
      "device": 5686,
      "dependen": 5687,
      "##aoer": 5688,
      "##uou": 5689,
      "jizhu": 5690,
      "jisi": 5691,
      "jiju": 5692,
      "jike": 5693,
      "jiding": 5694,
      "jizu": 5695,
      "jifen": 5696,
      "jibian": 5697,
      "jibie": 5698,
      "yihan": 5699,
      "yihua": 5700,
      "yidu": 5701,
      "yizheng": 5702,
      "yijin": 5703,
      "yizhang": 5704,
      "yigou": 5705,
      "yitu": 5706,
      "yitai": 5707,
      "yiling": 5708,
      "yixun": 5709,
      "yikuai": 5710,
      "shixiang": 5711,
      "shiyue": 5712,
      "shisi": 5713,
      "shizhan": 5714,
      "shijin": 5715,
      "shima": 5716,
      "shize": 5717,
      "shixia": 5718,
      "shifei": 5719,
      "shikai": 5720,
      "shibing": 5721,
      "shiya": 5722,
      "shixuejia": 5723,
      "##shiwan": 5724,
      "xiji": 5725,
      "xiou": 5726,
      "xishu": 5727,
      "xibu": 5728,
      "xici": 5729,
      "xiwai": 5730,
      "xijiang": 5731,
      "ximeng": 5732,
      "##xuezhe": 5733,
      "##unc": 5734,
      "##xilan": 5735,
      "##lixi": 5736,
      "##liti": 5737,
      "##liya": 5738,
      "##lity": 5739,
      "libu": 5740,
      "lifang": 5741,
      "liqing": 5742,
      "lifanggong": 5743,
      "ligo": 5744,
      "libre": 5745,
      "##yizhi": 5746,
      "##yilun": 5747,
      "##yiqian": 5748,
      "zhonghou": 5749,
      "zhongyong": 5750,
      "zhongbu": 5751,
      "zhongya": 5752,
      "zhian": 5753,
      "zhixi": 5754,
      "zhizhu": 5755,
      "zhihua": 5756,
      "zhixian": 5757,
      "zhifu": 5758,
      "zhilei": 5759,
      "zhibiao": 5760,
      "zhimi": 5761,
      "zhinan": 5762,
      "zhikong": 5763,
      "zaiyou": 5764,
      "zaihai": 5765,
      "##zhixue": 5766,
      "##zhifa": 5767,
      "##zhina": 5768,
      "hesheng": 5769,
      "heci": 5770,
      "hejin": 5771,
      "heqiu": 5772,
      "hedeng": 5773,
      "helan": 5774,
      "heku": 5775,
      "younian": 5776,
      "youzhu": 5777,
      "youtai": 5778,
      "youyin": 5779,
      "youhuo": 5780,
      "youshui": 5781,
      "yuji": 5782,
      "yuwei": 5783,
      "yuyou": 5784,
      "yufa": 5785,
      "yujing": 5786,
      "yuxia": 5787,
      "yugu": 5788,
      "yufou": 5789,
      "renren": 5790,
      "renjiao": 5791,
      "weifa": 5792,
      "weiquan": 5793,
      "weibei": 5794,
      "weifan": 5795,
      "weizhongzi": 5796,
      "qixi": 5797,
      "qichu": 5798,
      "qiyong": 5799,
      "qizi": 5800,
      "qijin": 5801,
      "qihuo": 5802,
      "buji": 5803,
      "buli": 5804,
      "buju": 5805,
      "buchang": 5806,
      "buda": 5807,
      "buguan": 5808,
      "buliao": 5809,
      "bujun": 5810,
      "buluo": 5811,
      "zhushu": 5812,
      "zhuzi": 5813,
      "zhufang": 5814,
      "zhubian": 5815,
      "zhuling": 5816,
      "zhujun": 5817,
      "zhuyin": 5818,
      "zhumu": 5819,
      "zhebu": 5820,
      "keli": 5821,
      "kelai": 5822,
      "keluo": 5823,
      "keyun": 5824,
      "keshihua": 5825,
      "dixiang": 5826,
      "diyuan": 5827,
      "dichu": 5828,
      "dixin": 5829,
      "diliu": 5830,
      "digui": 5831,
      "diqiao": 5832,
      "yanan": 5833,
      "yanqian": 5834,
      "yanceng": 5835,
      "yantao": 5836,
      "##int": 5837,
      "##tive": 5838,
      "fayi": 5839,
      "fashou": 5840,
      "faguang": 5841,
      "gongyi": 5842,
      "gongchu": 5843,
      "gongzheng": 5844,
      "gongwen": 5845,
      "gongjin": 5846,
      "gongting": 5847,
      "gongcun": 5848,
      "gongzhuan": 5849,
      "gongnong": 5850,
      "datong": 5851,
      "dayou": 5852,
      "dayang": 5853,
      "daying": 5854,
      "dabai": 5855,
      "davi": 5856,
      "dazongtong": 5857,
      "jingshi": 5858,
      "jingyu": 5859,
      "jingtong": 5860,
      "jingxiang": 5861,
      "jingju": 5862,
      "jingdu": 5863,
      "jingfang": 5864,
      "jingcha": 5865,
      "jingluo": 5866,
      "jingpian": 5867,
      "jingsai": 5868,
      "chengyi": 5869,
      "chengyu": 5870,
      "chengxing": 5871,
      "chengchu": 5872,
      "chenghao": 5873,
      "chengyin": 5874,
      "chengqing": 5875,
      "zhengqi": 5876,
      "zhengyan": 5877,
      "zhengbian": 5878,
      "##zhuo": 5879,
      "chuliang": 5880,
      "chufang": 5881,
      "chuzai": 5882,
      "chulu": 5883,
      "chupin": 5884,
      "chudeng": 5885,
      "chubing": 5886,
      "chuxuezhe": 5887,
      "##jianzhong": 5888,
      "gede": 5889,
      "gefang": 5890,
      "gedui": 5891,
      "geshou": 5892,
      "gejue": 5893,
      "gexuepai": 5894,
      "##geyang": 5895,
      "shuyue": 5896,
      "shuming": 5897,
      "shujin": 5898,
      "jieyu": 5899,
      "jiecheng": 5900,
      "jieyong": 5901,
      "jiezi": 5902,
      "jieyue": 5903,
      "jiedao": 5904,
      "jieshe": 5905,
      "jieran": 5906,
      "jiejiao": 5907,
      "jiemi": 5908,
      "jielian": 5909,
      "jiemeng": 5910,
      "jiezou": 5911,
      "jiepou": 5912,
      "zili": 5913,
      "zishu": 5914,
      "zijia": 5915,
      "ziming": 5916,
      "zijin": 5917,
      "zizhuan": 5918,
      "##zhongguo": 5919,
      "xingyi": 5920,
      "xingxiang": 5921,
      "xingzu": 5922,
      "xingxiao": 5923,
      "xingpan": 5924,
      "wuji": 5925,
      "wujia": 5926,
      "wusi": 5927,
      "wujie": 5928,
      "wuju": 5929,
      "wuyan": 5930,
      "wuguan": 5931,
      "wusuo": 5932,
      "wuting": 5933,
      "wuse": 5934,
      "wuchanjieji": 5935,
      "erhao": 5936,
      "erzhan": 5937,
      "erdeng": 5938,
      "erbai": 5939,
      "ernv": 5940,
      "guoyu": 5941,
      "guoqi": 5942,
      "guoti": 5943,
      "guohua": 5944,
      "guoqing": 5945,
      "##ziyou": 5946,
      "##ziyang": 5947,
      "shangxue": 5948,
      "shangyi": 5949,
      "shangyou": 5950,
      "shangmian": 5951,
      "shanggu": 5952,
      "shangtuan": 5953,
      "shangtao": 5954,
      "yinan": 5955,
      "yinyu": 5956,
      "yinzi": 5957,
      "yinbiao": 5958,
      "huojian": 5959,
      "huowu": 5960,
      "huoxu": 5961,
      "xiangnian": 5962,
      "xiangtai": 5963,
      "tongxue": 5964,
      "tongxing": 5965,
      "tongren": 5966,
      "tongqing": 5967,
      "duishou": 5968,
      "duizhuang": 5969,
      "duikang": 5970,
      "taguo": 5971,
      "tayong": 5972,
      "talei": 5973,
      "##ersheng": 5974,
      "##erde": 5975,
      "##eral": 5976,
      "##haozhe": 5977,
      "beier": 5978,
      "beidi": 5979,
      "beiguan": 5980,
      "jinwei": 5981,
      "jinhou": 5982,
      "jinjie": 5983,
      "jinzu": 5984,
      "jinqian": 5985,
      "jinling": 5986,
      "jinsuo": 5987,
      "wenluan": 5988,
      "gucheng": 5989,
      "gugong": 5990,
      "gupiao": 5991,
      "xina": 5992,
      "xinyi": 5993,
      "xinnian": 5994,
      "xinren": 5995,
      "xinxin": 5996,
      "xinjiao": 5997,
      "xinjun": 5998,
      "xinping": 5999,
      "##xianxing": 6000,
      "xianjue": 6001,
      "xiantian": 6002,
      "xiankuang": 6003,
      "yingshu": 6004,
      "yingran": 6005,
      "yingyin": 6006,
      "fenke": 6007,
      "fenmi": 6008,
      "fenceng": 6009,
      "yexin": 6010,
      "huguo": 6011,
      "hutong": 6012,
      "hujin": 6013,
      "hujiao": 6014,
      "human": 6015,
      "husaier": 6016,
      "##wuju": 6017,
      "bingji": 6018,
      "bingfa": 6019,
      "bingyin": 6020,
      "xueyi": 6021,
      "xuejian": 6022,
      "xuejia": 6023,
      "xueye": 6024,
      "xueben": 6025,
      "xuesuo": 6026,
      "xuetang": 6027,
      "sunji": 6028,
      "suntong": 6029,
      "sunzhu": 6030,
      "sunxiang": 6031,
      "sunfa": 6032,
      "sunsi": 6033,
      "sunjie": 6034,
      "sundong": 6035,
      "sunru": 6036,
      "sunshang": 6037,
      "sunze": 6038,
      "sunxuan": 6039,
      "dengyu": 6040,
      "dengjia": 6041,
      "dengguang": 6042,
      "guanshui": 6043,
      "guankan": 6044,
      "shehuishi": 6045,
      "##buji": 6046,
      "##buzhi": 6047,
      "##bubao": 6048,
      "##fubai": 6049,
      "shengao": 6050,
      "shengsi": 6051,
      "shengjing": 6052,
      "shenggong": 6053,
      "shengqian": 6054,
      "shengbo": 6055,
      "shenglve": 6056,
      "baoan": 6057,
      "baohe": 6058,
      "baolin": 6059,
      "baochou": 6060,
      "fangfu": 6061,
      "fangyan": 6062,
      "fanghuan": 6063,
      "##yanzhi": 6064,
      "##changqi": 6065,
      "jianru": 6066,
      "jiandao": 6067,
      "jianren": 6068,
      "jianjin": 6069,
      "jiance": 6070,
      "jianbao": 6071,
      "jianhuan": 6072,
      "jiannan": 6073,
      "zuoshi": 6074,
      "zuogong": 6075,
      "huichang": 6076,
      "huishang": 6077,
      "huitu": 6078,
      "##ruden": 6079,
      "tishi": 6080,
      "tili": 6081,
      "timu": 6082,
      "ticao": 6083,
      "##daohui": 6084,
      "##daoti": 6085,
      "##daofu": 6086,
      "suoshu": 6087,
      "suoxian": 6088,
      "suoxiao": 6089,
      "##degeer": 6090,
      "##delixi": 6091,
      "fujian": 6092,
      "fuyou": 6093,
      "fuyuan": 6094,
      "fuchu": 6095,
      "fubi": 6096,
      "fulan": 6097,
      "fugai": 6098,
      "fuzong": 6099,
      "fuzeren": 6100,
      "yuannian": 6101,
      "yuanyou": 6102,
      "yuandong": 6103,
      "yuanzai": 6104,
      "yuanshou": 6105,
      "yuanma": 6106,
      "yuanshuai": 6107,
      "jingjifa": 6108,
      "meihua": 6109,
      "meici": 6110,
      "meida": 6111,
      "##keer": 6112,
      "##kelai": 6113,
      "##kequan": 6114,
      "jiashi": 6115,
      "jiaxiang": 6116,
      "jiayong": 6117,
      "jiading": 6118,
      "jiagong": 6119,
      "jiaban": 6120,
      "jiami": 6121,
      "danti": 6122,
      "danshu": 6123,
      "danyuan": 6124,
      "danni": 6125,
      "dannisi": 6126,
      "lingshi": 6127,
      "diandong": 6128,
      "dianjun": 6129,
      "zuijia": 6130,
      "zuidi": 6131,
      "zuishao": 6132,
      "zuizhuang": 6133,
      "##rist": 6134,
      "##ries": 6135,
      "siduo": 6136,
      "sisuo": 6137,
      "sizhen": 6138,
      "sikan": 6139,
      "20nian": 6140,
      "2050nian": 6141,
      "jiangyu": 6142,
      "jiangshu": 6143,
      "jianghua": 6144,
      "jiangyao": 6145,
      "jiangsu": 6146,
      "jiangping": 6147,
      "biyi": 6148,
      "biqiang": 6149,
      "bish": 6150,
      "jiaoji": 6151,
      "jiaoyou": 6152,
      "jiaowu": 6153,
      "jiaocha": 6154,
      "jiaopian": 6155,
      "jiaotiao": 6156,
      "bianti": 6157,
      "bianyuan": 6158,
      "bianyin": 6159,
      "bianzuan": 6160,
      "xuang": 6161,
      "xujiu": 6162,
      "xulie": 6163,
      "kaixue": 6164,
      "kaiqi": 6165,
      "kaichu": 6166,
      "kailai": 6167,
      "kaiban": 6168,
      "kaiduan": 6169,
      "daohang": 6170,
      "daotong": 6171,
      "daojia": 6172,
      "daolai": 6173,
      "daodi": 6174,
      "kexuexi": 6175,
      "##dingli": 6176,
      "##dinglv": 6177,
      "lilunjia": 6178,
      "##laiyu": 6179,
      "##laiwu": 6180,
      "##laixiya": 6181,
      "ciyu": 6182,
      "cixiang": 6183,
      "##zufu": 6184,
      "laibi": 6185,
      "laijiang": 6186,
      "lainasi": 6187,
      "laibuni": 6188,
      "##jinri": 6189,
      "mingan": 6190,
      "mingjia": 6191,
      "mingsheng": 6192,
      "minglu": 6193,
      "minglie": 6194,
      "yongdao": 6195,
      "neihan": 6196,
      "neijing": 6197,
      "neidi": 6198,
      "dangzhe": 6199,
      "dangbu": 6200,
      "dangjun": 6201,
      "shouxi": 6202,
      "shouzhong": 6203,
      "shouxiang": 6204,
      "shouxu": 6205,
      "shougou": 6206,
      "shoulu": 6207,
      "gaiyi": 6208,
      "gaiwei": 6209,
      "gailun": 6210,
      "gaiyao": 6211,
      "gaikuo": 6212,
      "juzheng": 6213,
      "juris": 6214,
      "##ham": 6215,
      "jiuke": 6216,
      "jiushen": 6217,
      "rushi": 6218,
      "qudao": 6219,
      "fanti": 6220,
      "faner": 6221,
      "fansi": 6222,
      "fanchang": 6223,
      "fandu": 6224,
      "fandi": 6225,
      "haitong": 6226,
      "haike": 6227,
      "haishang": 6228,
      "hainei": 6229,
      "haishui": 6230,
      "##dianzhong": 6231,
      "##tation": 6232,
      "chanquan": 6233,
      "zuli": 6234,
      "zudang": 6235,
      "zumu": 6236,
      "shenqi": 6237,
      "shenhou": 6238,
      "shenyuan": 6239,
      "shenchu": 6240,
      "shenke": 6241,
      "shenzhou": 6242,
      "shenpan": 6243,
      "shennong": 6244,
      "zongshi": 6245,
      "zongshu": 6246,
      "zongcheng": 6247,
      "zongju": 6248,
      "zongguan": 6249,
      "zonggong": 6250,
      "zongzhang": 6251,
      "zongcai": 6252,
      "congwei": 6253,
      "douliu": 6254,
      "##qiuxing": 6255,
      "houji": 6256,
      "houyi": 6257,
      "houguo": 6258,
      "houren": 6259,
      "houbian": 6260,
      "houteng": 6261,
      "liangyu": 6262,
      "liangping": 6263,
      "liangbai": 6264,
      "huayi": 6265,
      "huati": 6266,
      "guangzi": 6267,
      "guangchang": 6268,
      "guanggao": 6269,
      "guangdie": 6270,
      "xiaoli": 6271,
      "xiaochu": 6272,
      "xiaoer": 6273,
      "xiaobufen": 6274,
      "##shanmai": 6275,
      "qingshi": 6276,
      "qingxi": 6277,
      "qingtong": 6278,
      "qingdi": 6279,
      "qingshao": 6280,
      "qingtian": 6281,
      "qingchen": 6282,
      "changjiu": 6283,
      "changren": 6284,
      "changtai": 6285,
      "xiashi": 6286,
      "xiawu": 6287,
      "xiaci": 6288,
      "xiaqu": 6289,
      "xiabiao": 6290,
      "xiajianzhong": 6291,
      "duofang": 6292,
      "zhuanan": 6293,
      "daiti": 6294,
      "dailixue": 6295,
      "daikuan": 6296,
      "daigei": 6297,
      "caixing": 6298,
      "caiwu": 6299,
      "##lution": 6300,
      "lishiguo": 6301,
      "lishizhang": 6302,
      "jingjixuejie": 6303,
      "gengdong": 6304,
      "tech": 6305,
      "caoyao": 6306,
      "caodi": 6307,
      "zaonian": 6308,
      "zaoshou": 6309,
      "##qianduo": 6310,
      "tianxing": 6311,
      "tianjia": 6312,
      "qianting": 6313,
      "qianwa": 6314,
      "qiansong": 6315,
      "zhexuejie": 6316,
      "dongan": 6317,
      "dongzhi": 6318,
      "dongyuan": 6319,
      "yaoyuan": 6320,
      "yaofang": 6321,
      "yuese": 6322,
      "biaoji": 6323,
      "biaoqian": 6324,
      "dingding": 6325,
      "quanzhi": 6326,
      "quanmin": 6327,
      "quanxin": 6328,
      "quanlu": 6329,
      "gaoxing": 6330,
      "gaoshan": 6331,
      "gaofeng": 6332,
      "gaokong": 6333,
      "gaoceng": 6334,
      "gaotie": 6335,
      "moer": 6336,
      "mobuwei": 6337,
      "pingjian": 6338,
      "pingban": 6339,
      "riqu": 6340,
      "taiguo": 6341,
      "taitou": 6342,
      "taileisi": 6343,
      "anna": 6344,
      "anakexi": 6345,
      "minzuti": 6346,
      "juewu": 6347,
      "junzheng": 6348,
      "junzhang": 6349,
      "##tailang": 6350,
      "xuandu": 6351,
      "xuanzhuan": 6352,
      "feiyong": 6353,
      "feier": 6354,
      "feishengwu": 6355,
      "feixite": 6356,
      "feiziyou": 6357,
      "henan": 6358,
      "henshao": 6359,
      "wannian": 6360,
      "wanqu": 6361,
      "gemingxing": 6362,
      "gemingjia": 6363,
      "fangfalun": 6364,
      "wanglai": 6365,
      "wangshang": 6366,
      "huanan": 6367,
      "huanqu": 6368,
      "huanrao": 6369,
      "hanshi": 6370,
      "hanjian": 6371,
      "hansi": 6372,
      "hanren": 6373,
      "hanleng": 6374,
      "muban": 6375,
      "sanji": 6376,
      "santi": 6377,
      "sanzhe": 6378,
      "sanwan": 6379,
      "sanfenzhiyi": 6380,
      "##lingyu": 6381,
      "zhanyang": 6382,
      "zhandou": 6383,
      "chuanzhi": 6384,
      "chuanti": 6385,
      "bandaoti": 6386,
      "zhenxing": 6387,
      "zhenxiang": 6388,
      "zhenren": 6389,
      "shuodao": 6390,
      "konghuang": 6391,
      "xiehe": 6392,
      "xietong": 6393,
      "masai": 6394,
      "malaixiya": 6395,
      "##yinli": 6396,
      "guiwei": 6397,
      "guizhou": 6398,
      "liushi": 6399,
      "liutong": 6400,
      "liuxiang": 6401,
      "liusi": 6402,
      "liujing": 6403,
      "liuri": 6404,
      "liuwang": 6405,
      "niandi": 6406,
      "nianqiu": 6407,
      "huaxuepin": 6408,
      "boxing": 6409,
      "boxun": 6410,
      "chaowei": 6411,
      "chaoxing": 6412,
      "chaosheng": 6413,
      "bentu": 6414,
      "tushu": 6415,
      "tuchu": 6416,
      "tuhua": 6417,
      "tubiao": 6418,
      "fenxixue": 6419,
      "cunfang": 6420,
      "fenghan": 6421,
      "fengzhuang": 6422,
      "waihe": 6423,
      "waihui": 6424,
      "waibiao": 6425,
      "bashi": 6426,
      "baguan": 6427,
      "bamian": 6428,
      "bafuluo": 6429,
      "duwei": 6430,
      "dudu": 6431,
      "lianxiang": 6432,
      "lianxian": 6433,
      "liansai": 6434,
      "jiegouxing": 6435,
      "chuangyang": 6436,
      "tanhua": 6437,
      "tanlun": 6438,
      "tanwu": 6439,
      "nanhan": 6440,
      "nanmeizhou": 6441,
      "108": 6442,
      "10yi": 6443,
      "lunxue": 6444,
      "lundian": 6445,
      "mit": 6446,
      "miji": 6447,
      "zengyi": 6448,
      "tuiju": 6449,
      "tuiduan": 6450,
      "tuina": 6451,
      "tuixuan": 6452,
      "tuichong": 6453,
      "quexian": 6454,
      "quesheng": 6455,
      "querdai": 6456,
      "woer": 6457,
      "leishe": 6458,
      "leida": 6459,
      "tiaowen": 6460,
      "nali": 6461,
      "nazhong": 6462,
      "nami": 6463,
      "national": 6464,
      "zhangjian": 6465,
      "suzao": 6466,
      "sugelan": 6467,
      "ziranshi": 6468,
      "nongli": 6469,
      "nongtian": 6470,
      "general": 6471,
      "##miu": 6472,
      "##mande": 6473,
      "daxuesheng": 6474,
      "shuili": 6475,
      "shuicheng": 6476,
      "shuiliang": 6477,
      "shuishou": 6478,
      "shuixunhuan": 6479,
      "2000": 6480,
      "xunshi": 6481,
      "xunzheng": 6482,
      "xuntian": 6483,
      "publi": 6484,
      "yadian": 6485,
      "yatai": 6486,
      "yabola": 6487,
      "luxiang": 6488,
      "qiangli": 6489,
      "qiangguo": 6490,
      "chongjian": 6491,
      "chongxian": 6492,
      "chongshen": 6493,
      "chongchi": 6494,
      "chongbai": 6495,
      "wenxuejia": 6496,
      "linye": 6497,
      "##niu": 6498,
      "huangfu": 6499,
      "huanghai": 6500,
      "huangmo": 6501,
      "huangmiu": 6502,
      "daibiaoxing": 6503,
      "canmou": 6504,
      "ganbu": 6505,
      "ganzao": 6506,
      "tongyixing": 6507,
      "taocheng": 6508,
      "taoyong": 6509,
      "taoci": 6510,
      "yangyi": 6511,
      "yangzhi": 6512,
      "##yajie": 6513,
      "luosi": 6514,
      "luobin": 6515,
      "yixuejia": 6516,
      "suoyouquan": 6517,
      "jiushishuo": 6518,
      "##guai": 6519,
      "zhaogu": 6520,
      "zhaoziyang": 6521,
      "laohua": 6522,
      "nix": 6523,
      "niang": 6524,
      "nicai": 6525,
      "118": 6526,
      "chizi": 6527,
      "paicheng": 6528,
      "paichi": 6529,
      "nuoyiman": 6530,
      "##one": 6531,
      "##mengjin": 6532,
      "ouhe": 6533,
      "ouyuan": 6534,
      "yizhiyu": 6535,
      "##line": 6536,
      "remen": 6537,
      "reliang": 6538,
      "reqing": 6539,
      "refushe": 6540,
      "zhouji": 6541,
      "zhouwei": 6542,
      "zhougong": 6543,
      "zhoumo": 6544,
      "aiding": 6545,
      "aisen": 6546,
      "aisake": 6547,
      "aidehua": 6548,
      "aihaozhe": 6549,
      "##puyi": 6550,
      "duanjue": 6551,
      "aozhou": 6552,
      "aomiao": 6553,
      "baifang": 6554,
      "baifen": 6555,
      "baikequan": 6556,
      "guanchazhe": 6557,
      "1914nian": 6558,
      "1918nian": 6559,
      "guangzhoushi": 6560,
      "haoqi": 6561,
      "haochu": 6562,
      "haowu": 6563,
      "haozhao": 6564,
      "haolaiwu": 6565,
      "1980nian": 6566,
      "menlei": 6567,
      "jiazhiguan": 6568,
      "songdai": 6569,
      "diaoyu": 6570,
      "gongnengzhuyi": 6571,
      "jingshenbing": 6572,
      "hongbao": 6573,
      "hongxiu": 6574,
      "kuochong": 6575,
      "##fengjian": 6576,
      "qiyijun": 6577,
      "chenqimei": 6578,
      "zengjiazhi": 6579,
      "gongchandangyuan": 6580,
      "shaoguan": 6581,
      "maili": 6582,
      "maimai": 6583,
      "peiyu": 6584,
      "yilaiyu": 6585,
      "tongjixuejia": 6586,
      "xiuzheng": 6587,
      "1970nian": 6588,
      "1972nian": 6589,
      "1977nian": 6590,
      "rongliang": 6591,
      "ronggong": 6592,
      "xingxihe": 6593,
      "172": 6594,
      "176": 6595,
      "fuwuceng": 6596,
      "xilahua": 6597,
      "xilaren": 6598,
      "164": 6599,
      "160": 6600,
      "16shiji": 6601,
      "hudonglun": 6602,
      "1965nian": 6603,
      "1966nian": 6604,
      "tangdai": 6605,
      "shandi": 6606,
      "shanqu": 6607,
      "shantou": 6608,
      "gongchengshi": 6609,
      "lamp": 6610,
      "lixingzhuyizhe": 6611,
      "inf": 6612,
      "lvguan": 6613,
      "politi": 6614,
      "har": 6615,
      "hasake": 6616,
      "1951nian": 6617,
      "1957nian": 6618,
      "1959nian": 6619,
      "gangti": 6620,
      "gangling": 6621,
      "ganggan": 6622,
      "hangye": 6623,
      "office": 6624,
      "tingzhong": 6625,
      "zunao": 6626,
      "zunzhong": 6627,
      "1921nian": 6628,
      "1927nian": 6629,
      "1929nian": 6630,
      "kuaile": 6631,
      "jingzhengli": 6632,
      "dongwuxue": 6633,
      "quanqiuhua": 6634,
      "gonglihui": 6635,
      "pinfu": 6636,
      "pinkun": 6637,
      "lieyu": 6638,
      "mengyou": 6639,
      "pubianxing": 6640,
      "laodongsuo": 6641,
      "niuqu": 6642,
      "niuxilan": 6643,
      "shangyehua": 6644,
      "kahong": 6645,
      "disanfang": 6646,
      "daqiquan": 6647,
      "dituxuejia": 6648,
      "tiezi": 6649,
      "zonghexing": 6650,
      "zhuisui": 6651,
      "pengji": 6652,
      "yiweizhe": 6653,
      "shuangbian": 6654,
      "133": 6655,
      "pau": 6656,
      "bukehuoque": 6657,
      "##kasi": 6658,
      "qiuling": 6659,
      "kaifangyuan": 6660,
      "pinglunjia": 6661,
      "1945nian": 6662,
      "1948nian": 6663,
      "shenmeyang": 6664,
      "##rome": 6665,
      "zhizaoye": 6666,
      "zhizaoshang": 6667,
      "zhuoshou": 6668,
      "yinduzhina": 6669,
      "bolatuzhuyi": 6670,
      "30yi": 6671,
      "kunqu": 6672,
      "language": 6673,
      "zanyu": 6674,
      "zantong": 6675,
      "zancheng": 6676,
      "zhuzhongyu": 6677,
      "shuailing": 6678,
      "shuaitui": 6679,
      "1931nian": 6680,
      "1936nian": 6681,
      "dingweifu": 6682,
      "chouxianghua": 6683,
      "5000": 6684,
      "500yi": 6685,
      "500wan": 6686,
      "##rder": 6687,
      "zhengquexing": 6688,
      "wuxiandian": 6689,
      "social": 6690,
      "kuaguo": 6691,
      "kualingyu": 6692,
      "shengtaixue": 6693,
      "cuisheng": 6694,
      "lifazhe": 6695,
      "gongshiguan": 6696,
      "xinwenxue": 6697,
      "xinwenzu": 6698,
      "huaihe": 6699,
      "dianjiren": 6700,
      "bianzhengfa": 6701,
      "laiyuanyu": 6702,
      "wazi": 6703,
      "wajie": 6704,
      "youxiji": 6705,
      "zongdufu": 6706,
      "yalishiduo": 6707,
      "chezhan": 6708,
      "zoushang": 6709,
      "lanyong": 6710,
      "lanse": 6711,
      "shizhijinri": 6712,
      "zhixiashi": 6713,
      "xiangfandi": 6714,
      "sifaguan": 6715,
      "##ologie": 6716,
      "php": 6717,
      "sate": 6718,
      "hepingjiang": 6719,
      "jingquexing": 6720,
      "1864nian": 6721,
      "1866nian": 6722,
      "1867nian": 6723,
      "zuizaoqi": 6724,
      "aertuo": 6725,
      "bincheng": 6726,
      "binhai": 6727,
      "exp": 6728,
      "minglingxing": 6729,
      "turing": 6730,
      "goumaili": 6731,
      "709": 6732,
      "hood": 6733,
      "lieningzhuyi": 6734,
      "dishiba": 6735,
      "yanshiquan": 6736,
      "803": 6737,
      "stage": 6738,
      "stall": 6739,
      "xiangxiangli": 6740,
      "yanghuashu": 6741,
      "##denawei": 6742,
      "youyisi": 6743,
      "kejianxing": 6744,
      "jiasudu": 6745,
      "changdaozhe": 6746,
      "juedabufen": 6747,
      "1854nian": 6748,
      "acup": 6749,
      "proje": 6750,
      "qiongjiu": 6751,
      "dalishi": 6752,
      "yingpingzhe": 6753,
      "juxianxing": 6754,
      "tiaozhanzhe": 6755,
      "huaiyizhuyi": 6756,
      "free": 6757,
      "shiqianshi": 6758,
      "zhongxibu": 6759,
      "fangyingji": 6760,
      "andesen": 6761,
      "1830nian": 6762,
      "##mierdun": 6763,
      "ladingyu": 6764,
      "ladingwen": 6765,
      "nvxingzhuyi": 6766,
      "geographic": 6767,
      "geographical": 6768,
      "yuangong": 6769,
      "weiwuerzu": 6770,
      "wukebimian": 6771,
      "xiangshanxian": 6772,
      "suozaidi": 6773,
      "shouhengdinglv": 6774,
      "hanminzu": 6775,
      "akuina": 6776,
      "rom": 6777,
      "rouyan": 6778,
      "jifengqu": 6779,
      "shisuhua": 6780,
      "zhimindi": 6781,
      "hejishu": 6782,
      "beikelai": 6783,
      "zhanyoulv": 6784,
      "advan": 6785,
      "adobe": 6786,
      "johan": 6787,
      "bulusaier": 6788,
      "dafangmai": 6789,
      "wenbingchen": 6790,
      "sundeyou": 6791,
      "sundezhang": 6792,
      "fangshexing": 6793,
      "sitanli": 6794,
      "biannianshi": 6795,
      "kongbuzhuyi": 6796,
      "shuiwenxue": 6797,
      "heilonghui": 6798,
      "heilongjiang": 6799,
      "profession": 6800,
      "git": 6801,
      "pendi": 6802,
      "shibashiji": 6803,
      "xibanya": 6804,
      "bulaike": 6805,
      "gongyingshang": 6806,
      "jinggangshan": 6807,
      "gelunbiya": 6808,
      "meiwufu": 6809,
      "jiawuzhanzheng": 6810,
      "tianranqi": 6811,
      "laolinghua": 6812,
      "kaoguxue": 6813,
      "information": 6814,
      "386bsd": 6815,
      "app": 6816,
      "black": 6817,
      "gnome": 6818,
      "imagin": 6819,
      "sym": 6820,
      "zangzu": 6821,
      "yiaolanni": 6822,
      "livecd": 6823,
      "falankefu": 6824,
      "dengliziti": 6825,
      "fuzuoyong": 6826,
      "sitaman": 6827,
      "xumuye": 6828,
      "hainandao": 6829,
      "liangqichao": 6830,
      "anweiji": 6831,
      "chuanranbing": 6832,
      "maersasi": 6833,
      "tufeimengjin": 6834,
      "tuoleimi": 6835,
      "luyisi": 6836,
      "tangshaoyi": 6837,
      "haianxian": 6838,
      "mengnanji": 6839,
      "environment": 6840,
      "programming": 6841,
      "oriented": 6842,
      "4gb": 6843,
      "chrome": 6844,
      "cartograp": 6845,
      "empty": 6846,
      "lkm": 6847,
      "ounixiusi": 6848,
      "python": 6849,
      "power": 6850,
      "reiser": 6851,
      "smith": 6852,
      "ubuntu": 6853,
      "##office": 6854,
      "debunking": 6855,
      "yitaihua": 6856,
      "shizhanlv": 6857,
      "zhonghouqi": 6858,
      "gongjinhui": 6859,
      "david": 6860,
      "jieranbutong": 6861,
      "wusuobubao": 6862,
      "taleibo": 6863,
      "hujintao": 6864,
      "dannier": 6865,
      "sikandenawei": 6866,
      "jiangpingren": 6867,
      "bishop": 6868,
      "laibixi": 6869,
      "haineiwai": 6870,
      "qingshaonian": 6871,
      "yuesefu": 6872,
      "anakeximande": 6873,
      "boxunhao": 6874,
      "bafuluofu": 6875,
      "querdaizhi": 6876,
      "yabolahan": 6877,
      "canmouzhang": 6878,
      "aisenke": 6879,
      "hongxiuquan": 6880,
      "political": 6881,
      "acupunc": 6882,
      "projects": 6883,
      "sikandenaweiya": 6884,
      "05": 6885,
      "06": 6886,
      "1wan": 6887,
      "1moer": 6888,
      "2yi": 6889,
      "3wan": 6890,
      "4zhao": 6891,
      "40niandai": 6892,
      "4000": 6893,
      "5yi": 6894,
      "5wan": 6895,
      "69": 6896,
      "67": 6897,
      "6shi": 6898,
      "650": 6899,
      "79": 6900,
      "71": 6901,
      "76": 6902,
      "7wan": 6903,
      "99": 6904,
      "98": 6905,
      "9shi": 6906,
      "950": 6907,
      "au": 6908,
      "aji": 6909,
      "abu": 6910,
      "afu": 6911,
      "ake": 6912,
      "alei": 6913,
      "abi": 6914,
      "amo": 6915,
      "alan": 6916,
      "act": 6917,
      "apa": 6918,
      "arti": 6919,
      "bl": 6920,
      "bs": 6921,
      "buan": 6922,
      "bun": 6923,
      "cs": 6924,
      "cp": 6925,
      "c6": 6926,
      "cou": 6927,
      "cli": 6928,
      "cin": 6929,
      "csa": 6930,
      "cros": 6931,
      "dv": 6932,
      "dri": 6933,
      "ef": 6934,
      "edu": 6935,
      "ewai": 6936,
      "epi": 6937,
      "eth": 6938,
      "ebsd": 6939,
      "fai": 6940,
      "fran": 6941,
      "fuer": 6942,
      "g2": 6943,
      "gru": 6944,
      "gfs": 6945,
      "gdb": 6946,
      "ht": 6947,
      "if": 6948,
      "it": 6949,
      "id": 6950,
      "iee": 6951,
      "jou": 6952,
      "jfs": 6953,
      "kor": 6954,
      "luan": 6955,
      "mv": 6956,
      "mer": 6957,
      "met": 6958,
      "muni": 6959,
      "muou": 6960,
      "nx": 6961,
      "nang": 6962,
      "nun": 6963,
      "nli": 6964,
      "nqi": 6965,
      "niao": 6966,
      "nfs": 6967,
      "oc": 6968,
      "ola": 6969,
      "one": 6970,
      "obje": 6971,
      "pou": 6972,
      "pruden": 6973,
      "run": 6974,
      "rna": 6975,
      "sd": 6976,
      "sk": 6977,
      "sue": 6978,
      "sanguo": 6979,
      "th": 6980,
      "tc": 6981,
      "thi": 6982,
      "tbeier": 6983,
      "teren": 6984,
      "tuni": 6985,
      "trai": 6986,
      "ung": 6987,
      "usen": 6988,
      "vx": 6989,
      "van": 6990,
      "vol": 6991,
      "ww": 6992,
      "xs": 6993,
      "##hn": 6994,
      "##ur": 6995,
      "##ok": 6996,
      "##ola": 6997,
      "##ods": 6998,
      "##ority": 6999,
      "##oria": 7000,
      "##ction": 7001,
      "##clatu": 7002,
      "##cop": 7003,
      "##cine": 7004,
      "##ig": 7005,
      "##ia": 7006,
      "##illa": 7007,
      "##nuan": 7008,
      "##nop": 7009,
      "##gal": 7010,
      "##ew": 7011,
      "##eer": 7012,
      "##edai": 7013,
      "##ff": 7014,
      "##ls": 7015,
      "##lde": 7016,
      "##lle": 7017,
      "##ax": 7018,
      "##as": 7019,
      "##ali": 7020,
      "##atu": 7021,
      "##zun": 7022,
      "##zeru": 7023,
      "##tran": 7024,
      "##ton": 7025,
      "##tor": 7026,
      "##sing": 7027,
      "##sou": 7028,
      "##sin": 7029,
      "##sci": 7030,
      "##ste": 7031,
      "##ster": 7032,
      "##snes": 7033,
      "##32": 7034,
      "##3yi": 7035,
      "##dl": 7036,
      "##dw": 7037,
      "##duer": 7038,
      "##rs": 7039,
      "##rang": 7040,
      "##rdu": 7041,
      "##keng": 7042,
      "##pang": 7043,
      "##pli": 7044,
      "##pha": 7045,
      "##phere": 7046,
      "##by": 7047,
      "##mse": 7048,
      "##muni": 7049,
      "##mber": 7050,
      "##vel": 7051,
      "##46": 7052,
      "##45nian": 7053,
      "##88": 7054,
      "##01": 7055,
      "##00nian": 7056,
      "##14": 7057,
      "##67": 7058,
      "##angong": 7059,
      "##hecheng": 7060,
      "##hers": 7061,
      "den": 7062,
      "dexi": 7063,
      "defen": 7064,
      "demo": 7065,
      "devel": 7066,
      "##hushu": 7067,
      "##husi": 7068,
      "##aier": 7069,
      "##aoduo": 7070,
      "##uoke": 7071,
      "##eier": 7072,
      "##eiman": 7073,
      "##enian": 7074,
      "##enlai": 7075,
      "##jiong": 7076,
      "##jier": 7077,
      "##jiyun": 7078,
      "##out": 7079,
      "jiong": 7080,
      "jixue": 7081,
      "jili": 7082,
      "jijing": 7083,
      "jiqu": 7084,
      "jiquan": 7085,
      "jisu": 7086,
      "jishang": 7087,
      "jiqian": 7088,
      "jishen": 7089,
      "jimu": 7090,
      "jijiang": 7091,
      "jiya": 7092,
      "jipu": 7093,
      "jitan": 7094,
      "jidiao": 7095,
      "jiruo": 7096,
      "##henghui": 7097,
      "yinian": 7098,
      "yihui": 7099,
      "yichu": 7100,
      "yizi": 7101,
      "yier": 7102,
      "yiyan": 7103,
      "yiye": 7104,
      "yizhan": 7105,
      "yizu": 7106,
      "yiguan": 7107,
      "yiqiu": 7108,
      "yibi": 7109,
      "yizai": 7110,
      "yibei": 7111,
      "yidui": 7112,
      "yize": 7113,
      "yipai": 7114,
      "yibo": 7115,
      "yibing": 7116,
      "yise": 7117,
      "yicun": 7118,
      "yizhen": 7119,
      "yilasi": 7120,
      "yimann": 7121,
      "shixi": 7122,
      "shicheng": 7123,
      "shizi": 7124,
      "shizhe": 7125,
      "shisheng": 7126,
      "shijing": 7127,
      "shike": 7128,
      "shiduo": 7129,
      "shimin": 7130,
      "shixu": 7131,
      "shijiao": 7132,
      "shizai": 7133,
      "shiquan": 7134,
      "shishang": 7135,
      "shicha": 7136,
      "shiliao": 7137,
      "shiliu": 7138,
      "shinei": 7139,
      "shichuan": 7140,
      "shifeng": 7141,
      "shizhen": 7142,
      "shisun": 7143,
      "shitou": 7144,
      "##hongyi": 7145,
      "##hongjing": 7146,
      "##hongxiu": 7147,
      "##shishi": 7148,
      "##shihou": 7149,
      "##shichu": 7150,
      "xixi": 7151,
      "xili": 7152,
      "xijia": 7153,
      "xizi": 7154,
      "xijie": 7155,
      "xifu": 7156,
      "xiru": 7157,
      "xiyao": 7158,
      "xiri": 7159,
      "xixin": 7160,
      "xixiao": 7161,
      "xigao": 7162,
      "xiqun": 7163,
      "xijuan": 7164,
      "xipa": 7165,
      "##xueshe": 7166,
      "##xueliang": 7167,
      "##xuetang": 7168,
      "##xipai": 7169,
      "##xibao": 7170,
      "##lixing": 7171,
      "##lilai": 7172,
      "##lida": 7173,
      "##liwai": 7174,
      "##lite": 7175,
      "##liza": 7176,
      "##liam": 7177,
      "##lism": 7178,
      "lizhu": 7179,
      "liyue": 7180,
      "liming": 7181,
      "liyan": 7182,
      "lijing": 7183,
      "liye": 7184,
      "lida": 7185,
      "liqian": 7186,
      "lixia": 7187,
      "liman": 7188,
      "lipu": 7189,
      "lilve": 7190,
      "liter": 7191,
      "lipeng": 7192,
      "litter": 7193,
      "licen": 7194,
      "lilo": 7195,
      "##yinian": 7196,
      "##yishu": 7197,
      "##yiju": 7198,
      "##yichuan": 7199,
      "zhongjiu": 7200,
      "zhongyuan": 7201,
      "zhongsheng": 7202,
      "zhongzheng": 7203,
      "zhongchan": 7204,
      "zhongtu": 7205,
      "zhongpai": 7206,
      "zhongjiang": 7207,
      "zhongfei": 7208,
      "zhongxun": 7209,
      "zhonggu": 7210,
      "zhongnan": 7211,
      "zhongcai": 7212,
      "zhongzhuan": 7213,
      "zhiheng": 7214,
      "zhiguo": 7215,
      "zhiti": 7216,
      "zhixiang": 7217,
      "zhiyong": 7218,
      "zhilun": 7219,
      "zhizhe": 7220,
      "zhibu": 7221,
      "zhidai": 7222,
      "zhijing": 7223,
      "zhiren": 7224,
      "zhigong": 7225,
      "zhizhang": 7226,
      "zhibi": 7227,
      "zhipin": 7228,
      "zhipai": 7229,
      "zhiqing": 7230,
      "zhinei": 7231,
      "zhishui": 7232,
      "zhifeng": 7233,
      "zhicai": 7234,
      "zhipian": 7235,
      "zhisong": 7236,
      "zairen": 7237,
      "zaipei": 7238,
      "##zhijian": 7239,
      "##zhidong": 7240,
      "##zhijin": 7241,
      "##zhilu": 7242,
      "##zhiqian": 7243,
      "he2": 7244,
      "he1": 7245,
      "heian": 7246,
      "heshi": 7247,
      "hewei": 7248,
      "hetong": 7249,
      "hejian": 7250,
      "hexiang": 7251,
      "hebu": 7252,
      "heju": 7253,
      "heri": 7254,
      "heguan": 7255,
      "heshang": 7256,
      "heqian": 7257,
      "hewai": 7258,
      "hema": 7259,
      "hehuo": 7260,
      "heshui": 7261,
      "hekuan": 7262,
      "hebote": 7263,
      "hehecheng": 7264,
      "youzhi": 7265,
      "youwei": 7266,
      "youshu": 7267,
      "youjiu": 7268,
      "youhao": 7269,
      "youju": 7270,
      "youlai": 7271,
      "youliang": 7272,
      "youdian": 7273,
      "youwan": 7274,
      "youpai": 7275,
      "##weishi": 7276,
      "##weiyou": 7277,
      "##weier": 7278,
      "##weiye": 7279,
      "##weizhan": 7280,
      "##weiwang": 7281,
      "##weihuan": 7282,
      "##hanmo": 7283,
      "##guoji": 7284,
      "##guolian": 7285,
      "##yulin": 7286,
      "yuxi": 7287,
      "yuguo": 7288,
      "yuyu": 7289,
      "yujian": 7290,
      "yuwen": 7291,
      "yuzhuang": 7292,
      "yugai": 7293,
      "yushui": 7294,
      "yuguang": 7295,
      "renan": 7296,
      "renjian": 7297,
      "renxin": 7298,
      "rennao": 7299,
      "renzhen": 7300,
      "rencai": 7301,
      "##qishi": 7302,
      "##qiwei": 7303,
      "##qishu": 7304,
      "##qifang": 7305,
      "##qigu": 7306,
      "weishu": 7307,
      "weicheng": 7308,
      "weixiang": 7309,
      "weifu": 7310,
      "weichang": 7311,
      "weici": 7312,
      "weike": 7313,
      "weiduo": 7314,
      "weita": 7315,
      "weijiao": 7316,
      "weihai": 7317,
      "weixiao": 7318,
      "weite": 7319,
      "weilie": 7320,
      "weimiao": 7321,
      "qixue": 7322,
      "qiyou": 7323,
      "qiwu": 7324,
      "qidao": 7325,
      "qici": 7326,
      "qixu": 7327,
      "qilei": 7328,
      "qiqiu": 7329,
      "qiting": 7330,
      "qibing": 7331,
      "qixuan": 7332,
      "qirui": 7333,
      "qieru": 7334,
      "##huifang": 7335,
      "##houn": 7336,
      "buyu": 7337,
      "buxing": 7338,
      "bufa": 7339,
      "buxie": 7340,
      "budeng": 7341,
      "bulie": 7342,
      "bugu": 7343,
      "bugui": 7344,
      "bulao": 7345,
      "buchong": 7346,
      "butie": 7347,
      "busin": 7348,
      "zhua": 7349,
      "zhushi": 7350,
      "zhunian": 7351,
      "zhuchu": 7352,
      "zhufu": 7353,
      "zhude": 7354,
      "zhujin": 7355,
      "zhuxu": 7356,
      "zhubi": 7357,
      "zhuzai": 7358,
      "zhuban": 7359,
      "zhusu": 7360,
      "zhushou": 7361,
      "zhewei": 7362,
      "zheshe": 7363,
      "sheqi": 7364,
      "kezhi": 7365,
      "kehou": 7366,
      "kesi": 7367,
      "kejie": 7368,
      "kezheng": 7369,
      "kexin": 7370,
      "kechi": 7371,
      "keceng": 7372,
      "kelao": 7373,
      "kelisi": 7374,
      "diu": 7375,
      "di3": 7376,
      "di4": 7377,
      "dixi": 7378,
      "dijian": 7379,
      "dijiu": 7380,
      "diyue": 7381,
      "diming": 7382,
      "dide": 7383,
      "diwen": 7384,
      "diguan": 7385,
      "disu": 7386,
      "dibian": 7387,
      "diwai": 7388,
      "dilian": 7389,
      "digu": 7390,
      "dizhen": 7391,
      "dideluo": 7392,
      "di29": 7393,
      "##tongjian": 7394,
      "yanhu": 7395,
      "yanli": 7396,
      "yanxing": 7397,
      "yanyong": 7398,
      "yandu": 7399,
      "yanke": 7400,
      "yanshe": 7401,
      "yanzhan": 7402,
      "yanlei": 7403,
      "yanjun": 7404,
      "yanchi": 7405,
      "yanse": 7406,
      "##tia": 7407,
      "##tik": 7408,
      "fali": 7409,
      "fashu": 7410,
      "faren": 7411,
      "faliang": 7412,
      "faduan": 7413,
      "fajue": 7414,
      "fagui": 7415,
      "fakan": 7416,
      "fakuan": 7417,
      "gongan": 7418,
      "gongjian": 7419,
      "gongyue": 7420,
      "gongdu": 7421,
      "gongshe": 7422,
      "gongqu": 7423,
      "gongfen": 7424,
      "gongdang": 7425,
      "gongqing": 7426,
      "gonggao": 7427,
      "gongzhen": 7428,
      "gongsun": 7429,
      "gongtang": 7430,
      "dag": 7431,
      "dati": 7432,
      "dajian": 7433,
      "dage": 7434,
      "daxie": 7435,
      "damen": 7436,
      "dada": 7437,
      "daxin": 7438,
      "dagong": 7439,
      "daban": 7440,
      "datu": 7441,
      "daqing": 7442,
      "daya": 7443,
      "dadan": 7444,
      "dagai": 7445,
      "dapei": 7446,
      "dapi": 7447,
      "dasha": 7448,
      "dakuai": 7449,
      "dalang": 7450,
      "datal": 7451,
      "dalou": 7452,
      "jingong": 7453,
      "jingxue": 7454,
      "jingxi": 7455,
      "jingti": 7456,
      "jingjian": 7457,
      "jingwu": 7458,
      "jingci": 7459,
      "jingtai": 7460,
      "jingxiao": 7461,
      "jingzhun": 7462,
      "chengxi": 7463,
      "chengxiang": 7464,
      "chengwen": 7465,
      "chengxiao": 7466,
      "chengdan": 7467,
      "chengchuan": 7468,
      "chengbang": 7469,
      "zhengui": 7470,
      "zhengwei": 7471,
      "zhenghao": 7472,
      "zhengjin": 7473,
      "zhengjiao": 7474,
      "zhenggu": 7475,
      "zhengtan": 7476,
      "##zhuxi": 7477,
      "##shushi": 7478,
      "##shukan": 7479,
      "chunian": 7480,
      "chuzhong": 7481,
      "chuqu": 7482,
      "chuxu": 7483,
      "chufen": 7484,
      "chufan": 7485,
      "chugu": 7486,
      "chushihua": 7487,
      "geo": 7488,
      "gejia": 7489,
      "geyuan": 7490,
      "gechu": 7491,
      "gebu": 7492,
      "geben": 7493,
      "gell": 7494,
      "gelao": 7495,
      "gewuzhi": 7496,
      "geaoer": 7497,
      "gezhixue": 7498,
      "##geshiji": 7499,
      "##geology": 7500,
      "shuxi": 7501,
      "shufa": 7502,
      "shudi": 7503,
      "shumu": 7504,
      "shuqing": 7505,
      "shubai": 7506,
      "shusan": 7507,
      "shusun": 7508,
      "shuku": 7509,
      "##jialai": 7510,
      "##jiabao": 7511,
      "jieli": 7512,
      "jieyi": 7513,
      "jiedu": 7514,
      "jiejing": 7515,
      "jieren": 7516,
      "jiela": 7517,
      "jiebao": 7518,
      "jieqia": 7519,
      "ziyan": 7520,
      "zici": 7521,
      "zidi": 7522,
      "zimian": 7523,
      "zibian": 7524,
      "zixuan": 7525,
      "##zhongyu": 7526,
      "##zhongyao": 7527,
      "##chengshi": 7528,
      "##xiangxing": 7529,
      "##xiangguan": 7530,
      "##youli": 7531,
      "##youyinli": 7532,
      "xingjian": 7533,
      "xingsheng": 7534,
      "xingguan": 7535,
      "xingsu": 7536,
      "xingbian": 7537,
      "xingqing": 7538,
      "wuyong": 7539,
      "wuzi": 7540,
      "wuru": 7541,
      "wude": 7542,
      "wujing": 7543,
      "wuren": 7544,
      "wubi": 7545,
      "wucha": 7546,
      "wushen": 7547,
      "wuxiao": 7548,
      "wumu": 7549,
      "wuxia": 7550,
      "wudeng": 7551,
      "wupei": 7552,
      "wupan": 7553,
      "wuzhengfu": 7554,
      "##chuo": 7555,
      "##huaji": 7556,
      "##huaren": 7557,
      "##huajiang": 7558,
      "erji": 7559,
      "erwei": 7560,
      "eryu": 7561,
      "eryue": 7562,
      "erbu": 7563,
      "ersheng": 7564,
      "erlei": 7565,
      "erban": 7566,
      "ershou": 7567,
      "eryanghua": 7568,
      "guoge": 7569,
      "guojie": 7570,
      "guochang": 7571,
      "guosheng": 7572,
      "guowen": 7573,
      "guochan": 7574,
      "guoku": 7575,
      "##faxue": 7576,
      "##zibing": 7577,
      "shangyong": 7578,
      "shangyan": 7579,
      "shangliang": 7580,
      "shangying": 7581,
      "shangqian": 7582,
      "shangwang": 7583,
      "shangxia": 7584,
      "shanghen": 7585,
      "shanggeshiji": 7586,
      "##yuehan": 7587,
      "##yueqi": 7588,
      "yinhan": 7589,
      "yinxing": 7590,
      "yinyuan": 7591,
      "yinbi": 7592,
      "yinxiao": 7593,
      "yinmu": 7594,
      "yinqing": 7595,
      "yinbing": 7596,
      "yanjiuguo": 7597,
      "yanjiuguang": 7598,
      "yanjiuchun": 7599,
      "huoyun": 7600,
      "xiangwei": 7601,
      "xiangyu": 7602,
      "xiangzhu": 7603,
      "xiangshu": 7604,
      "xiangjia": 7605,
      "xiangshang": 7606,
      "xiangtu": 7607,
      "xiangcha": 7608,
      "xiangshou": 7609,
      "xiangdeng": 7610,
      "xiangcun": 7611,
      "xiangzhuang": 7612,
      "xiangchuan": 7613,
      "xiangzhen": 7614,
      "xiangku": 7615,
      "tongyu": 7616,
      "tongyuan": 7617,
      "tonglun": 7618,
      "tongban": 7619,
      "tonggui": 7620,
      "tongku": 7621,
      "tongpi": 7622,
      "duiwu": 7623,
      "duizheng": 7624,
      "duifang": 7625,
      "duinei": 7626,
      "tachu": 7627,
      "taer": 7628,
      "taru": 7629,
      "##eryu": 7630,
      "##erchu": 7631,
      "##erzhe": 7632,
      "##erfu": 7633,
      "##erwen": 7634,
      "##erchi": 7635,
      "##erxia": 7636,
      "##erman": 7637,
      "##ersen": 7638,
      "##eration": 7639,
      "##erlasi": 7640,
      "##erjiya": 7641,
      "##ermengde": 7642,
      "##erno": 7643,
      "##eryouli": 7644,
      "beiou": 7645,
      "beishe": 7646,
      "beida": 7647,
      "beishou": 7648,
      "beiwang": 7649,
      "beiping": 7650,
      "beifei": 7651,
      "beibing": 7652,
      "beixuan": 7653,
      "beixiju": 7654,
      "jinuo": 7655,
      "jinji": 7656,
      "jinyi": 7657,
      "jinzhu": 7658,
      "jinyong": 7659,
      "jinye": 7660,
      "jinshen": 7661,
      "jinpu": 7662,
      "jinzhuan": 7663,
      "jincui": 7664,
      "jinkui": 7665,
      "wenhe": 7666,
      "wenshu": 7667,
      "wenzhong": 7668,
      "wenfa": 7669,
      "wenren": 7670,
      "wenwen": 7671,
      "wenlai": 7672,
      "wennuan": 7673,
      "wenjiabao": 7674,
      "##sibi": 7675,
      "##sima": 7676,
      "##siluo": 7677,
      "##siku": 7678,
      "##sika": 7679,
      "##siona": 7680,
      "guyi": 7681,
      "guyu": 7682,
      "gujia": 7683,
      "guyuan": 7684,
      "gudong": 7685,
      "guju": 7686,
      "gudu": 7687,
      "guci": 7688,
      "gushou": 7689,
      "gutai": 7690,
      "gufei": 7691,
      "xinei": 7692,
      "xinshi": 7693,
      "xinhan": 7694,
      "xinjian": 7695,
      "xinjin": 7696,
      "xinqu": 7697,
      "xintai": 7698,
      "xinbai": 7699,
      "xinbao": 7700,
      "xianhe": 7701,
      "xianji": 7702,
      "xianqi": 7703,
      "xiancheng": 7704,
      "xianchu": 7705,
      "xianren": 7706,
      "xianzheng": 7707,
      "xianzu": 7708,
      "xianlu": 7709,
      "xianshui": 7710,
      "xiannv": 7711,
      "xianlilun": 7712,
      "xianeryi": 7713,
      "xianjieduan": 7714,
      "yingyou": 7715,
      "yingjie": 7716,
      "yingyang": 7717,
      "yingmu": 7718,
      "yingbai": 7719,
      "yinghuo": 7720,
      "yingyun": 7721,
      "fenshu": 7722,
      "fenxiang": 7723,
      "fenye": 7724,
      "fenbian": 7725,
      "fenshui": 7726,
      "yeti": 7727,
      "yesheng": 7728,
      "yejin": 7729,
      "yexu": 7730,
      "yesu": 7731,
      "yekong": 7732,
      "huli": 7733,
      "hucheng": 7734,
      "husheng": 7735,
      "hudu": 7736,
      "hujing": 7737,
      "hukou": 7738,
      "hushui": 7739,
      "##wuyi": 7740,
      "##wusheng": 7741,
      "##wude": 7742,
      "binghe": 7743,
      "bingshi": 7744,
      "bingqi": 7745,
      "bingzhong": 7746,
      "bingxie": 7747,
      "bingju": 7748,
      "bingru": 7749,
      "bingdu": 7750,
      "binggong": 7751,
      "binggou": 7752,
      "bingbian": 7753,
      "bingtai": 7754,
      "bingcun": 7755,
      "binghuan": 7756,
      "bingkuai": 7757,
      "xueji": 7758,
      "xueqi": 7759,
      "xuezhu": 7760,
      "xueyou": 7761,
      "xuehua": 7762,
      "xueming": 7763,
      "xuelai": 7764,
      "xuequ": 7765,
      "xuetu": 7766,
      "xuefei": 7767,
      "xuechao": 7768,
      "sunxue": 7769,
      "sunli": 7770,
      "sunxing": 7771,
      "sunshu": 7772,
      "sunjia": 7773,
      "sunyuan": 7774,
      "sunhao": 7775,
      "sunxian": 7776,
      "sunyan": 7777,
      "sunzuo": 7778,
      "sunshe": 7779,
      "sunzu": 7780,
      "sunjin": 7781,
      "sunying": 7782,
      "sunqiu": 7783,
      "sunyin": 7784,
      "sunfeng": 7785,
      "sunzhuan": 7786,
      "sunmiao": 7787,
      "sunsui": 7788,
      "sunkaishi": 7789,
      "sunhenghui": 7790,
      "dengzai": 7791,
      "dengshang": 7792,
      "dengyin": 7793,
      "dengzeru": 7794,
      "guanhua": 7795,
      "guanzi": 7796,
      "guanying": 7797,
      "guanshang": 7798,
      "guanjun": 7799,
      "guanbing": 7800,
      "guankong": 7801,
      "guanche": 7802,
      "shehuixing": 7803,
      "##bulu": 7804,
      "##buduan": 7805,
      "##bujue": 7806,
      "##buxiu": 7807,
      "##jiegou": 7808,
      "##xieer": 7809,
      "##mingtang": 7810,
      "##fuka": 7811,
      "##dongni": 7812,
      "shengge": 7813,
      "shengchang": 7814,
      "shengdi": 7815,
      "shengban": 7816,
      "shengxiao": 7817,
      "shengxia": 7818,
      "shenghuifang": 7819,
      "##juquan": 7820,
      "1900": 7821,
      "baoshi": 7822,
      "baoyu": 7823,
      "baoyou": 7824,
      "baolu": 7825,
      "baoshou": 7826,
      "baojun": 7827,
      "baomi": 7828,
      "baobao": 7829,
      "fangai": 7830,
      "fangyu": 7831,
      "fangwu": 7832,
      "fangren": 7833,
      "fangke": 7834,
      "fangcha": 7835,
      "fangfan": 7836,
      "fangtan": 7837,
      "fangsong": 7838,
      "##yanyuan": 7839,
      "##yanren": 7840,
      "##shengji": 7841,
      "##shengyu": 7842,
      "##shengdun": 7843,
      "jianhu": 7844,
      "jianxing": 7845,
      "jianshu": 7846,
      "jiandi": 7847,
      "jianbian": 7848,
      "jiandui": 7849,
      "jianbie": 7850,
      "jianqing": 7851,
      "jianmo": 7852,
      "jiankong": 7853,
      "jianeier": 7854,
      "##zuozheng": 7855,
      "##zuofei": 7856,
      "zuoxing": 7857,
      "huixiang": 7858,
      "huihua": 7859,
      "huifa": 7860,
      "huisheng": 7861,
      "huizu": 7862,
      "huizhang": 7863,
      "huisu": 7864,
      "huite": 7865,
      "huikuan": 7866,
      "huikui": 7867,
      "huihuai": 7868,
      "huimie": 7869,
      "##ruhe": 7870,
      "tixing": 7871,
      "tiqi": 7872,
      "tifa": 7873,
      "tizheng": 7874,
      "tihuan": 7875,
      "time": 7876,
      "tianguo": 7877,
      "tivo": 7878,
      "tiangong": 7879,
      "##daolv": 7880,
      "##daoqu": 7881,
      "suoyin": 7882,
      "##ded": 7883,
      "##dewei": 7884,
      "##delei": 7885,
      "##dehai": 7886,
      "##degang": 7887,
      "##dezhuyizhe": 7888,
      "##delaishuo": 7889,
      "##duct": 7890,
      "##jingti": 7891,
      "fud": 7892,
      "fur": 7893,
      "fuqi": 7894,
      "fuge": 7895,
      "fuhua": 7896,
      "fufu": 7897,
      "fudai": 7898,
      "fudu": 7899,
      "fuyao": 7900,
      "fuye": 7901,
      "fuyang": 7902,
      "fuwen": 7903,
      "fujue": 7904,
      "fufei": 7905,
      "fuse": 7906,
      "fuchuan": 7907,
      "fusun": 7908,
      "fuqiang": 7909,
      "fulanke": 7910,
      "yuanxi": 7911,
      "yuanchu": 7912,
      "yuanbu": 7913,
      "yuansheng": 7914,
      "yuanjing": 7915,
      "yuanzheng": 7916,
      "yuanbi": 7917,
      "yuanmo": 7918,
      "yuanchao": 7919,
      "yuanpei": 7920,
      "jingjishi": 7921,
      "meishu": 7922,
      "meiguan": 7923,
      "meidang": 7924,
      "meitian": 7925,
      "meimei": 7926,
      "meitan": 7927,
      "meinade": 7928,
      "##renlun": 7929,
      "##cil": 7930,
      "##ciji": 7931,
      "##keji": 7932,
      "##keshi": 7933,
      "##kefu": 7934,
      "jiaqi": 7935,
      "jiazhu": 7936,
      "jiaju": 7937,
      "jiajing": 7938,
      "jiaci": 7939,
      "jiashen": 7940,
      "jiagu": 7941,
      "jiachuan": 7942,
      "danzi": 7943,
      "danfang": 7944,
      "dandang": 7945,
      "danxia": 7946,
      "danche": 7947,
      "lingli": 7948,
      "lingzhang": 7949,
      "lingdang": 7950,
      "lingshou": 7951,
      "lingmu": 7952,
      "linggan": 7953,
      "##mental": 7954,
      "##menclatu": 7955,
      "dianchang": 7956,
      "diansheng": 7957,
      "dianwen": 7958,
      "dianwang": 7959,
      "dianbao": 7960,
      "diansun": 7961,
      "dianruo": 7962,
      "dianjingti": 7963,
      "##benni": 7964,
      "zuixing": 7965,
      "##rical": 7966,
      "##duowan": 7967,
      "siji": 7968,
      "sishi": 7969,
      "sixi": 7970,
      "sizhe": 7971,
      "sihao": 7972,
      "sike": 7973,
      "sifang": 7974,
      "siqu": 7975,
      "siling": 7976,
      "site": 7977,
      "siyin": 7978,
      "siku": 7979,
      "sichou": 7980,
      "sifenzhiyi": 7981,
      "simoer": 7982,
      "sidegeer": 7983,
      "204": 7984,
      "20duo": 7985,
      "20niandai": 7986,
      "jianghu": 7987,
      "jiangshi": 7988,
      "jiangli": 7989,
      "jiangzhi": 7990,
      "jiangfu": 7991,
      "jiangdao": 7992,
      "jiangwen": 7993,
      "jiangling": 7994,
      "jiangze": 7995,
      "jiangwang": 7996,
      "jiangpai": 7997,
      "##zhengzhuyi": 7998,
      "bit": 7999,
      "bihui": 8000,
      "bizhong": 8001,
      "bier": 8002,
      "biyan": 8003,
      "bijing": 8004,
      "bimen": 8005,
      "biding": 8006,
      "bizu": 8007,
      "bijin": 8008,
      "bilei": 8009,
      "bibei": 8010,
      "bidui": 8011,
      "biduan": 8012,
      "bizhao": 8013,
      "bixiu": 8014,
      "bideluo": 8015,
      "jiaofu": 8016,
      "jiaolv": 8017,
      "jiaoda": 8018,
      "jiaogong": 8019,
      "jiaota": 8020,
      "jiaotu": 8021,
      "jiaogei": 8022,
      "bianli": 8023,
      "bianzi": 8024,
      "bianhao": 8025,
      "bianjing": 8026,
      "bianhai": 8027,
      "bianlie": 8028,
      "xujia": 8029,
      "xulun": 8030,
      "xuzhou": 8031,
      "xushen": 8032,
      "##yangjie": 8033,
      "kaicheng": 8034,
      "kaimu": 8035,
      "kaituo": 8036,
      "kaicai": 8037,
      "kaiken": 8038,
      "kaierwen": 8039,
      "daoju": 8040,
      "daodan": 8041,
      "kexuelun": 8042,
      "kexuejie": 8043,
      "lilunjie": 8044,
      "yigege": 8045,
      "##wenxiang": 8046,
      "##laier": 8047,
      "##liangwei": 8048,
      "cinian": 8049,
      "ciyuan": 8050,
      "cichu": 8051,
      "cidai": 8052,
      "ciyao": 8053,
      "cici": 8054,
      "cixu": 8055,
      "cisha": 8056,
      "lailin": 8057,
      "##dal": 8058,
      "##dalin": 8059,
      "##jinyu": 8060,
      "##jinyao": 8061,
      "##jinsen": 8062,
      "minge": 8063,
      "mingong": 8064,
      "mingxue": 8065,
      "mingxiang": 8066,
      "mingfa": 8067,
      "mingbu": 8068,
      "mingwang": 8069,
      "yongxian": 8070,
      "yongxu": 8071,
      "yongdian": 8072,
      "yongle": 8073,
      "yongbing": 8074,
      "yongshui": 8075,
      "yongfengjian": 8076,
      "neiyin": 8077,
      "neitian": 8078,
      "dangyi": 8079,
      "dangcheng": 8080,
      "dangchu": 8081,
      "dangzheng": 8082,
      "dangzhang": 8083,
      "dangxuan": 8084,
      "shouhui": 8085,
      "shouke": 8086,
      "shouqu": 8087,
      "shouzhang": 8088,
      "shouce": 8089,
      "shoubei": 8090,
      "shoulie": 8091,
      "shoulian": 8092,
      "shougao": 8093,
      "shoukuan": 8094,
      "gaiyou": 8095,
      "gaixie": 8096,
      "gaiming": 8097,
      "gaidang": 8098,
      "gaijiang": 8099,
      "gaizhuang": 8100,
      "juzhi": 8101,
      "juyu": 8102,
      "juci": 8103,
      "juduo": 8104,
      "juguan": 8105,
      "jule": 8106,
      "jubao": 8107,
      "##haian": 8108,
      "##dicine": 8109,
      "jiuji": 8110,
      "jiuyi": 8111,
      "jiuge": 8112,
      "jiuyuan": 8113,
      "jiuhao": 8114,
      "jiusuan": 8115,
      "jiulu": 8116,
      "rudang": 8117,
      "rumeng": 8118,
      "minzhi": 8119,
      "minzhe": 8120,
      "minzheng": 8121,
      "minbing": 8122,
      "mintuan": 8123,
      "##leiwuju": 8124,
      "quyi": 8125,
      "quzhi": 8126,
      "##rand": 8127,
      "##xinli": 8128,
      "##xinjiang": 8129,
      "fanan": 8130,
      "fanji": 8131,
      "fanhan": 8132,
      "fanyu": 8133,
      "fanshu": 8134,
      "fanzhong": 8135,
      "fandong": 8136,
      "fanju": 8137,
      "fansu": 8138,
      "fanbo": 8139,
      "fansuo": 8140,
      "fantian": 8141,
      "fankui": 8142,
      "fanmang": 8143,
      "haier": 8144,
      "hailu": 8145,
      "##dianying": 8146,
      "##tag": 8147,
      "##tage": 8148,
      "##tazhou": 8149,
      "##tative": 8150,
      "chanming": 8151,
      "chanke": 8152,
      "zuai": 8153,
      "zuji": 8154,
      "zuxue": 8155,
      "shenli": 8156,
      "shenxing": 8157,
      "shenhui": 8158,
      "shenzhu": 8159,
      "shenxiang": 8160,
      "shenzhe": 8161,
      "shensi": 8162,
      "shendao": 8163,
      "shending": 8164,
      "shenxin": 8165,
      "shenkuo": 8166,
      "shenshen": 8167,
      "shenceng": 8168,
      "zongji": 8169,
      "zongci": 8170,
      "zongchan": 8171,
      "zonglu": 8172,
      "zongshui": 8173,
      "zongeryan": 8174,
      "zongduer": 8175,
      "zongdelaishuo": 8176,
      "##ced": 8177,
      "congbu": 8178,
      "congye": 8179,
      "conggu": 8180,
      "##bia": 8181,
      "##biang": 8182,
      "##bile": 8183,
      "houzi": 8184,
      "houdai": 8185,
      "liangong": 8186,
      "liangshi": 8187,
      "liangjie": 8188,
      "liangdan": 8189,
      "shiyongzhuyi": 8190,
      "huali": 8191,
      "huawei": 8192,
      "huaguo": 8193,
      "huaxing": 8194,
      "huazhong": 8195,
      "huayuan": 8196,
      "hualun": 8197,
      "huajie": 8198,
      "huagong": 8199,
      "huabei": 8200,
      "huaxia": 8201,
      "huashengdun": 8202,
      "guangai": 8203,
      "guangyu": 8204,
      "guangxu": 8205,
      "guangdian": 8206,
      "guangqiu": 8207,
      "guangkuo": 8208,
      "guangxia": 8209,
      "xiaodu": 8210,
      "xiaofang": 8211,
      "xiaoxin": 8212,
      "##zhouwei": 8213,
      "##shanda": 8214,
      "##shanshanmai": 8215,
      "qingjian": 8216,
      "qingdao": 8217,
      "qingren": 8218,
      "qingshan": 8219,
      "qinghai": 8220,
      "qingmo": 8221,
      "qingbao": 8222,
      "qingsong": 8223,
      "fazhanshi": 8224,
      "fazhanzhongguo": 8225,
      "changxi": 8226,
      "changwei": 8227,
      "changshu": 8228,
      "changge": 8229,
      "changjing": 8230,
      "changzu": 8231,
      "changdi": 8232,
      "changtu": 8233,
      "changbei": 8234,
      "changtan": 8235,
      "changsha": 8236,
      "yunji": 8237,
      "yuncang": 8238,
      "yunnuo": 8239,
      "xiahua": 8240,
      "xiaban": 8241,
      "xiatai": 8242,
      "xiaxun": 8243,
      "xialie": 8244,
      "xiashui": 8245,
      "nengdong": 8246,
      "##dangran": 8247,
      "zhengzhiju": 8248,
      "##jiaohu": 8249,
      "duoda": 8250,
      "duobian": 8251,
      "duolizi": 8252,
      "duodezhuyizhe": 8253,
      "zhuanshu": 8254,
      "zhuanyong": 8255,
      "zhuanzhe": 8256,
      "zhuanchang": 8257,
      "zhuanru": 8258,
      "zhuanke": 8259,
      "zhuanfang": 8260,
      "zhuanqian": 8261,
      "daizhi": 8262,
      "daifu": 8263,
      "daizu": 8264,
      "dailing": 8265,
      "daishuji": 8266,
      "caiyuan": 8267,
      "caifa": 8268,
      "caifen": 8269,
      "caice": 8270,
      "caijun": 8271,
      "##lum": 8272,
      "lishiguan": 8273,
      "lishizhen": 8274,
      "lishiduode": 8275,
      "gengzi": 8276,
      "##suse": 8277,
      "jisuanqi": 8278,
      "tea": 8279,
      "tequ": 8280,
      "tekan": 8281,
      "caokun": 8282,
      "##lafu": 8283,
      "##labang": 8284,
      "zaozhi": 8285,
      "zaosheng": 8286,
      "zaori": 8287,
      "zaoyin": 8288,
      "tianbu": 8289,
      "tiandi": 8290,
      "tianxia": 8291,
      "tianchun": 8292,
      "zhengfujun": 8293,
      "##tusi": 8294,
      "##tuliang": 8295,
      "##tupai": 8296,
      "qianli": 8297,
      "qianzhi": 8298,
      "qianzhan": 8299,
      "qianqiu": 8300,
      "qianze": 8301,
      "qiansuo": 8302,
      "zhexuexing": 8303,
      "dongyi": 8304,
      "dongjian": 8305,
      "dongjie": 8306,
      "dongliang": 8307,
      "dongzhou": 8308,
      "dongjiang": 8309,
      "dongyixue": 8310,
      "yaoji": 8311,
      "yaoshi": 8312,
      "yaoxue": 8313,
      "yaofa": 8314,
      "yaoju": 8315,
      "yaome": 8316,
      "yaolve": 8317,
      "yaogun": 8318,
      "yueli": 8319,
      "yueyu": 8320,
      "yuequ": 8321,
      "yuebei": 8322,
      "yueting": 8323,
      "biaoge": 8324,
      "biaoyang": 8325,
      "dingyu": 8326,
      "dingxiang": 8327,
      "quanxian": 8328,
      "quanxia": 8329,
      "quanceng": 8330,
      "quanpan": 8331,
      "guojiazhuxi": 8332,
      "gaozhi": 8333,
      "gaoguo": 8334,
      "gaosi": 8335,
      "gaojie": 8336,
      "gaoming": 8337,
      "gaodi": 8338,
      "gaotai": 8339,
      "gaobie": 8340,
      "gaoya": 8341,
      "gaoerjiya": 8342,
      "gaokeji": 8343,
      "monian": 8344,
      "mode": 8345,
      "mofang": 8346,
      "mofan": 8347,
      "moell": 8348,
      "mosike": 8349,
      "mobile": 8350,
      "pingshi": 8351,
      "pingju": 8352,
      "pingxin": 8353,
      "pingshen": 8354,
      "pingfan": 8355,
      "pingluan": 8356,
      "2016": 8357,
      "riji": 8358,
      "rizhi": 8359,
      "riye": 8360,
      "rizhao": 8361,
      "risun": 8362,
      "rich": 8363,
      "taixi": 8364,
      "taishang": 8365,
      "taiyishu": 8366,
      "shuxuehua": 8367,
      "suixuan": 8368,
      "##beilun": 8369,
      "anxing": 8370,
      "anti": 8371,
      "andi": 8372,
      "anqing": 8373,
      "annan": 8374,
      "andongni": 8375,
      "minzuzhi": 8376,
      "jueze": 8377,
      "juelie": 8378,
      "junyu": 8379,
      "junqi": 8380,
      "##shouru": 8381,
      "##shoudao": 8382,
      "##mac": 8383,
      "##make": 8384,
      "##mazhou": 8385,
      "xuanji": 8386,
      "xuanxue": 8387,
      "xuanshu": 8388,
      "xuanxiang": 8389,
      "xuanzhan": 8390,
      "xuanlv": 8391,
      "xuanmin": 8392,
      "xuanbi": 8393,
      "xuanshou": 8394,
      "feihang": 8395,
      "feizhu": 8396,
      "feifa": 8397,
      "feiwu": 8398,
      "feiren": 8399,
      "feiliao": 8400,
      "feichuan": 8401,
      "feituo": 8402,
      "feishui": 8403,
      "feitan": 8404,
      "feiqin": 8405,
      "feizhengfu": 8406,
      "feimie": 8407,
      "feignu": 8408,
      "feixianxing": 8409,
      "heneng": 8410,
      "wanweiwang": 8411,
      "wanyouyinli": 8412,
      "wangong": 8413,
      "wangshu": 8414,
      "wangdao": 8415,
      "wangzhao": 8416,
      "1844nian": 8417,
      "huanhe": 8418,
      "huanwei": 8419,
      "huancheng": 8420,
      "huanyanzhi": 8421,
      "hanliang": 8422,
      "hanfang": 8423,
      "hanmierdun": 8424,
      "muxing": 8425,
      "muhou": 8426,
      "muye": 8427,
      "muxiao": 8428,
      "music": 8429,
      "muhanmo": 8430,
      "sanyue": 8431,
      "sanhao": 8432,
      "sandian": 8433,
      "sanzhou": 8434,
      "sanbai": 8435,
      "sanweiyi": 8436,
      "sanjieduan": 8437,
      "sanfanshi": 8438,
      "zhanxing": 8439,
      "zhanshu": 8440,
      "zhanchu": 8441,
      "zhanshou": 8442,
      "chuanqi": 8443,
      "chuandao": 8444,
      "chuanlai": 8445,
      "chuansong": 8446,
      "bank": 8447,
      "banjing": 8448,
      "banku": 8449,
      "bankuai": 8450,
      "bandula": 8451,
      "banshichu": 8452,
      "##xiaoyu": 8453,
      "zhencheng": 8454,
      "zhende": 8455,
      "zhenci": 8456,
      "zhenfen": 8457,
      "zhendang": 8458,
      "zhenliao": 8459,
      "shuocheng": 8460,
      "shuofu": 8461,
      "kongyu": 8462,
      "kongdong": 8463,
      "kongqian": 8464,
      "kongjun": 8465,
      "kongshoudao": 8466,
      "ziyoudu": 8467,
      "renleishi": 8468,
      "renleixuejia": 8469,
      "xiecheng": 8470,
      "xiedai": 8471,
      "xiezheng": 8472,
      "xielin": 8473,
      "##telei": 8474,
      "##tela": 8475,
      "##junwu": 8476,
      "mar": 8477,
      "maʔ": 8478,
      "mazu": 8479,
      "machi": 8480,
      "maya": 8481,
      "madou": 8482,
      "majiya": 8483,
      "mart": 8484,
      "masiluo": 8485,
      "maxieer": 8486,
      "makeshi": 8487,
      "majunwu": 8488,
      "##wangxing": 8489,
      "guiji": 8490,
      "guixi": 8491,
      "guijie": 8492,
      "guiju": 8493,
      "guiru": 8494,
      "guiguan": 8495,
      "guigong": 8496,
      "guibi": 8497,
      "guijun": 8498,
      "guilin": 8499,
      "liufa": 8500,
      "liuwan": 8501,
      "liuceng": 8502,
      "nianxing": 8503,
      "nianbiao": 8504,
      "nianxia": 8505,
      "niannei": 8506,
      "niantou": 8507,
      "boai": 8508,
      "boji": 8509,
      "boyi": 8510,
      "bohan": 8511,
      "bohui": 8512,
      "bozhe": 8513,
      "bowu": 8514,
      "bochi": 8515,
      "boluo": 8516,
      "boot": 8517,
      "bowuyuan": 8518,
      "##ley": 8519,
      "##luohe": 8520,
      "##luotai": 8521,
      "##wanwu": 8522,
      "##wanshui": 8523,
      "chaoshi": 8524,
      "chaoxi": 8525,
      "chaoye": 8526,
      "chaozhou": 8527,
      "chaoting": 8528,
      "chaogao": 8529,
      "chaoziran": 8530,
      "chaoxiaoyu": 8531,
      "##bos": 8532,
      "##boli": 8533,
      "##bolatu": 8534,
      "benji": 8535,
      "benyi": 8536,
      "benshu": 8537,
      "benjie": 8538,
      "benke": 8539,
      "benmo": 8540,
      "benshiji": 8541,
      "benzou": 8542,
      "tuxue": 8543,
      "tuxian": 8544,
      "tumu": 8545,
      "tujue": 8546,
      "fenxixuejia": 8547,
      "cundang": 8548,
      "cunkuan": 8549,
      "fengxing": 8550,
      "fengjian": 8551,
      "fengke": 8552,
      "fengjin": 8553,
      "fengre": 8554,
      "fengsun": 8555,
      "waizi": 8556,
      "waiduan": 8557,
      "wailiu": 8558,
      "waihuan": 8559,
      "##musen": 8560,
      "##musiji": 8561,
      "bahu": 8562,
      "bafa": 8563,
      "bake": 8564,
      "bagong": 8565,
      "bala": 8566,
      "bagang": 8567,
      "baguolian": 8568,
      "baleiwuju": 8569,
      "touxian": 8570,
      "toushe": 8571,
      "touguang": 8572,
      "duyou": 8573,
      "dusheng": 8574,
      "duqu": 8575,
      "duzou": 8576,
      "dushihua": 8577,
      "liane": 8578,
      "lianxing": 8579,
      "jiegouzhuyizhe": 8580,
      "chuangei": 8581,
      "chuangzhi": 8582,
      "chuangzhong": 8583,
      "ruanjianbao": 8584,
      "tanyue": 8585,
      "tankan": 8586,
      "tanzang": 8587,
      "mouyang": 8588,
      "mouqiu": 8589,
      "nanxi": 8590,
      "nandu": 8591,
      "nanyang": 8592,
      "nanfei": 8593,
      "nanya": 8594,
      "nanchao": 8595,
      "nansong": 8596,
      "nannv": 8597,
      "nanqishu": 8598,
      "xingweizhe": 8599,
      "guanxiu": 8600,
      "guanxia": 8601,
      "yinyuexue": 8602,
      "yinyuejie": 8603,
      "yinyueju": 8604,
      "yinyueting": 8605,
      "102": 8606,
      "104": 8607,
      "106": 8608,
      "10wan": 8609,
      "lunshi": 8610,
      "lunzhan": 8611,
      "lunchuan": 8612,
      "##xiazi": 8613,
      "mid": 8614,
      "mibu": 8615,
      "mixie": 8616,
      "mide": 8617,
      "miyao": 8618,
      "milei": 8619,
      "mimou": 8620,
      "zengjian": 8621,
      "zengliang": 8622,
      "zengda": 8623,
      "zengsong": 8624,
      "zengqiang": 8625,
      "zengzufu": 8626,
      "tuiyan": 8627,
      "tuijin": 8628,
      "tuice": 8629,
      "tuishou": 8630,
      "tuixiu": 8631,
      "quedu": 8632,
      "queqie": 8633,
      "shejishi": 8634,
      "woxiang": 8635,
      "leishu": 8636,
      "leibie": 8637,
      "leilang": 8638,
      "leiweiqi": 8639,
      "tiaodong": 8640,
      "tiaokong": 8641,
      "zhongyibu": 8642,
      "zhongyixuejia": 8643,
      "nas": 8644,
      "nahui": 8645,
      "nalai": 8646,
      "naduan": 8647,
      "natur": 8648,
      "naur": 8649,
      "kendi": 8650,
      "zhangxiong": 8651,
      "zhangnv": 8652,
      "zhanghushu": 8653,
      "zhangxueliang": 8654,
      "zhangzhidong": 8655,
      "zhangwenxiang": 8656,
      "zhangliangwei": 8657,
      "suqu": 8658,
      "suqiu": 8659,
      "sujiao": 8660,
      "sucai": 8661,
      "susong": 8662,
      "subje": 8663,
      "susiman": 8664,
      "ziranshu": 8665,
      "ziranfa": 8666,
      "nongdu": 8667,
      "nongyao": 8668,
      "nongzhuang": 8669,
      "genian": 8670,
      "genus": 8671,
      "##miai": 8672,
      "##mide": 8673,
      "##miliu": 8674,
      "##manren": 8675,
      "shuixing": 8676,
      "shuidao": 8677,
      "shuiquan": 8678,
      "jishuxing": 8679,
      "wulixuezhi": 8680,
      "wulixuejia": 8681,
      "2002": 8682,
      "2003": 8683,
      "tuoxian": 8684,
      "tuoye": 8685,
      "tuoguan": 8686,
      "tuopu": 8687,
      "xunhang": 8688,
      "xunhui": 8689,
      "xunwen": 8690,
      "xunchi": 8691,
      "pushi": 8692,
      "puyi": 8693,
      "puming": 8694,
      "pudong": 8695,
      "pulin": 8696,
      "puluotai": 8697,
      "##feilei": 8698,
      "##feierde": 8699,
      "yundongxue": 8700,
      "yazhi": 8701,
      "yage": 8702,
      "yazhong": 8703,
      "yamen": 8704,
      "yadi": 8705,
      "yalu": 8706,
      "yate": 8707,
      "yaredai": 8708,
      "##liushi": 8709,
      "##liuchang": 8710,
      "##baijia": 8711,
      "##bairi": 8712,
      "luqu": 8713,
      "lusuo": 8714,
      "luxun": 8715,
      "luxiangji": 8716,
      "lukasi": 8717,
      "ludewei": 8718,
      "lumiai": 8719,
      "qiangxie": 8720,
      "qiangzhan": 8721,
      "qiangying": 8722,
      "qiangpo": 8723,
      "qiangeryouli": 8724,
      "##lied": 8725,
      "pie": 8726,
      "piqi": 8727,
      "pier": 8728,
      "piye": 8729,
      "pici": 8730,
      "pica": 8731,
      "piyajie": 8732,
      "piaier": 8733,
      "chongqi": 8734,
      "chongshang": 8735,
      "wenxueshe": 8736,
      "linjin": 8737,
      "lindi": 8738,
      "linmu": 8739,
      "##nie": 8740,
      "##nide": 8741,
      "huanghe": 8742,
      "huangshi": 8743,
      "huangyou": 8744,
      "huangtu": 8745,
      "huangse": 8746,
      "huangmingtang": 8747,
      "chengshihua": 8748,
      "yibaneryan": 8749,
      "yibanlaishuo": 8750,
      "cano": 8751,
      "canhou": 8752,
      "canshu": 8753,
      "canhai": 8754,
      "canjun": 8755,
      "canzhao": 8756,
      "ganai": 8757,
      "ganhan": 8758,
      "ganxing": 8759,
      "ganfu": 8760,
      "gandong": 8761,
      "ganmao": 8762,
      "zhishilun": 8763,
      "tongyiti": 8764,
      "tongyilun": 8765,
      "guominxing": 8766,
      "taotai": 8767,
      "taohongjing": 8768,
      "yangai": 8769,
      "yangdu": 8770,
      "yangren": 8771,
      "yangsan": 8772,
      "yangmao": 8773,
      "yangshukan": 8774,
      "luoyi": 8775,
      "luoti": 8776,
      "luojie": 8777,
      "luonade": 8778,
      "luoxinjiang": 8779,
      "suoyouren": 8780,
      "celu": 8781,
      "ceping": 8782,
      "cezhongyu": 8783,
      "hengduan": 8784,
      "zhaoshi": 8785,
      "zhaosheng": 8786,
      "zhaoshang": 8787,
      "zhaomu": 8788,
      "zhaoxiangji": 8789,
      "xijuxing": 8790,
      "xijujia": 8791,
      "1997": 8792,
      "1998nian": 8793,
      "laoli": 8794,
      "laolun": 8795,
      "laoren": 8796,
      "laoban": 8797,
      "nike": 8798,
      "nipo": 8799,
      "nizhuan": 8800,
      "nirenlun": 8801,
      "zhezhongxinli": 8802,
      "##tiancun": 8803,
      "111": 8804,
      "chize": 8805,
      "chichi": 8806,
      "childe": 8807,
      "chidaoqu": 8808,
      "huodongjia": 8809,
      "paiyuan": 8810,
      "paihua": 8811,
      "paisheng": 8812,
      "paixu": 8813,
      "paibie": 8814,
      "miaozu": 8815,
      "miaomo": 8816,
      "miaozhun": 8817,
      "ransu": 8818,
      "randy": 8819,
      "##ons": 8820,
      "##onomi": 8821,
      "jiaoyuzhe": 8822,
      "mianshi": 8823,
      "mianyi": 8824,
      "mianyu": 8825,
      "miancheng": 8826,
      "miantan": 8827,
      "mianqiang": 8828,
      "maosi": 8829,
      "ouji": 8830,
      "ouran": 8831,
      "oulu": 8832,
      "oumeng": 8833,
      "yizhizhuyi": 8834,
      "##zhuangwu": 8835,
      "faxueshi": 8836,
      "ref": 8837,
      "rexin": 8838,
      "relie": 8839,
      "revo": 8840,
      "regi": 8841,
      "zhouli": 8842,
      "zhoudai": 8843,
      "zhoudao": 8844,
      "zhouchao": 8845,
      "zhouenlai": 8846,
      "##dunjie": 8847,
      "kanwu": 8848,
      "kanlai": 8849,
      "kancha": 8850,
      "kandeng": 8851,
      "kansasi": 8852,
      "kaneiman": 8853,
      "aier": 8854,
      "ailisi": 8855,
      "aidaohui": 8856,
      "aizibing": 8857,
      "aisiku": 8858,
      "##put": 8859,
      "##puxun": 8860,
      "##pulasi": 8861,
      "yuanzituan": 8862,
      "gongzuoyu": 8863,
      "gongzuozhan": 8864,
      "wenhuaquan": 8865,
      "liaoguo": 8866,
      "zhuangong": 8867,
      "zhuangzu": 8868,
      "zhuangda": 8869,
      "##shuiqu": 8870,
      "##ora": 8871,
      "guojihua": 8872,
      "guancetian": 8873,
      "duanwu": 8874,
      "duanluo": 8875,
      "duankou": 8876,
      "duanque": 8877,
      "duanlian": 8878,
      "rangdu": 8879,
      "##med": 8880,
      "##mela": 8881,
      "aojian": 8882,
      "aomi": 8883,
      "aoken": 8884,
      "kaohe": 8885,
      "kaobei": 8886,
      "zhiyiqi": 8887,
      "zhiyizhe": 8888,
      "baishi": 8889,
      "bainian": 8890,
      "baidu": 8891,
      "baixipai": 8892,
      "yuzhouxuejia": 8893,
      "gudianshi": 8894,
      "120": 8895,
      "1916nian": 8896,
      "guangzhoufu": 8897,
      "diershi": 8898,
      "dierduo": 8899,
      "1983": 8900,
      "1982nian": 8901,
      "1906nian": 8902,
      "banbenhao": 8903,
      "menwai": 8904,
      "chulichang": 8905,
      "jiazhilun": 8906,
      "songyuan": 8907,
      "songci": 8908,
      "songsan": 8909,
      "guanliyuan": 8910,
      "diaoke": 8911,
      "diaowen": 8912,
      "diaosu": 8913,
      "##ogy": 8914,
      "jingshenke": 8915,
      "##ware": 8916,
      "##pot": 8917,
      "jingyanxing": 8918,
      "jingyanlun": 8919,
      "chajue": 8920,
      "chaxun": 8921,
      "hongyang": 8922,
      "hongjun": 8923,
      "hongnei": 8924,
      "kuosan": 8925,
      "##ret": 8926,
      "##res": 8927,
      "fenzijiegou": 8928,
      "suanchu": 8929,
      "suanzuo": 8930,
      "suanpan": 8931,
      "##fenge": 8932,
      "##fenggong": 8933,
      "nongyeyong": 8934,
      "##lves": 8935,
      "shanghaigang": 8936,
      "chenbao": 8937,
      "dulixing": 8938,
      "gongjubao": 8939,
      "shaohou": 8940,
      "jilupian": 8941,
      "gongjimian": 8942,
      "yongyouzhe": 8943,
      "maike": 8944,
      "maifang": 8945,
      "peitong": 8946,
      "peibei": 8947,
      "peidui": 8948,
      "chouban": 8949,
      "chouhen": 8950,
      "manage": 8951,
[...]
