[PAD]
[UNK]
[CLS]
[SEP]
[MASK]
!
"
#
%
&
'
(
)
*
+
,
-
.
/
0
1
2
3
4
5
6
7
8
9
:
;
<
=
>
?
@
[
\
]
_
a
b
c
d
e
f
g
h
i
j
k
l
m
n
o
p
q
r
s
t
u
v
w
x
y
z
{
|
}
~
°
·
×
ə
ɪ
ʔ
ˈ
α
γ
η
ι
κ
λ
μ
ο
ς
σ
υ
э
–
—
‘
’
“
”
•
…
‰
′
─
、
。
〈
〉
《
》
「
」
『
』
【
】
・
︰
！
＂
％
（
）
，
－
．
／
：
；
？
～
𣏌
##h
##u
##o
##c
##i
##n
##g
##x
##e
##f
##l
##a
##z
##t
##s
##j
##9
##2
##3
##q
##d
##w
##r
##k
##p
##b
##m
##y
##v
##7
##4
##8
##0
##1
##5
##6
##η
##κ
##σ
##ο
##ς
##α
##─
##ə
##ʔ
##э
##γ
##ng
##an
##hi
##ong
##ang
##he
de
##ing
##hu
##ian
##ai
##ao
##uo
##ei
##en
##ji
##ou
ji
##ue
##heng
yi
##uan
shi
##hong
##shi
xi
##xue
##un
##xi
##li
li
##yi
##ui
zhong
##hang
zhi
zai
##eng
##zhi
he
you
##wei
##han
##guo
##yu
yu
##xing
ren
##qi
wei
##nian
qi
##hui
##hou
bu
zhu
zhe
she
ke
di
##tong
yan
##in
##ti
fa
gong
da
jing
cheng
zheng
##zhu
##shu
chu
##jian
ge
##jiu
##ge
shu
##jia
jie
le
zi
##zhong
##cheng
##xiang
##you
xing
##yuan
wu
##chu
##yong
##hua
er
guo
##fa
##zi
shang
##iao
##yue
yin
yanjiu
huo
xiang
tong
dui
##lun
ta
zhongguo
##er
##zhe
##hao
bei
jin
wen
##si
gu
xin
##xian
xian
ying
fen
ye
hu
##wu
bing
xue
sun
deng
guan
shehui
##bu
##jie
##xie
##ming
xitong
##fu
##dong
sheng
##ju
19
bao
fang
##yan
##chang
##sheng
jian
##dai
##zuo
zuo
hui
##ru
ti
##dao
suo
##de
##du
##jing
##yao
fu
##ye
yuan
jingji
mei
##ren
##ci
##ke
jia
dan
ling
##men
dian
##ben
zui
##ri
##duo
si
##lixue
20
jiang
##zheng
bi
jiao
bian
xu
##she
##yang
kai
dao
kexue
##ding
lilun
##zhan
yige
##nu
##wen
##lai
##liang
ci
##zu
##lv
lai
##fang
##da
##jin
ming
yong
nei
dang
shou
##min
gai
ju
##ha
##di
##qu
##xu
##zhuyi
jiu
keyi
ru
min
##lei
##ying
qu
##fen
##ran
##xin
##guan
fan
##gong
hai
##dian
##ta
chan
zu
shen
##zhang
zong
##ce
##gou
cong
dou
##mian
##qiu
##bi
hou
liang
renwei
shiyong
hua
##nux
guang
##suan
xiao
##zhou
##shan
qing
fazhan
chang
yun
##chan
yiji
ze
xia
neng
##dang
zhengzhi
chengwei
##jiao
duo
zhuan
linux
dai
cai
##zai
##ban
##lu
lishi
jingjixue
geng
##kuo
##quan
##su
##shang
qita
jisuan
te
cao
##la
baokuo
zao
##qian
tian
zhengfu
##tu
##biao
##0nian
qian
zhexue
dong
yao
yue
biao
ding
quan
butong
lingyu
guojia
gao
mo
##bian
wenti
ping
201
ri
caozuo
ruan
tai
shuxue
##cha
liru
sui
shijie
##bei
##shen
tamen
an
minzu
zhexie
##wai
jue
jun
##dui
##shou
##tai
##ma
xuan
fei
hen
shiji
wan
geming
##pin
##liao
yingxiang
fangfa
wang
shiyan
18
##qie
huan
##duan
han
mu
san
##hai
##ling
zhan
chuan
ban
##uang
##ze
yixie
##xiao
zhuyao
zhen
shuo
kong
##neng
ziyou
renlei
shehuixue
xie
xinlixue
##te
##jun
sunzhong
ma
##chi
##wang
##yin
kaishi
gui
sunzhongshan
liu
nian
huaxue
jinxing
xuduo
zhonghua
##shuo
bo
##le
##luo
##wan
##pai
chao
##bo
shichang
shengchan
ben
tu
fenxi
cun
jisuanji
feng
wai
##bie
##mu
ba
tou
shijian
du
lian
jiegou
renmin
chuang
##jue
ruanjian
tan
mou
nan
xingwei
guanxi
meiguo
neihe
duiyu
xiandai
yinyue
10
lun
##fan
##suo
##jiang
jichu
##xia
xingcheng
mi
zeng
tui
##ping
dianying
que
##qing
zhongyao
sheji
wo
##kou
wuzhi
lei
tiao
zhongyi
zhijian
falv
yingyong
na
ken
zhang
##deng
tichu
su
ziran
nong
reng
##nao
yinci
gen
##mi
##man
daxue
yinwei
shui
jishu
wulixue
200
tuo
xun
diannao
pu
##fei
diyi
tongguo
yundong
cunzai
ya
##5nian
##liu
shengwu
zuzhi
##gang
##que
##bai
##mo
wuli
zuowei
keneng
lu
##xun
##ting
qiang
meiyou
chansheng
##bao
##lie
pi
##kai
zhege
chong
ceng
##bing
gainian
##se
wenxue
xianxiang
##zao
lin
##ni
huang
##na
chengshi
daibiao
riben
yiban
can
gan
zhishi
zh
##2nian
##hen
tongyi
sixiang
jihua
shiqi
yuyan
jieshi
guomin
huanjing
##lian
##1nian
tao
yang
##ya
jiben
fangshi
jianli
tianwen
luo
yixue
chuxian
suoyou
ce
tigong
##00
qizhong
##cun
guocheng
##4nian
##shiji
lizi
xingshi
xueke
##zhun
tongchang
jiushi
heng
##ow
##gu
##3nian
##dan
##6nian
lixue
zhao
##heguo
youyu
dilixue
ziji
tongshi
##shao
xiju
bufen
199
kaifa
chuantong
lao
ni
##rong
##7nian
##huo
zhezhong
gnu
##nei
##tian
11
##gao
zuoye
chi
##lan
huodong
pai
##zhao
##0niandai
miao
nuo
win
##9nian
shishi
ran
##on
jiaoyu
chanpin
##meng
zuoyong
mian
mao
ou
yizhi
##lin
##zhuang
##bufen
faxue
##chuan
xianggang
xuyao
gou
re
zhou
##san
##dun
liyong
xuezhe
kan
##tuo
bingqie
ai
##dow
zhihou
zhidu
gongheguo
window
##gai
##pu
##huan
yuanzi
gongzuo
gezhong
wenhua
##uai
##kuang
liao
zhuang
diqu
kongjian
##shui
baohan
dangshi
zucheng
faxian
chengxu
geren
##or
renmen
zhengce
shuju
guoji
beijing
guance
duan
rang
jueding
henduo
windows
gei
##me
yijing
zhixing
diqiu
ao
kao
##os
zhiyi
gongchan
miaoshu
bai
yuzhou
gudian
guancha
12
renkou
191
guangzhou
dingyi
touguo
hao
xifang
zhichi
ershi
huode
xuqiu
hexin
bushi
dier
fangmian
minguo
10yue
##xuejia
renshi
qie
zhuzhang
198
190
bixu
banben
guomindang
men
##mei
zhongyang
chuli
jiazhi
genju
song
dengdeng
guanli
hengxing
shiwei
diao
gongsi
gongneng
chengli
wufa
duixiang
##og
jingshen
zhengshi
shuyu
ziyuan
##wa
##po
jiqi
jingyan
xiangguan
xinli
biaozhun
cha
hong
kuo
##tan
##re
shide
weiyuan
jieguo
qingkuang
zaoqi
fenzi
mouxie
suan
##nan
##el
##feng
danshi
nongye
11yue
##kong
yishu
qiyi
geti
##lve
ruhe
moxing
##ceng
##al
##kao
renhe
xingzhi
shanghai
xiangdui
jiage
chen
##8nian
shidai
##xiu
jieshou
zongjiao
nenggou
duli
zengjia
women
gongchandang
gongju
xuepai
weiyuanhui
shao
##yun
jilu
gongji
##zhen
fenwei
yongyou
shoudao
##beier
3yue
mai
pei
##chao
##pei
yilai
liyi
zhiliao
daliang
jiejue
huozhe
tongji
yonghu
juyou
ruanti
ouzhou
chou
man
##qun
##diao
jiyu
xiu
lijie
shuliang
197
tixi
yuanshi
##kesi
tebie
taiwan
xuanze
rong
##tuan
##anguo
buguo
dizhi
faxing
gongyuan
xingxi
##chuang
guanyu
taiyang
suiran
189
17
hei
##guang
##sun
fabu
dabufen
fuwu
bijiao
teding
raner
##cai
##gan
##za
##pan
shixian
xila
ziliao
xianshi
xueshu
lingwai
neirong
junshi
wanquan
nuobeier
16
##mai
fasheng
gaibian
fanwei
liangzi
yishi
yisi
zhongxin
zhidao
weile
gongtong
huoshi
xinxi
fenzhi
hudong
bingbu
196
chanye
tang
##ba
jiyi
zhineng
youshi
dili
jinguan
tuowa
piping
tuowazi
shan
zhuming
zheyang
gongcheng
dadao
chenggong
chengzhang
zixun
xingxing
xuexi
zhengzhixue
makesi
chuangli
zengzhang
hun
kang
la
tuan
##tou
jishi
lixing
qin
zhuzuo
xianghu
shenghuo
biru
haiyou
yunxing
zhuanye
quanli
co
in
lv
os
po
ruo
##chen
huiyi
yuansu
guangfan
anquan
mudi
maoyi
cuo
ha
dedao
##uer
gonggong
zhengti
195
jiagou
fanying
houlai
xinlixuejia
chaoguo
tiaojian
gang
hang
of
ting
zun
zhichu
renzhi
xiangdang
192
bianhua
daozhi
yongyu
ruguo
shenzhi
feichang
kuai
nai
##tao
##ter
##pian
yuce
jingzheng
jingdian
chun
chule
yingguo
zuopin
suoyi
fuza
quanguo
zaocheng
tianti
dongwu
quanqiu
minzuzhuyi
##gui
zhijie
gongli
yinsu
dangzhong
nengli
suizhu
pian
pin
##kang
lie
zhuyi
chengben
jiemian
gudai
jiashe
dianzi
haiyang
zhexuejia
cu
meng
##ku
##pi
yiyi
zaiyu
youxie
youguan
qiyuan
buduan
zhun
##tion
fabiao
dalu
ziben
yinhang
guandian
dangan
daima
muqian
kongzhi
pubian
linshi
tianwenxue
laodong
6yue
sel
zhiyou
daduo
chengdu
wancheng
liuxing
qiangdiao
niu
tuanti
self
9yue
bang
uni
shiye
##qin
keji
difang
jiehe
shangye
yinggai
baohu
kexuejia
qude
shiyongzhe
caiyong
moshi
2010nian
shengwuxue
canyu
1yue
4yue
##sha
jidu
yiyuan
weizhi
chulai
wenzi
fenpei
xuesheng
gaige
fandui
yaoqiu
mubiao
zhenjiu
benshen
15
ka
qun
so
##fou
##bin
jijin
qijian
zhujian
gongye
wuti
liangzhe
zhuanzhu
jingjixuejia
biaoshi
yali
liaojie
14
7yue
ku
nv
##song
##ra
##kan
##kuai
yiwai
zhiqian
zheshi
disan
yanhua
daqi
dacheng
jingguo
jingchang
chuban
yuanyin
lingdao
situo
bianji
tuxing
leisi
sulian
gongyuanqian
ix
the
##ol
##chou
##yibu
zhongduo
zhiliang
zhuti
ditu
dahui
zhengge
guofu
xueyuan
tie
laishuo
minzhu
zonghe
unix
situoman
kou
zhui
##xuan
##lang
##zong
##sai
renwu
faguo
daxing
xiangmu
fenbie
fushe
neibu
dinglv
pingheng
juese
benzhi
rengran
linchuang
luoji
##zou
##kuan
yiju
shiwu
zhiwu
youxiao
weir
zhuliu
jieduan
xingzheng
guoqu
jinru
jinri
biancheng
2015nian
2012nian
shehuixuejia
touru
kuang
peng
yiwei
faming
gongxian
shuang
eryan
huobi
xinyang
yingti
laizi
quyu
cailiao
taolun
celiang
diaocha
13
8yue
pa
##ch
##che
##st
##sen
##dou
deguo
jixu
weixing
buke
sheli
diwei
##zhuan
tongmeng
fenlei
xuexiao
fuhe
meige
jiaru
zuizhong
kaien
daode
minzhong
wangwang
zhendui
pan
##ka
yiding
yiqie
shihou
shizheng
xibao
zhongda
qiu
zishen
erqie
tongyong
fenbu
shengming
jiandan
zuochu
tigao
bianyi
xuke
kaifang
pinglun
2011nian
naxie
chixu
jiyiti
ib
##bang
jihe
jizhi
shixing
shifou
zhihui
##qiang
weihu
weilai
qishi
zhengming
tongzhi
tongyang
xianzhi
huxiang
194
suowei
yuanze
meiyuan
jiating
jiaoyi
ruci
shenme
changchang
duozhong
teshu
##latu
biaoyan
junheng
wanglu
chayi
xiangduilun
faxingban
cuowu
daduoshu
ibm
25
##et
##tang
yiti
yishang
shitu
##linux
zhongshi
hezuo
renyuan
weizhu
yanchu
##tiao
gongmin
jieji
guonei
xianzai
dianci
##duode
jiaodu
##fangmian
yonglai
guangyi
guangdong
xiaolv
yunxu
yuehan
shiyanshi
guifan
tuidong
zhuangzhi
12yue
yuanshikai
##olog
5yue
tw
##wo
##ro
yushi
renwen
zhengyi
shehuizhuyi
shengyin
jiancha
fuhao
yuanli
danwei
zongli
xiaofei
dailai
tezheng
tance
mouzhong
nanjing
goucheng
yisilan
jijinhui
tongmenghui
gp
##cao
jiji
jinian
jihui
jigou
yibufen
zhili
zhizuo
zhiding
youren
weiyi
qihou
keguan
xingdong
xianjin
zongti
nengliang
wangluo
hans
xieyi
tudi
tansuo
##nasi
21
2yue
nlinux
##cui
##ll
##kui
jihu
yiyang
##xuepai
zhongwen
zhongdian
zhizao
youqi
zhuo
shebei
jingli
chengguo
chengyuan
gege
jiezhi
guohui
yindu
jindai
guxi
xianfa
xiansheng
sunwen
guanzhu
biye
shouji
xuanbu
wanzheng
bolatu
chuangzao
zhongyixue
nuowei
tebieshi
bangzhu
000
30
kun
lang
za
zan
##lao
##zui
##huai
jibing
zhongshan
zhiyuan
youxian
##weiyi
zhuzhong
shuai
xiangxin
wenming
xuewen
193
meiti
zuichu
##laiyue
ciwai
##die
xiaoguo
changshi
yuelaiyue
dingwei
2016nian
zhanzheng
shuofa
chongxin
chongtu
yange
shaoshu
chouxiang
xiugai
com
500
dos
##zang
##rd
yixia
zhonggong
bujin
zhuguan
zhengque
wuxian
jinyibu
wenjian
shengyu
fangwen
cishi
mingcheng
juli
juxing
##zhuyizhe
qudong
fanchou
shenjing
conger
gengjia
2014nian
187
miqie
huangxing
soci
26
go
nu
sai
jiguan
jizai
yiqi
yihou
xiwang
zhongshiji
yuqi
kecheng
dida
yanyuan
yanjin
##geming
jieyou
xingqu
xingtai
xiangying
jinbu
wending
shouru
gaizu
minjian
chanchu
yunyong
zhuanbian
188
hanyi
guiding
chaoji
lianxi
chuangzuo
leixing
putong
ranhou
niudun
kua
cn
cang
nt
ning
sha
##chong
##gen
##sa
##rui
yisheng
yiqian
yiliao
##lisi
licha
weiguan
qiao
yanzhong
fachu
zhenglun
gedi
##ziran
yiner
xiangtong
yingjian
shengtai
jianshi
zuihou
simi
jiaohu
mingming
juda
changqi
qianwang
gaodu
touzi
tuichu
pipan
linnasi
kaifazhe
kuozhang
jidujiao
zhuanzhuyu
tielu
weiruan
kaiensi
xukezheng
guxila
cui
##op
##es
##luan
##ty
deyi
lifa
zhijin
fadong
gongshi
shuzhi
beifa
beiju
jinnian
jintian
xinwen
huai
guannian
fangxiang
jianzhu
jianshe
huifu
tizhi
jiashuo
dansheng
dianji
bili
bianzheng
kaiyuan
laiyuan
mingque
dangyuan
shouduan
##minzhuyi
changjian
caifu
yueqi
pingtai
suizhe
sanminzhuyi
zhenzheng
##luosi
waijiao
zhaodao
shishishang
zhuangtai
duanqi
kuozhan
nuobeierjiang
kangde
1ri
22
long
wa
##cang
##ys
jixie
##shishuo
zhongzi
youxi
##qiao
qiye
buzhi
zhudao
##gela
zizhi
shangshu
yinqi
jinzhi
wendu
yingwen
tidao
fuze
jingjiti
danyi
bici
jiaoshou
bianliang
dangdai
jujue
qushi
fanzui
zongdu
xiaoshuo
zhuanmen
dongjing
biaoxian
moni
pingjun
xuancheng
xuanyan
shijishang
hant
banyan
shuoming
fengge
genben
zhaokai
tongjixue
makesizhuyi
kuaisu
yalishi
gpl
27
che
pang
zou
##ct
##long
##sd
##lizi
liliang
hecheng
qilai
dixia
daxiao
daziran
chengshu
zhengju
chufa
chusheng
##jiushishuo
guowu
yinli
tongnian
jinrong
xianxing
yejiushishuo
baozhang
baoluo
jiankang
fuxing
meinian
siwei
202
jiangou
shouci
juti
qudai
zujian
changyong
xiayi
xiaweiyi
duoci
##labo
tianqi
yaosu
biaoda
2013nian
gemingdang
huanying
sanda
xiezhu
mac
guilv
liupai
queding
zhongyiyao
2007nian
tuoli
luoma
laogong
chenji
29
23
eluosi
lan
##cs
##nong
##ruo
##miao
jiti
yici
shixue
shizhi
shibai
##yifangmian
zhongzhi
zhixia
yousuo
weiji
weiyu
weibo
zhuxi
shequn
yansheng
faqi
dayue
chengjiu
chengren
chuyu
geguo
##geer
jieda
wudao
xiangfan
jinhua
fenli
bingfei
baogao
jianyan
##rushi
fuli
jiayi
lingyifangmian
dianshi
zuiduo
zuida
sifa
##zhengfu
qubie
gengwei
tezhi
dingliang
2017nian
shuxuejia
suihou
and
anzhuang
juece
juedui
waibu
lianhe
tantao
lundun
nongmin
rengong
shuiping
xuni
cengjing
tianwenxuejia
mianxiang
kaolv
##ogra
taiyangxi
tingzhi
25ri
##ologi
youqishi
nuli
baoluoting
24
alabo
ga
ph
sa
##ca
##ar
##sui
##ds
##run
##hewu
##hun
yizhu
shijiu
shifen
##xiong
lirun
zhonglei
zhizhi
zhiyu
zhiwai
heping
youde
rensheng
qiti
qixiang
gongkai
dazhi
jingque
shuyuan
##jiate
##xiangshan
xingqi
xinger
wuzhong
wutai
xiangxi
##eren
guji
xinxing
fenlie
xuehui
guanjian
shengcheng
baoliu
danren
sikao
biande
rutong
haishi
shenxue
zongtong
yunzuo
xialai
caizheng
lishixue
tese
qianrushi
dongxi
dingli
quanji
186
chuanbo
xiehui
xietiao
boshi
##bote
fengfu
chuangjian
queli
##qingling
renge
mianji
liaofa
1912nian
songqingling
maijia
huozheshi
rongyi
naijiate
chuncui
cujin
qunti
yalishiduode
zuidahua
hk
op
pao
rui
tuer
un
##cal
##th
##juan
##vi
yida
##uni
zhishao
yanzheng
fashe
gongchang
chengzuo
zhengzai
shuchu
jiechu
jiefang
xingzhong
wuchang
##chun
guoshi
shangpin
yinhe
xianzhu
fencheng
fenlan
sunshi
sunyi
jianyi
fuzhi
fuluo
yuanyu
zuizao
20shiji
##fanggong
mingzi
mingci
juben
zuhe
guangxue
qingxiang
texing
dongbei
yaowu
dingzhi
pingdeng
junfa
zhanlve
banfa
renleixue
guina
fengong
waiguo
dute
renminbi
tanxiangshan
name
xunqiu
xunlian
cankao
sixiangjia
1991nian
zhouqi
geichu
kaocha
1980niandai
hongguan
kuoda
zhunque
kaer
kuangjia
26ri
chenjiong
64
aer
bin
ex
kuan
piao
sou
##co
##nuo
##0wan
##ening
shiling
xiong
##yide
zhongyu
zhizhong
zhizi
zhiye
zhizhao
renti
qiyue
shequ
zhengfa
chukou
gezi
shuzi
duiying
jinjin
gushi
yingyu
19shiji
fangqi
jiancheng
zuozhe
jiazu
jianguo
jiaowei
jiaozuo
bianqian
##dingxing
mingxian
mingling
quxiao
congshi
nengyuan
duoyang
caineng
biaozhi
quanshi
pingguo
xuanju
hanyou
##zedong
guimo
niandai
tur
lianheguo
nanfang
sudu
huangdi
1990niandai
maozedong
goumai
12ri
manzu
heigeer
pohuai
zibenzhuyi
xingzhengqu
compu
ningju
##lisideng
lichade
70
9ri
ho
lou
me
pos
se
sys
##ona
##ck
##cong
##zha
##pe
##peng
dehua
jicheng
yikao
shiyi
xiyi
xiqu
xishou
xizang
lixiang
liening
zhicheng
zhishang
zhiling
zainei
rending
weili
bushao
zhuru
sheying
dishi
diyu
disi
yanshi
yanxu
##tie
gongzi
chengfen
zhengdang
##shuji
geshi
gesheng
shuji
shuru
jieshu
zizhu
zidong
xingbie
##yuanjing
wulun
yanjiusuo
xiangfa
xiangyao
tongxun
wenyi
guwen
yeyu
guanzhong
guanlian
baochi
jianchi
jianshao
zuoyou
tisheng
ticai
yuanyi
yuanzhu
dianli
dianding
zuiwei
20ri
jiangdi
bianxie
yongyi
quxian
fanyi
zugou
zuqun
shenru
houzhe
qingxu
qingting
caiqu
lishixuejia
biaomian
gaosu
pinggu
richang
##masi
yingxiangli
wangyuanjing
hanzu
zhanju
kongde
##tem
xingweizhuyi
10ri
lunshu
tiaozheng
zhangwo
2000nian
2005nian
2009nian
xunhuan
yazhou
cehui
dilixuejia
chidu
maodun
aomen
gudianzhuyi
dizhixue
gongchengxue
qiyuanyu
14ri
zhuisu
xiaofeizhe
jinnianlai
##ograp
xingershang
xingzhonghui
28
80
fo
for
sta
tor
##ik
##ed
##mao
##ve
jizhong
jiyin
yixi
yiwu
yidong
yiyao
yiran
shiying
shiguan
xilie
lichang
zhongli
zhiji
youji
weihe
weichi
buque
zhuquan
zhuchi
yanzou
##inei
gongbu
gongren
dawei
chenghu
chuqi
zixing
xingfa
guodu
yinru
yanjiuzhe
xiangxiang
jineng
jincheng
jiner
##site
guding
xuewei
baofa
jiashang
biran
bimian
jiaohuan
xushu
##shexian
gaishan
juban
qufen
shenhua
lianghao
xiaoxi
changsuo
zhuanjia
yuefa
pingfanggong
xuanchuan
wanshan
zhanxian
zhanling
zhenli
nianqing
shengchanzhe
duhui
lianjie
xiandaihua
lunli
quefa
ludi
canjia
yanghua
faxueyuan
kanfa
jiqiao
suanfa
chenshao
birushuo
inter
##zongtong
##kaer
duanqirui
longduan
guowuyuan
2020nian
fuluoyide
piaofang
system
xingershangxue
buquedingxing
36
fs
fou
ms
sci
zen
##is
##ning
##for
##den
##mou
##val
dezhu
##huang
jiwei
jituan
yiben
yichuan
shili
licheng
likai
zhixu
zhijue
heer
hebing
youyi
youzhe
weisheng
bujian
dashi
jingnei
zhenghe
shun
shuxing
jieru
xingzhuang
wuxing
huoyue
xiangshi
wenshi
wenben
##siling
guli
xinhai
fendou
##wuzhi
sunzi
sundi
guanfang
shengli
shenglixue
jianzao
tiyu
fuzhu
fuqin
yuanxian
jiali
lingxiu
zuigao
jiangxiang
biang
jiaohui
##nus
cilei
neicun
dangjin
dangran
chanwu
shenhu
shencha
zongzhi
huafen
guangbo
xiaoying
duoshu
zhuanyi
zhuanxie
caichan
gengxin
zaodao
dongji
dingxing
wangye
zhenshi
liuchuan
bochang
bencao
cunqu
fengxian
lianxu
lunzheng
midu
tuiguang
tiaoyue
nongcun
2003nian
2006nian
puji
luhao
ganyu
11ri
paihang
gouzao
relixue
kanzuo
1900nian
1904nian
songjiao
suanshu
peizhi
1895nian
16ri
zunxun
1949nian
saiju
kaiensizhuyi
29ri
yinhexi
loudong
fojiao
torval
yixilie
scien
torvalds
32
31
96
as
nke
sen
sco
##tui
yichan
shihe
shiyou
shijue
zhongxue
zhiming
##zhiwei
heli
##weiai
rentong
renshu
weiqi
weiwu
weineng
bumen
buzu
budan
zheli
kejian
kekao
diguo
dikaer
yanshuo
gongqi
jingfei
zhengquan
chucun
zixi
wuqi
wuran
wupin
shanghan
shangsheng
yinyong
yincang
duili
##sitan
gulao
xinan
xianchang
yingdang
huzhao
sunyu
##busi
shengji
shengyue
baozhi
fangcheng
zuojia
huida
tiyi
##jingwei
fushu
jiasu
lingting
##ment
zuijin
sixuepai
bianjie
daojiao
mingyi
neige
##xinji
haiwai
zongjie
zongsiling
douzheng
huamian
huahewu
xiaozu
qingxing
changdao
zhuanyou
zhuanhuan
daishu
dongbu
biaoshu
biaoming
gaoji
riyi
taidu
taikong
jueda
jundui
wangjingwei
185
18ri
zhenduan
nianqian
huaxuejia
chaoxian
chaoxin
tupo
bali
liandai
nanyi
lunzhi
mimi
tuifan
zhongyaoxing
nation
sung
2004nian
tuomasi
xunsu
chongfen
cengmian
xianxiangxue
ganjue
taoyuan
ceshi
1992nian
paichu
paishe
kandao
gongchanzhuyi
1911nian
##meiyou
chuliqi
hongwai
manman
heidong
shanmai
daqiceng
shizhengzhuyi
bianyiqi
##ology
zhiliyu
zhuomian
zazhi
cuiheng
24ri
tuergan
turang
##iki
pingfanggongli
chenshaobai
songjiaoren
science
nkelisideng
ac
beng
bsd
chui
cpu
fi
no
pro
to
##nv
##fi
##fs
##ation
##zeng
##zhai
##pa
##ver
##86
##enan
jichang
yijian
yifangmian
shiti
shizu
shibie
shisan
xijin
linus
zhongji
zhize
youli
youming
yuenan
weixin
weilian
qiong
qikan
budui
zhuji
zhubu
zhejiu
sheyou
##tongshi
yanhai
yanjiang
##tiona
fayu
fayuan
fada
gonghe
gongzhong
gongxiang
dali
dazhong
dafu
jingzhi
jingwei
jingqi
zhengqu
##zhuyu
chuxi
gelei
gebie
geograp
jiejin
jieshao
xingrong
xingyun
guofang
yinyang
tonghuo
duici
duichen
jinshu
guyong
xianqu
yinguo
yingping
yingxiong
bingmeiyou
xueshuo
sunda
guanyuan
guanxin
baoxian
baozha
fangan
##shengwu
huidao
tidai
yuanben
sibin
biyao
cihui
cifu
cichang
##dazongtong
yongtu
neizai
gaijin
juxian
jubei
##dili
##dice
mini
quchu
fanhui
shenfen
xiaoshi
xiaoxue
xiaoxing
qingchao
zhuanjing
##lasi
zaojiu
quanti
quanmian
butongyu
mokuai
pingjia
rixin
anjian
jueyi
junzhengfu
feidan
wanmei
huanju
hanshu
mulu
sanshi
xiezuo
lianmeng
nanhai
100
lunwen
mima
queshi
tiaozhan
nage
suweiai
wulixuezhe
xunzhao
yadang
yapo
huangpu
celve
##000
hengbin
zhaochu
nimen
chicun
##menggu
zhounian
liaoxiao
beijingshi
aodili
baituo
yuzhouxue
1913nian
1919nian
ershishiji
1989nian
1905nian
##ogle
zhengshiliang
chenai
1970niandai
1896nian
fuwuqi
xueshujie
1960niandai
hunluan
codice
zuncheng
##guimo
zhunze
tuxinghua
diancixue
guangdongsheng
21ri
kunnan
google
huaiyi
zizhiqu
pangda
chenjiongming
duoyangxing
heerxinji
xinhaigeming
chaoxinxing
cuihengcun
44
50
51
6ri
8ri
fre
##cc
##gei
##ad
##ada
##zan
##wuer
##ken
##piao
##mp
##50
##uoji
##jiya
jiyou
jizhe
jilie
yixian
yidai
yifang
yilei
yibian
yiwang
shige
shiren
shiqian
shipin
##hongzhang
xige
linian
lihongzhang
##yiyuan
zhongxi
zhongwei
zhongdong
zhongzu
zhongduan
zhishu
zhiyao
##zhishi
##zhiyi
hezhong
youci
##hanmin
yuci
renben
weiren
weida
weinei
buyi
buwei
bujiu
bulun
zhuduo
zhuce
shexian
kejiang
dimian
yanlun
yanbian
yanshen
fadian
faze
fayin
gongyou
dayuan
daguimo
chengxian
chengzhiwei
zhengli
shuli
##jiapo
jiexian
wushu
##huashuo
erzi
yanjiuyuan
huoqu
xiangji
xiangyou
xiangbi
xiangjiao
duihua
duibi
##eru
jinqi
jinzhan
jinkou
wenzhang
##siji
xinjiang
xinfeng
xinjiapo
xianyou
fenshi
hufa
hulian
huhanmin
bingli
xuefen
sunmei
dengji
##jieji
fangying
fangzhen
jianding
meijie
dianhe
dianbo
bida
bianlun
daoli
cidie
##jinyibu
shouyi
shouxian
juji
juzhu
jumian
rujing
minsheng
quzhu
quxiang
fanfu
haijun
chanshu
shenmi
zongshuji
houshi
##chanjieji
zhengzhixuejia
zhuanli
gengjinyibu
qianyi
dongzuo
dongfang
yueqiu
quanwei
gaozhong
gaodeng
mozu
ande
anzhao
wanbei
183
hanyu
##haizi
##tel
##ted
tujing
mouge
nanti
mier
zengjin
tuidao
tiaohe
##mier
2008nian
yundonghui
shengwuti
kenengxing
qiangzhi
pizhun
##kaishi
cengci
ganshou
tongyige
taojian
jibenshang
xingshihua
1997nian
miandui
mianfei
red
zhuangkuang
chengxuyuan
diaodu
peihe
manqing
yuanshima
ronghe
kangyi
lading
ruoshi
hat
1950niandai
hangai
hangtian
zunshou
1925nian
1923nian
liewei
cushi
niuyue
shiyelv
15ri
qunzhong
nvxing
lingdaoren
shuangfang
laiziyu
13ri
panduan
weihuzhe
##gelasi
27ri
gama
open
jiefangjun
qingxiangyu
##pengzhang
luhaodong
geographi
tonghuopengzhang
cifuqi
huanjuhuashuo
kejianguang
2ri
3ri
46
4ri
59
62
60
91
at
am
api
dun
dna
eguo
gcc
juan
ne
now
nor
ps
phi
rao
sma
wi
xshexian
──
##od
##can
##lla
##tp
##sh
##je
##dinei
##rt
##rao
##rou
##ron
##ros
##pao
yidao
yike
yiwen
yimian
shizhong
shizuo
shici
shifang
##shihua
xisu
xiyin
liyou
liwai
zhongqi
zhijia
zhiguan
zhiquan
zhisuo
zaiyi
zaici
hexie
youjian
youyong
yuang
renxing
##qiong
weidu
weijing
weishou
weiwuer
qimeng
buding
sheshi
shezhi
sheding
kemu
dibiao
yanyi
faan
dachen
chengji
zhengchang
shumian
jieti
jielun
jiehun
zicong
xingji
xingti
wuyi
wuke
wuquan
ertong
shangwei
yanjiufa
huojiang
xiangzheng
xiangliang
xiangshan
beiyang
beifang
beishang
jinci
jinmi
##sic
gua
xinling
hushi
hubei
hupo
xuemen
##jieshi
shengzhang
fanglve
jiandu
jianada
zuofa
huizhi
tixian
suozai
fuyu
furen
yuanxing
yuanjian
jiaqiang
lingtu
dianxing
##ris
siwang
jianguan
bisai
bianshu
xushi
kaichuang
daoda
daolu
ciji
cizhi
dangju
dangdi
shouheng
gailiang
gaizao
juchang
shenqing
zonghui
zongbu
zongmian
congzhong
houqi
liangdu
guangwu
guangda
xiaoshou
qingchu
changzhu
changshang
yunnan
xiaji
xiajiang
duoshao
zhuanzhi
caixiang
qitaren
tedian
tianjin
qianxi
qianzheng
donglixue
dongtai
quanbu
rihou
anshi
anmo
anwuzhi
jueqi
junzhu
feizhou
henei
henkuai
18shiji
hanmin
zhanshi
zhankai
bansui
zhenya
xieding
xieshang
masheng
##yinsitan
guihua
guidao
guize
liuxue
liulan
chaoyue
benren
waizai
lianbang
chuangshi
chuangban
lunlixue
tiaojie
zhongyishi
zhanguo
zhangcheng
zhangguan
##mie
shuizhun
puxue
pucha
luxian
luxu
lujun
qiangda
cengji
##sear
##nisi
huangjin
huangdinei
##nade
canyiyuan
ganzhi
tianwentai
hengliang
chiyou
paiming
##mengde
oumei
##linpi
resear
zhoufen
aiji
aiyinsitan
baihua
1915nian
haode
renshilun
1985nian
1903nian
jingyanzhuyi
chaju
suanshi
##ell
xiangduiyu
1971nian
17ri
gongtongti
shanhou
intel
lvshi
cuoshi
hangkong
naizhi
fuzaxing
pinzhi
pinqiong
haiyangxue
zhunbei
linshidazongtong
laodongli
jidutu
zhenjiushi
##saier
pengzhuang
sociologi
kuaxue
23ri
xuniji
qixiangxue
ruidian
gongchanguoji
ext
quanshijie
computer
28ri
zenyang
weiwuzhuyi
bengkui
minix
zhongweizi
bidagelasi
nowiki
small
zhijiage
zhisuoyi
jinciyu
zongmianji
liulanqi
huangdineijing
##linpike
research
33
49
47
58
85
akui
be
ber
con
en
is
leng
oop
pc
ro
rou
we
##ho
##cuo
##ne
##gian
##egian
##age
##wegian
##kun
##bs
##ble
##bsd
##va
##nguan
##anguan
dechu
jixing
jiliang
jilv
jifeng
jiguang
yijia
yixiang
yiri
yidian
yizhao
yikaishi
shishu
shier
shisu
shibian
shiqing
xiai
xisheng
xibei
xibo
##xiya
liji
lixi
ligong
lisan
##yixue
zhongye
zhongshang
zhimin
zhitu
zaidu
heji
hefa
hewu
yousheng
##yuyan
yudao
yusuan
yule
yubao
renquan
weijie
weiju
##niandai
qia
qiguan
qiwang
buzhu
bude
buman
kexi
kexing
keyong
di1
diwu
yanfa
##tics
fazhi
daan
daxi
jinggao
chubu
gewu
geju
gexin
shushi
jiedai
jiekou
jiesan
jiekuan
ziwo
wuhan
wuzhuang
erke
guozu
shangan
shangshi
shangren
yinshi
huoli
xiangjian
tongcheng
tongxiang
tongbu
duiwai
zhongguoren
##eri
##ersi
##eryan
beibu
beike
jini
jinsi
##sibo
##silin
guluo
xianyu
xianhou
xianru
xiancun
fenhui
fenkai
fensan
bingren
xueshi
xueli
sunzai
shengxue
shengcun
baocun
fangji
fangzhi
jianzhi
jianjian
jianhua
zuoqu
huilv
huizhou
huibian
tiyan
fujin
fumu
yuanlai
meixue
jiazhou
danao
dandao
danchen
danchun
##rity
##duoshu
siyou
siren
jiangxi
jiangjieshi
bie
jiaoshi
jiaotong
jiaoke
jiaoliu
bianque
##lvbin
mingdai
mingbai
dangren
shouyu
shouyao
shouquan
jumin
jujiao
junguan
##dia
jiuzhi
jiudu
jiuye
jiujin
rujia
minbao
qujue
##fenzhiyi
fanzhi
fanqing
haizi
##tal
chanliang
zuyi
zuxian
shenti
shenshang
lianghua
huaming
huaren
huaqiao
guangxian
qingnian
qingdai
qingjing
qingqiu
qinggan
qinglizi
changhe
changlun
changdu
yunsuan
duonian
zhuanxing
caise
genggai
tequan
zaoyu
qianti
qianzai
dongli
dongnan
yuedu
dingduan
taiwu
taibei
taiping
suizhi
xuanshi
feichu
feilvbin
wanqi
wangji
180
huanyuan
sannian
zhanyou
chuanshu
chuanru
banbu
shuoshi
kongqi
shehuixuexi
##teer
liudong
nianhou
nianling
bolin
fengyu
fenghui
fengte
dushu
tanxing
tanjiu
tanpan
mousheng
nanxing
mixin
quebao
naru
sugela
ziranjie
rengjiu
shuizi
shuijing
2001nian
xunxi
luyin
qianglie
chongzu
gandao
luoxuan
##00duo
1990nian
zuoyongli
mianlin
goutong
shujuku
aolinpike
kaoshi
kaoliang
1986nian
1907nian
##xiusi
peixun
faxingshang
1894nian
178
hunhe
lixingzhuyi
code
lvyou
ruogan
chunqiu
liebiao
canyuzhe
pengbo
tanceqi
30ri
langfei
bujinjin
societ
wendingxing
canguan
shamo
##sake
22ri
dixiashui
weijifen
19shijimo
360
jialilve
31ri
juedaduoshu
weixinzhuyi
duichenxing
xigesibo
yucitongshi
xiangjiaoyu
hulianwang
minshengzhuyi
norwegian
zaiyiqi
oops
guluoma
qujueyu
sugeladi
2wan
48
40
50niandai
63
60niandai
84
95
ad
agen
br
cyuyan
eng
ftp
jo
ja
net
pr
teng
vis
wun
weng
zha
zeren
##ot
##ob
##cu
##cy
##cros
##id
##ist
##no
##eming
##fes
##lk
##leng
##to
##ts
##teng
##tuer
##so
##sang
##shaizi
##rn
##ks
##pen
##bun
##ysi
##vo
##70
dezhi
jilei
jidian
jibai
jizhun
yijiu
yifa
yilv
yibai
yilian
yidan
shida
shiqu
zhongxing
zhongdu
zhongnong
zhiwei
zhide
hezi
heliu
youtu
youzhuyu
##weiqi
yuyi
yuyuan
yudi
renji
renjun
renqun
weiyou
weixian
qiyu
qidong
qitu
bushu
budao
bulu
zhuli
keti
dixing
diqi
yanzhi
yanzhu
yansuan
##ine
fat
fahui
falixue
fading
fafang
gonghui
gongping
daji
dayi
daer
dadu
dafang
dadi
dajiang
dagang
jingyou
jingyuan
jingying
chengnuo
zhengmian
zhengzhuang
##shua
chuji
chushi
chuxing
chuzi
shufu
shuma
jieri
zige
zicheng
ziwai
zisha
zichanjieji
##xiangji
xingneng
xingtuan
eryuan
guowai
shangdi
shangbiao
shangdou
yinfa
yinjin
yinte
huobusi
xiangsi
duizhao
talk
beihou
jinxian
wenbing
##sita
xinshang
##xianfa
xianyan
yingshi
fenqi
fenhua
huxi
hurd
sundao
sunde
sunjing
sunbao
dengtong
guanzhi
##fulei
19ri
fangshe
fanghuo
jianjie
jianshen
zuowu
huixue
huixing
huihui
huiying
tichang
suode
suoxu
##desi
fubai
yuanyuan
yuanxiao
meisuo
dandu
danbai
danshui
linguo
dianhua
zuixian
zuixin
sihu
simu
sichuan
sitan
sichao
situer
jiangzhong
jiangjin
bios
biyun
jiaoxue
biannian
biandong
bianma
xugou
kaiji
kaishe
##dageming
mingti
mingdan
yongzuo
dange
dangji
dangqian
shouwei
shoufa
shouming
shoudu
gaicheng
##quyun
ruxue
rujin
ruxia
minquan
##fenzi
fanshi
fanren
haixia
haiba
channeng
shendu
huashi
huafei
guangwei
xiaoyong
xiaokang
qingyuan
changwu
duoyuan
zhuanhua
zhuaner
daidong
caiji
lishihui
##las
qianhou
qianshu
qianzhe
qianxian
qianshen
donghan
donghua
donghai
dongya
yueshu
quanshu
gaoyu
gaoyuan
suiji
suishi
ansha
jueshi
wangzhan
shiyanxing
shiyanzhe
182
huanzhe
hanzi
musilin
banjiang
banzou
##xiaolv
kongbu
xieshi
maxiu
guilei
bosi
bodong
bofang
chaoda
benxing
benlai
tuxiang
cunchu
waijie
basic
nanbei
lunti
lunzhe
miya
tuiwei
queren
wor
leiji
nashi
zhangxun
suzhu
nongzuo
shuiti
shuiwu
shuiwen
2002nian
tuoyuan
shengwuxuejia
##moer
luzhi
qianghua
chongfu
chongqing
wenxuejiang
daibiaotuan
yangshi
yangquyun
luohou
luoke
1995nian
1996nian
1999nian
##lanke
goujian
redai
##tuosi
aili
wenhuadageming
##ory
1917nian
1987nian
1908nian
genjudi
songming
##redai
peiyang
1973nian
1976nian
rongyu
taiyangfeng
179
heike
heilong
1969nian
tangchao
zixunxue
qinshi
ins
lve
150
nver
bianjiqi
koutou
weirao
pengzhang
gongxianzhe
paluo
fenbushi
biaoyanzhe
##roid
jinianri
zhuozhong
langman
qiaoliang
android
waibuxing
yidali
kuandu
wulunshi
##forma
shunxu
biangeng
caichanquan
senlin
shanghanlun
liandaigan
profes
##fice
##tional
##shengwuxue
xiaoxingxing
rixinshuo
renbenzhuyi
weineihe
wuquanxianfa
liuxuesheng
zhongshangzhuyi
jinianguan
jiaokeshu
fengyuxiang
shuiziyuan
vista
yintewang
jinxiandai
fanghuoqiang
situerte
02
0ban
45
400
52
57
55
56
77
7ri
90
al
ang
clang
ema
fun
gi
grou
hanguo
nya
ntian
nsun
pen
per
sin
tinei
vi
yian
##chui
##cti
##ner
##net
##go
##gi
##gin
##gnu
##ee
##am
##zei
##the
##sp
##sm
##ser
##puer
##bli
##ber
##bre
##ms
##hei
deyu
jixian
jida
jiwa
jilong
yihe
yiyu
yizhe
yichang
yimin
yiwan
yipi
shiyu
shizhu
shichu
shidu
shidang
shikong
shiba
xizhi
xiyuan
xier
xiyang
xiguan
xiban
xiluo
##lihe
##lilun
lishu
lijia
lixian
lidai
lide
like
lilie
##yilai
zhongjian
zhongding
zhixue
zhifa
zhiyue
zhibei
zhipei
zaixian
##zhiwai
heqi
hechang
hechuan
youhua
youke
youhai
youxiu
##guoer
##guozhang
yuzhi
yulun
yuxian
yusuo
renyi
renming
renke
renma
##qia
##qilai
##qimei
weishi
weier
weixie
weiming
qicheng
qigong
qicai
buyao
bulai
buliang
buzhang
zhuyou
zhuren
zheme
shedian
shejiao
keyan
kern
dizhong
dique
diceng
diba
ditie
dimao
dixiaolv
yanxi
yanjing
##tic
fajia
fayang
faguan
gongxu
gongying
gonglu
gongchi
daguo
dayu
dajia
daben
dazhan
dasuan
dapo
dageming
jinghu
jinggang
jingtou
chengzhen
zhengshu
zhengxiang
zhengduan
zhenggui
##shuai
churen
chuci
chuxin
geji
geli
gelun
gejie
gechang
gequ
##ger
shuwei
shuqian
##jiashu
jiexi
jiezhu
jiejian
jiemu
jieceng
zimu
##zhongjing
##zhongkai
##youqi
xingxue
xingge
xingming
xingbiao
wushi
wujian
wuda
eryi
erzhe
guogong
guowang
yinzhi
yinying
yinse
yinshua
huoxing
huoche
tongwei
tongxin
tongling
##era
##eryi
##haosi
beiji
beipo
jinshi
jinlai
jinpai
wendai
wenlei
wenjuan
##siding
##silu
##sion
##siduode
guti
gusuan
guchui
xianming
xianding
xianzhuang
yingbang
yingteer
fenfa
fenjie
fenfen
yetai
yelin
huwei
huyu
huzhu
hubu
hulve
bingxing
bingchuan
xuetong
xuejie
sunwei
sunhui
sunfu
sunke
##buwei
xitongxing
shengxing
shengfen
baoli
baowei
baojian
baodao
baozheng
baomu
fanguo
fangzai
fangmai
jianrong
jianpan
##zuolin
huiguo
huiyuan
huiwu
huimian
huitan
tiji
timing
suoxie
##deluo
fushang
yuanhu
yuandai
yuanwen
meiwu
meiri
##renkou
##kela
jiazhong
jiawu
jiari
dannei
danmai
##ria
203
jianglai
bisheng
jiaoyang
jiaojuan
bianshi
bianxing
xuqi
daoyu
daoyan
kexueyuan
##laishuo
ciju
ciqu
##lv3
laikan
##daguo
##jinshu
yongyuan
neizhan
neimenggu
dangzuo
shoushu
shoubu
gaiguo
juzhong
jiuren
fanduo
fanshe
fantan
haiyu
haiyao
haidi
haishen
zufu
shenwei
shenzhen
zonge
zongliang
congci
##bilun
##bimian
liangan
liangji
huatuo
guangfu
guangsu
guangpu
xiaoyi
xiaozhang
qingzhu
qinghua
qingdan
change
changjiang
zhengzhijia
##jiaoshi
zhuanxiang
zhuanwang
daiyou
gengming
gengzuo
gengdi
caokong
zaoyi
tianxiang
tianran
dongguan
dongdang
yaopin
yaoqing
gaoneng
mor
moli
moqi
moca
pingjie
pingmian
pingshan
2018nian
rishi
riyue
ribao
rizhishi
anpai
juede
junxiao
junhuo
##maha
xuanchu
shijimo
wanwu
gemingjun
handai
muqin
mukuan
sanwen
zhanyong
zhanmu
banquan
zhence
kongzi
xiexia
liuti
liucheng
nianjian
nianzhong
boxue
boli
bolan
bopuer
##les
chaochu
shengchanli
fenge
fengci
fengguozhang
babilun
touming
toupiao
duzhe
chuangxin
chuangkou
taneng
nanxia
xiandaixing
yinyuejia
mishu
misi
micros
tuili
tuilun
dianyingyuan
tiaoli
falvxi
zhangkong
zhangzhongjing
zhangzuolin
genji
genyuan
tuoxie
tuozhan
xunchang
puxian
yasuo
yamaha
luyouqi
qiangdu
piru
chongji
chongman
chongdie
huanghua
ribenren
canjian
ganshe
ganran
ganqing
yuyanxue
yanghe
yixueyuan
cehua
cedong
##gula
zhaoji
1992
1994nian
1993nian
laonian
laoling
nigula
nuojiya
wine
ranliao
maoe
faxuejia
yuanzihe
yuanziyu
liaozhongkai
##ore
juedingxing
juedinglun
aoli
aogu
aosilu
kaogu
1910nian
zhichizhe
1984nian
1983nian
1988nian
1902nian
1901nian
##meizhou
songjiashu
fenzishengwuxue
shanghaishi
chouhua
xiumo
1978nian
xingxiqun
xingxituan
1892nian
1897nian
177
heibai
1960nian
1961nian
hunxiao
hundun
kangri
qinfan
zhuanyehua
informa
hafu
1950nian
1956nian
renzhizhuyi
1920nian
1922nian
culve
menggu
sola
gongyehua
yalisiduode
kouchi
zhuiqiu
kuangwu
kuangchan
1940nian
junhengdian
diancibo
biyeyu
shuaifu
1879nian
sociology
1884nian
1888nian
chaojidaguo
##chongxing
##sasi
beifajun
chedi
chetui
zouxiang
##cts
gemingdangren
jinhualun
dianshitai
juecezhe
physi
shijiushiji
zongtongfu
1860nian
paoqi
##vice
sunyixian
zhouqixing
computing
mee
##peci
cehuixue
yiyaoxue
fouding
sundida
biange
kekaoxing
zixitong
chuizhi
nov
bulunshi
qianyishi
gamashexian
ameri
chuangshiren
kuaxueke
jiujinshan
shuijingguan
society
xigesiboshaizi
java
yilianchuan
budaode
sunjingxian
sunbaoqi
danbaizhi
simula
jiangzhongzheng
biyunsi
nongzuowu
shuiwuran
emacs
group
xierbote
xiluoduode
liliejun
kernel
chucizhiwai
american
39
34
3yi
386
42
4wan
53
54
65
72
700
82
83
87
86
97
ap
ab
bla
ca
ec
es
ehua
gis
gno
ima
kui
kde
lo
llv
log
mang
nao
on
ori
ole
pe
pri
pal
st
sy
sang
sao
ser
speci
xp
zang
zuan
##hy
##us
##ox
##omi
##cd
##ie
##idia
##nt
##ga
##geng
##esi
##fox
##lou
##los
##ak
##zuan
##zhui
##ten
##tter
##son
##29
##db
##dy
##der
##wm
##wor
##ry
##rai
##rti
##kb
##bje
##mang
##ych
##van
##44nian
##8yi
##0yi
##10
##50nian
##heyi
##hehui
deli
deming
debian
##aolan
##jihua
##jisuan
##jitao
jifa
jijie
jiren
jidi
jiran
jiduan
jimi
yitong
yifu
yixu
yilu
yijun
yiliu
yiaolan
shiming
shidi
shile
shifan
shichuang
##shinian
##shizi
xihan
xifen
xizhou
xima
xijun
xique
xihuan
xituan
xisai
##xiju
##xite
lizhi
liqi
liyuan
liding
limian
lihun
live
lieru
##yixing
##yiman
zhongzhong
zhongjie
zhici
zhizheng
zhidian
zhizai
zaisheng
zainan
hede
helei
hesu
youru
youbie
youlie
yuhui
yuye
yushe
yufang
renli
rencheng
renci
renda
renzao
renxuan
weixi
weiwei
weifen
weishen
weituo
qizhi
qifa
qidian
qisu
qiya
qimei
qiche
qicao
bucheng
buyong
bufu
bubi
buzhou
zhuxian
zhudong
zhushe
zhujiao
zhujue
zhujiang
zhuzhai
zhexiang
shell
keshi
keer
kefu
keshui
kefou
kelisideng
die
dis
di7
dizhu
didian
diquan
dire
yanhou
yanchang
##titu
fasong
falanke
gongzhi
gongjia
gongfa
gongshang
zhengxing
zhengtong
zhengru
zhengke
##zhujiao
chubei
geshu
gexiang
geci
gebai
##gelan
##gelang
shuyi
shulun
shuxie
##jiazheng
jier
jiema
ziwei
zijue
zigu
##zhongzi
##xiangchu
##xiangming
xingfu
wusheng
##chukou
erhou
erjin
guoli
guoyou
guoming
##fake
shangxian
shangwu
shangsu
shangceng
shangsha
yinxiang
yindao
yinshen
yanjiushi
yanjiusheng
huocheng
huoban
xiangyi
xiangqi
xiangjin
xiangrong
tonghang
tongdian
tongsu
tongbao
taren
##erlai
beisong
beidou
jinyu
jinyuan
jinren
jinping
jinxiu
jinchukou
wenxian
wenyan
##sike
##siman
guzhu
guren
gusita
xianwei
xianran
xianqian
xianqin
yingao
yingui
yinger
yingfu
yingde
yingdui
yingpian
yingdie
##wuyuan
bingqing
sunzhi
sunchu
sunyue
sunming
sunshou
dengdai
dengdao
dengxiao
denglizi
guandao
guanliao
##butong
##jieduan
xitonghua
##fushe
##fuluo
shengchu
fangong
fangjia
fangyuan
fangbian
fangeming
jianyu
jianmian
zuodao
zuozhan
huiji
huishi
huigui
tiqu
tijiao
##del
##dehua
##dula
fushi
fuyi
fujia
fuzuo
fumian
fuzhou
fuchan
furedai
yuantou
meide
meiren
meizhou
##renzhi
##ciation
##kexi
##kete
##keluo
jiajian
jiakuai
jiaruo
danci
lingxing
linghun
dianfan
zuihao
sili
sita
sibian
jiangu
jiangshui
bir
biqi
bieren
jiaoxiang
jiaoben
jiaoshe
jiaodian
bianzhi
bianzhong
bianding
bianbing
xumu
##yanghua
kaizhan
kaipu
daochu
kexuexing
kexuehua
##zhanzheng
##wenben
cixing
cihou
cishu
laidao
##jinqi
mingzhi
mingyu
mingwen
mingyun
mingchao
yongjiu
yongfa
neijian
neixin
neihai
dangnian
dangpai
dangnei
shouli
shouling
shouchuang
jushi
jubu
jubian
juqing
julie
jiujing
jiuci
jiuzheng
minyi
##leisi
qushe
fanxiang
fanyuan
fanmai
fankang
hainan
zuqiu
shenshi
shenming
shenshou
zongrenkou
congshu
conglai
##bit
##biya
liangqi
liangguang
huayu
huadong
huaju
guangxi
xiaoji
xiaohao
xiaoneng
xiaotiao
xiaomie
qingyi
qingjie
changyi
changcheng
changpian
yunshu
yunwen
yunchou
xiamen
xiamian
xialing
xiatian
duoyu
duoban
zhuanzheng
daijia
daibu
daidian
daijitao
caina
genghuan
teli
caoni
caozong
##laya
##latuosi
zaogao
##qianwan
tianfu
tianren
tianzhujiao
##tur
##ture
qianshe
qianding
qianlai
qianjin
qianneng
zhexueshi
yaoce
yaogan
yueshi
yuejun
yuepu
dingqi
dingju
quanyi
quanyang
quanquan
gaowen
gaoxiao
mojia
mozi
pingyuan
riqi
suixing
anli
anwei
anhui
juebu
juexin
junjian
junren
feiji
feizhi
feixing
feiman
wanxing
wanshang
wangguo
wangxiangchu
wangfake
181
huanqiu
hanwen
mul
mushi
sanlei
sanjiao
sanhehui
zhanxin
chuancheng
chuandi
chuanran
chuanshuo
chuantou
chuanjiaoshi
shuohua
shuowen
kongxu
maer
malin
mach
mazui
masite
mathe
guizu
liuyi
liuyu
liuliang
bohai
chaoxiang
chaodao
chaoliu
chaowenben
##bola
benti
turan
tuling
tufei
fengbi
waiwei
waijing
waike
waiceng
waimenggu
##muzhen
baxi
bazi
bada
dushi
duchang
duliang
liantong
lianjia
lianming
lianluo
lianjinshu
jiegouzhuyi
chuangkan
tanqiu
nanji
100wan
lunwei
##fanshi
mie
tuiyi
tuixing
tuisuan
quedian
tiaokuan
nayang
kending
zhangji
zhangzi
zhangbai
zhangbing
suzhou
nongchang
nonggong
nongwan
gena
##mann
shuiyu
tuofu
tuolei
yake
shengwuquan
##mon
luyi
lujing
lumuzhen
##xunhuan
qiangzi
qiangxian
##kaiguoer
huangjia
ganrao
zhishifenzi
shiqishiji
taowang
taotian
taozei
yangji
yangsheng
yangliu
luobote
ceding
##gua
zhaoliao
zhaopian
1994
##huoque
##neisi
paixi
paifang
paiqian
pailie
yizhixing
gouxiang
reli
zhoubian
xuezhemen
kanchu
kandai
kanqilai
aiguo
aibin
aimier
ailatuosi
zhiduzhuyi
zhuangji
zhuangbei
duanzan
aoer
kaozheng
##osh
miaoshuxing
baiwen
baijiazheng
haoji
ershisi
qiehuan
1909nian
diaoyong
jiqiren
chabie
chaersi
hongmen
##refox
suanxing
suanjian
maixiang
mailuo
maichongxing
peigen
huozheshuo
ouzhouren
choubei
manyi
xiuxi
xiubu
xiufu
xiuding
1975nian
1979nian
taiyangneng
1890nian
1893nian
17shiji
xilayu
ziliaoku
161
xinxixue
1962nian
1963nian
tangshao
tangxiangming
##bawm
youshihou
pipingzhe
zengzhanglv
hunan
hunhewu
lagelang
tuanjie
pojie
haian
1954nian
1953nian
1958nian
ganguan
gangmu
hangtai
xiangdangyu
1924nian
shenzhiyu
jingzhengzhe
pianhao
piancha
pinlv
liechu
lieju
zhexuejiamen
cucheng
mengnan
mengdesi
zhunxu
zhenjiuxue
kala
nvzi
nvidia
bianjizhuyi
youxiaoxing
weird
pengyou
panjun
pinglunzhe
jihelun
ruciyilai
yuehanneisi
jianchayuan
yisilanjiao
gplv3
000duo
000wan
zanyang
shuaibian
1930niandai
1939nian
comp
shengyulv
1871nian
1874nian
1882nian
1883nian
hanyixue
leixingti
qiaozhi
kuozhangxing
guxilayu
waijiaobu
kangdeli
kangdezhuyi
xianxingzhe
lanqiu
zhongzhiye
fuliman
##ogram
##ological
opera
ruishi
##thon
##viron
aerbote
aerfulei
souji
##nuosha
xiongdi
heigeerzhuyi
hobs
sheyingji
zidonghua
state
weihexin
yanzouzhe
nianqingren
interna
internet
fouze
zenme
yichuanxue
asso
diguozhuyi
jiasuqi
1857nian
sungai
taoyuanjun
acm
firefox
xijinping
dafudu
sundacheng
sibinsai
sibinnuosha
##ader
zhongxiyi
andelu
psych
phic
wil
yuangu
guazhan
qianxinian
sociologie
environ
qiadang
buzhuo
daxiyang
zuoqujia
biede
dongnanya
taipingyang
1789nian
lvyouye
agency
engesi
program
##obe
##penden
zhongnongzhuyi
ziwaixian
zishalv
huobusibang
ailike
institu
langmanzhuyi
nyadang
yiminju
##lihete
lijiatu
dizhonghai
dabenying
tongweisu
haishenmu
shenzhenshi
zhanmushi
huanghuagang
yangheling
aogusiding
solaris
physics
novell
llvm
orien
peter
palm
##teni
##jisuanji
ximalaya
heleidun
youbieyu
weishenme
qimeier
keerkaiguoer
gebaini
erjinzhi
gusitafu
dengxiaoping
kaipulei
masitelihete
zhangbinglin
aibinhaosi
ailatuositeni
baijiazhengming
mengdesijiu
aerfuleide
hobsbawm
association
1qianwan
38
35
300
3000
300duo
4g
43
4yi
5ri
61
66
600
600duo
73
75
70niandai
8yi
8wan
80niandai
94
9yi
90niandai
awei
ast
art
ch
cen
chai
cal
car
core
do
em
ele
emp
fli
fos
fed
hp
hist
ip
kb
keng
lk
nhua
or
ouni
pp
py
pla
pow
pet
ped
ra
rei
smi
shaizi
tun
tran
ur
ubun
va
wiki
who
zin
zhai
##up
##uage
##of
##om
##cl
##cen
##cra
##ii
##nm
##nai
##nes
##gun
##ft
##lo
##ld
##lm
##ler
##lor
##log
##awei
##ard
##akexi
##zeren
##tt
##tograp
##ss
##sk
##93
##24
##2yi
##rm
##rdai
##rna
##king
##pou
##buni
##12
##17
##here
dec
desi
debun
device
dependen
##aoer
##uou
jizhu
jisi
jiju
jike
jiding
jizu
jifen
jibian
jibie
yihan
yihua
yidu
yizheng
yijin
yizhang
yigou
yitu
yitai
yiling
yixun
yikuai
shixiang
shiyue
shisi
shizhan
shijin
shima
shize
shixia
shifei
shikai
shibing
shiya
shixuejia
##shiwan
xiji
xiou
xishu
xibu
xici
xiwai
xijiang
ximeng
##xuezhe
##unc
##xilan
##lixi
##liti
##liya
##lity
libu
lifang
liqing
lifanggong
ligo
libre
##yizhi
##yilun
##yiqian
zhonghou
zhongyong
zhongbu
zhongya
zhian
zhixi
zhizhu
zhihua
zhixian
zhifu
zhilei
zhibiao
zhimi
zhinan
zhikong
zaiyou
zaihai
##zhixue
##zhifa
##zhina
hesheng
heci
hejin
heqiu
hedeng
helan
heku
younian
youzhu
youtai
youyin
youhuo
youshui
yuji
yuwei
yuyou
yufa
yujing
yuxia
yugu
yufou
renren
renjiao
weifa
weiquan
weibei
weifan
weizhongzi
qixi
qichu
qiyong
qizi
qijin
qihuo
buji
buli
buju
buchang
buda
buguan
buliao
bujun
buluo
zhushu
zhuzi
zhufang
zhubian
zhuling
zhujun
zhuyin
zhumu
zhebu
keli
kelai
keluo
keyun
keshihua
dixiang
diyuan
dichu
dixin
diliu
digui
diqiao
yanan
yanqian
yanceng
yantao
##int
##tive
fayi
fashou
faguang
gongyi
gongchu
gongzheng
gongwen
gongjin
gongting
gongcun
gongzhuan
gongnong
datong
dayou
dayang
daying
dabai
davi
dazongtong
jingshi
jingyu
jingtong
jingxiang
jingju
jingdu
jingfang
jingcha
jingluo
jingpian
jingsai
chengyi
chengyu
chengxing
chengchu
chenghao
chengyin
chengqing
zhengqi
zhengyan
zhengbian
##zhuo
chuliang
chufang
chuzai
chulu
chupin
chudeng
chubing
chuxuezhe
##jianzhong
gede
gefang
gedui
geshou
gejue
gexuepai
##geyang
shuyue
shuming
shujin
jieyu
jiecheng
jieyong
jiezi
jieyue
jiedao
jieshe
jieran
jiejiao
jiemi
jielian
jiemeng
jiezou
jiepou
zili
zishu
zijia
ziming
zijin
zizhuan
##zhongguo
xingyi
xingxiang
xingzu
xingxiao
xingpan
wuji
wujia
wusi
wujie
wuju
wuyan
wuguan
wusuo
wuting
wuse
wuchanjieji
erhao
erzhan
erdeng
erbai
ernv
guoyu
guoqi
guoti
guohua
guoqing
##ziyou
##ziyang
shangxue
shangyi
shangyou
shangmian
shanggu
shangtuan
shangtao
yinan
yinyu
yinzi
yinbiao
huojian
huowu
huoxu
xiangnian
xiangtai
tongxue
tongxing
tongren
tongqing
duishou
duizhuang
duikang
taguo
tayong
talei
##ersheng
##erde
##eral
##haozhe
beier
beidi
beiguan
jinwei
jinhou
jinjie
jinzu
jinqian
jinling
jinsuo
wenluan
gucheng
gugong
gupiao
xina
xinyi
xinnian
xinren
xinxin
xinjiao
xinjun
xinping
##xianxing
xianjue
xiantian
xiankuang
yingshu
yingran
yingyin
fenke
fenmi
fenceng
yexin
huguo
hutong
hujin
hujiao
human
husaier
##wuju
bingji
bingfa
bingyin
xueyi
xuejian
xuejia
xueye
xueben
xuesuo
xuetang
sunji
suntong
sunzhu
sunxiang
sunfa
sunsi
sunjie
sundong
sunru
sunshang
sunze
sunxuan
dengyu
dengjia
dengguang
guanshui
guankan
shehuishi
##buji
##buzhi
##bubao
##fubai
shengao
shengsi
shengjing
shenggong
shengqian
shengbo
shenglve
baoan
baohe
baolin
baochou
fangfu
fangyan
fanghuan
##yanzhi
##changqi
jianru
jiandao
jianren
jianjin
jiance
jianbao
jianhuan
jiannan
zuoshi
zuogong
huichang
huishang
huitu
##ruden
tishi
tili
timu
ticao
##daohui
##daoti
##daofu
suoshu
suoxian
suoxiao
##degeer
##delixi
fujian
fuyou
fuyuan
fuchu
fubi
fulan
fugai
fuzong
fuzeren
yuannian
yuanyou
yuandong
yuanzai
yuanshou
yuanma
yuanshuai
jingjifa
meihua
meici
meida
##keer
##kelai
##kequan
jiashi
jiaxiang
jiayong
jiading
jiagong
jiaban
jiami
danti
danshu
danyuan
danni
dannisi
lingshi
diandong
dianjun
zuijia
zuidi
zuishao
zuizhuang
##rist
##ries
siduo
sisuo
sizhen
sikan
20nian
2050nian
jiangyu
jiangshu
jianghua
jiangyao
jiangsu
jiangping
biyi
biqiang
bish
jiaoji
jiaoyou
jiaowu
jiaocha
jiaopian
jiaotiao
bianti
bianyuan
bianyin
bianzuan
xuang
xujiu
xulie
kaixue
kaiqi
kaichu
kailai
kaiban
kaiduan
daohang
daotong
daojia
daolai
daodi
kexuexi
##dingli
##dinglv
lilunjia
##laiyu
##laiwu
##laixiya
ciyu
cixiang
##zufu
laibi
laijiang
lainasi
laibuni
##jinri
mingan
mingjia
mingsheng
minglu
minglie
yongdao
neihan
neijing
neidi
dangzhe
dangbu
dangjun
shouxi
shouzhong
shouxiang
shouxu
shougou
shoulu
gaiyi
gaiwei
gailun
gaiyao
gaikuo
juzheng
juris
##ham
jiuke
jiushen
rushi
qudao
fanti
faner
fansi
fanchang
fandu
fandi
haitong
haike
haishang
hainei
haishui
##dianzhong
##tation
chanquan
zuli
zudang
zumu
shenqi
shenhou
shenyuan
shenchu
shenke
shenzhou
shenpan
shennong
zongshi
zongshu
zongcheng
zongju
zongguan
zonggong
zongzhang
zongcai
congwei
douliu
##qiuxing
houji
houyi
houguo
houren
houbian
houteng
liangyu
liangping
liangbai
huayi
huati
guangzi
guangchang
guanggao
guangdie
xiaoli
xiaochu
xiaoer
xiaobufen
##shanmai
qingshi
qingxi
qingtong
qingdi
qingshao
qingtian
qingchen
changjiu
changren
changtai
xiashi
xiawu
xiaci
xiaqu
xiabiao
xiajianzhong
duofang
zhuanan
daiti
dailixue
daikuan
daigei
caixing
caiwu
##lution
lishiguo
lishizhang
jingjixuejie
gengdong
tech
caoyao
caodi
zaonian
zaoshou
##qianduo
tianxing
tianjia
qianting
qianwa
qiansong
zhexuejie
dongan
dongzhi
dongyuan
yaoyuan
yaofang
yuese
biaoji
biaoqian
dingding
quanzhi
quanmin
quanxin
quanlu
gaoxing
gaoshan
gaofeng
gaokong
gaoceng
gaotie
moer
mobuwei
pingjian
pingban
riqu
taiguo
taitou
taileisi
anna
anakexi
minzuti
juewu
junzheng
junzhang
##tailang
xuandu
xuanzhuan
feiyong
feier
feishengwu
feixite
feiziyou
henan
henshao
wannian
wanqu
gemingxing
gemingjia
fangfalun
wanglai
wangshang
huanan
huanqu
huanrao
hanshi
hanjian
hansi
hanren
hanleng
muban
sanji
santi
sanzhe
sanwan
sanfenzhiyi
##lingyu
zhanyang
zhandou
chuanzhi
chuanti
bandaoti
zhenxing
zhenxiang
zhenren
shuodao
konghuang
xiehe
xietong
masai
malaixiya
##yinli
guiwei
guizhou
liushi
liutong
liuxiang
liusi
liujing
liuri
liuwang
niandi
nianqiu
huaxuepin
boxing
boxun
chaowei
chaoxing
chaosheng
bentu
tushu
tuchu
tuhua
tubiao
fenxixue
cunfang
fenghan
fengzhuang
waihe
waihui
waibiao
bashi
baguan
bamian
bafuluo
duwei
dudu
lianxiang
lianxian
liansai
jiegouxing
chuangyang
tanhua
tanlun
tanwu
nanhan
nanmeizhou
108
10yi
lunxue
lundian
mit
miji
zengyi
tuiju
tuiduan
tuina
tuixuan
tuichong
quexian
quesheng
querdai
woer
leishe
leida
tiaowen
nali
nazhong
nami
national
zhangjian
suzao
sugelan
ziranshi
nongli
nongtian
general
##miu
##mande
daxuesheng
shuili
shuicheng
shuiliang
shuishou
shuixunhuan
2000
xunshi
xunzheng
xuntian
publi
yadian
yatai
yabola
luxiang
qiangli
qiangguo
chongjian
chongxian
chongshen
chongchi
chongbai
wenxuejia
linye
##niu
huangfu
huanghai
huangmo
huangmiu
daibiaoxing
canmou
ganbu
ganzao
tongyixing
taocheng
taoyong
taoci
yangyi
yangzhi
##yajie
luosi
luobin
yixuejia
suoyouquan
jiushishuo
##guai
zhaogu
zhaoziyang
laohua
nix
niang
nicai
118
chizi
paicheng
paichi
nuoyiman
##one
##mengjin
ouhe
ouyuan
yizhiyu
##line
remen
reliang
reqing
refushe
zhouji
zhouwei
zhougong
zhoumo
aiding
aisen
aisake
aidehua
aihaozhe
##puyi
duanjue
aozhou
aomiao
baifang
baifen
baikequan
guanchazhe
1914nian
1918nian
guangzhoushi
haoqi
haochu
haowu
haozhao
haolaiwu
1980nian
menlei
jiazhiguan
songdai
diaoyu
gongnengzhuyi
jingshenbing
hongbao
hongxiu
kuochong
##fengjian
qiyijun
chenqimei
zengjiazhi
gongchandangyuan
shaoguan
maili
maimai
peiyu
yilaiyu
tongjixuejia
xiuzheng
1970nian
1972nian
1977nian
rongliang
ronggong
xingxihe
172
176
fuwuceng
xilahua
xilaren
164
160
16shiji
hudonglun
1965nian
1966nian
tangdai
shandi
shanqu
shantou
gongchengshi
lamp
lixingzhuyizhe
inf
lvguan
politi
har
hasake
1951nian
1957nian
1959nian
gangti
gangling
ganggan
hangye
office
tingzhong
zunao
zunzhong
1921nian
1927nian
1929nian
kuaile
jingzhengli
dongwuxue
quanqiuhua
gonglihui
pinfu
pinkun
lieyu
mengyou
pubianxing
laodongsuo
niuqu
niuxilan
shangyehua
kahong
disanfang
daqiquan
dituxuejia
tiezi
zonghexing
zhuisui
pengji
yiweizhe
shuangbian
133
pau
bukehuoque
##kasi
qiuling
kaifangyuan
pinglunjia
1945nian
1948nian
shenmeyang
##rome
zhizaoye
zhizaoshang
zhuoshou
yinduzhina
bolatuzhuyi
30yi
kunqu
language
zanyu
zantong
zancheng
zhuzhongyu
shuailing
shuaitui
1931nian
1936nian
dingweifu
chouxianghua
5000
500yi
500wan
##rder
zhengquexing
wuxiandian
social
kuaguo
kualingyu
shengtaixue
cuisheng
lifazhe
gongshiguan
xinwenxue
xinwenzu
huaihe
dianjiren
bianzhengfa
laiyuanyu
wazi
wajie
youxiji
zongdufu
yalishiduo
chezhan
zoushang
lanyong
lanse
shizhijinri
zhixiashi
xiangfandi
sifaguan
##ologie
php
sate
hepingjiang
jingquexing
1864nian
1866nian
1867nian
zuizaoqi
aertuo
bincheng
binhai
exp
minglingxing
turing
goumaili
709
hood
lieningzhuyi
dishiba
yanshiquan
803
stage
stall
xiangxiangli
yanghuashu
##denawei
youyisi
kejianxing
jiasudu
changdaozhe
juedabufen
1854nian
acup
proje
qiongjiu
dalishi
yingpingzhe
juxianxing
tiaozhanzhe
huaiyizhuyi
free
shiqianshi
zhongxibu
fangyingji
andesen
1830nian
##mierdun
ladingyu
ladingwen
nvxingzhuyi
geographic
geographical
yuangong
weiwuerzu
wukebimian
xiangshanxian
suozaidi
shouhengdinglv
hanminzu
akuina
rom
rouyan
jifengqu
shisuhua
zhimindi
hejishu
beikelai
zhanyoulv
advan
adobe
johan
bulusaier
dafangmai
wenbingchen
sundeyou
sundezhang
fangshexing
sitanli
biannianshi
kongbuzhuyi
shuiwenxue
heilonghui
heilongjiang
profession
git
pendi
shibashiji
xibanya
bulaike
gongyingshang
jinggangshan
gelunbiya
meiwufu
jiawuzhanzheng
tianranqi
laolinghua
kaoguxue
information
386bsd
app
black
gnome
imagin
sym
zangzu
yiaolanni
livecd
falankefu
dengliziti
fuzuoyong
sitaman
xumuye
hainandao
liangqichao
anweiji
chuanranbing
maersasi
tufeimengjin
tuoleimi
luyisi
tangshaoyi
haianxian
mengnanji
environment
programming
oriented
4gb
chrome
cartograp
empty
lkm
ounixiusi
python
power
reiser
smith
ubuntu
##office
debunking
yitaihua
shizhanlv
zhonghouqi
gongjinhui
david
jieranbutong
wusuobubao
taleibo
hujintao
dannier
sikandenawei
jiangpingren
bishop
laibixi
haineiwai
qingshaonian
yuesefu
anakeximande
boxunhao
bafuluofu
querdaizhi
yabolahan
canmouzhang
aisenke
hongxiuquan
political
acupunc
projects
sikandenaweiya
05
06
1wan
1moer
2yi
3wan
4zhao
40niandai
4000
5yi
5wan
69
67
6shi
650
79
71
76
7wan
99
98
9shi
950
au
aji
abu
afu
ake
alei
abi
amo
alan
act
apa
arti
bl
bs
buan
bun
cs
cp
c6
cou
cli
cin
csa
cros
dv
dri
ef
edu
ewai
epi
eth
ebsd
fai
fran
fuer
g2
gru
gfs
gdb
ht
if
it
id
iee
jou
jfs
kor
luan
mv
mer
met
muni
muou
nx
nang
nun
nli
nqi
niao
nfs
oc
ola
one
obje
pou
pruden
run
rna
sd
sk
sue
sanguo
th
tc
thi
tbeier
teren
tuni
trai
ung
usen
vx
van
vol
ww
xs
##hn
##ur
##ok
##ola
##ods
##ority
##oria
##ction
##clatu
##cop
##cine
##ig
##ia
##illa
##nuan
##nop
##gal
##ew
##eer
##edai
##ff
##ls
##lde
##lle
##ax
##as
##ali
##atu
##zun
##zeru
##tran
##ton
##tor
##sing
##sou
##sin
##sci
##ste
##ster
##snes
##32
##3yi
##dl
##dw
##duer
##rs
##rang
##rdu
##keng
##pang
##pli
##pha
##phere
##by
##mse
##muni
##mber
##vel
##46
##45nian
##88
##01
##00nian
##14
##67
##angong
##hecheng
##hers
den
dexi
defen
demo
devel
##hushu
##husi
##aier
##aoduo
##uoke
##eier
##eiman
##enian
##enlai
##jiong
##jier
##jiyun
##out
jiong
jixue
jili
jijing
jiqu
jiquan
jisu
jishang
jiqian
jishen
jimu
jijiang
jiya
jipu
jitan
jidiao
jiruo
##henghui
yinian
yihui
yichu
yizi
yier
yiyan
yiye
yizhan
yizu
yiguan
yiqiu
yibi
yizai
yibei
yidui
yize
yipai
yibo
yibing
yise
yicun
yizhen
yilasi
yimann
shixi
shicheng
shizi
shizhe
shisheng
shijing
shike
shiduo
shimin
shixu
shijiao
shizai
shiquan
shishang
shicha
shiliao
shiliu
shinei
shichuan
shifeng
shizhen
shisun
shitou
##hongyi
##hongjing
##hongxiu
##shishi
##shihou
##shichu
xixi
xili
xijia
xizi
xijie
xifu
xiru
xiyao
xiri
xixin
xixiao
xigao
xiqun
xijuan
xipa
##xueshe
##xueliang
##xuetang
##xipai
##xibao
##lixing
##lilai
##lida
##liwai
##lite
##liza
##liam
##lism
lizhu
liyue
liming
liyan
lijing
liye
lida
liqian
lixia
liman
lipu
lilve
liter
lipeng
litter
licen
lilo
##yinian
##yishu
##yiju
##yichuan
zhongjiu
zhongyuan
zhongsheng
zhongzheng
zhongchan
zhongtu
zhongpai
zhongjiang
zhongfei
zhongxun
zhonggu
zhongnan
zhongcai
zhongzhuan
zhiheng
zhiguo
zhiti
zhixiang
zhiyong
zhilun
zhizhe
zhibu
zhidai
zhijing
zhiren
zhigong
zhizhang
zhibi
zhipin
zhipai
zhiqing
zhinei
zhishui
zhifeng
zhicai
zhipian
zhisong
zairen
zaipei
##zhijian
##zhidong
##zhijin
##zhilu
##zhiqian
he2
he1
heian
heshi
hewei
hetong
hejian
hexiang
hebu
heju
heri
heguan
heshang
heqian
hewai
hema
hehuo
heshui
hekuan
hebote
hehecheng
youzhi
youwei
youshu
youjiu
youhao
youju
youlai
youliang
youdian
youwan
youpai
##weishi
##weiyou
##weier
##weiye
##weizhan
##weiwang
##weihuan
##hanmo
##guoji
##guolian
##yulin
yuxi
yuguo
yuyu
yujian
yuwen
yuzhuang
yugai
yushui
yuguang
renan
renjian
renxin
rennao
renzhen
rencai
##qishi
##qiwei
##qishu
##qifang
##qigu
weishu
weicheng
weixiang
weifu
weichang
weici
weike
weiduo
weita
weijiao
weihai
weixiao
weite
weilie
weimiao
qixue
qiyou
qiwu
qidao
qici
qixu
qilei
qiqiu
qiting
qibing
qixuan
qirui
qieru
##huifang
##houn
buyu
buxing
bufa
buxie
budeng
bulie
bugu
bugui
bulao
buchong
butie
busin
zhua
zhushi
zhunian
zhuchu
zhufu
zhude
zhujin
zhuxu
zhubi
zhuzai
zhuban
zhusu
zhushou
zhewei
zheshe
sheqi
kezhi
kehou
kesi
kejie
kezheng
kexin
kechi
keceng
kelao
kelisi
diu
di3
di4
dixi
dijian
dijiu
diyue
diming
dide
diwen
diguan
disu
dibian
diwai
dilian
digu
dizhen
dideluo
di29
##tongjian
yanhu
yanli
yanxing
yanyong
yandu
yanke
yanshe
yanzhan
yanlei
yanjun
yanchi
yanse
##tia
##tik
fali
fashu
faren
faliang
faduan
fajue
fagui
fakan
fakuan
gongan
gongjian
gongyue
gongdu
gongshe
gongqu
gongfen
gongdang
gongqing
gonggao
gongzhen
gongsun
gongtang
dag
dati
dajian
dage
daxie
damen
dada
daxin
dagong
daban
datu
daqing
daya
dadan
dagai
dapei
dapi
dasha
dakuai
dalang
datal
dalou
jingong
jingxue
jingxi
jingti
jingjian
jingwu
jingci
jingtai
jingxiao
jingzhun
chengxi
chengxiang
chengwen
chengxiao
chengdan
chengchuan
chengbang
zhengui
zhengwei
zhenghao
zhengjin
zhengjiao
zhenggu
zhengtan
##zhuxi
##shushi
##shukan
chunian
chuzhong
chuqu
chuxu
chufen
chufan
chugu
chushihua
geo
gejia
geyuan
gechu
gebu
geben
gell
gelao
gewuzhi
geaoer
gezhixue
##geshiji
##geology
shuxi
shufa
shudi
shumu
shuqing
shubai
shusan
shusun
shuku
##jialai
##jiabao
jieli
jieyi
jiedu
jiejing
jieren
jiela
jiebao
jieqia
ziyan
zici
zidi
zimian
zibian
zixuan
##zhongyu
##zhongyao
##chengshi
##xiangxing
##xiangguan
##youli
##youyinli
xingjian
xingsheng
xingguan
xingsu
xingbian
xingqing
wuyong
wuzi
wuru
wude
wujing
wuren
wubi
wucha
wushen
wuxiao
wumu
wuxia
wudeng
wupei
wupan
wuzhengfu
##chuo
##huaji
##huaren
##huajiang
erji
erwei
eryu
eryue
erbu
ersheng
erlei
erban
ershou
eryanghua
guoge
guojie
guochang
guosheng
guowen
guochan
guoku
##faxue
##zibing
shangyong
shangyan
shangliang
shangying
shangqian
shangwang
shangxia
shanghen
shanggeshiji
##yuehan
##yueqi
yinhan
yinxing
yinyuan
yinbi
yinxiao
yinmu
yinqing
yinbing
yanjiuguo
yanjiuguang
yanjiuchun
huoyun
xiangwei
xiangyu
xiangzhu
xiangshu
xiangjia
xiangshang
xiangtu
xiangcha
xiangshou
xiangdeng
xiangcun
xiangzhuang
xiangchuan
xiangzhen
xiangku
tongyu
tongyuan
tonglun
tongban
tonggui
tongku
tongpi
duiwu
duizheng
duifang
duinei
tachu
taer
taru
##eryu
##erchu
##erzhe
##erfu
##erwen
##erchi
##erxia
##erman
##ersen
##eration
##erlasi
##erjiya
##ermengde
##erno
##eryouli
beiou
beishe
beida
beishou
beiwang
beiping
beifei
beibing
beixuan
beixiju
jinuo
jinji
jinyi
jinzhu
jinyong
jinye
jinshen
jinpu
jinzhuan
jincui
jinkui
wenhe
wenshu
wenzhong
wenfa
wenren
wenwen
wenlai
wennuan
wenjiabao
##sibi
##sima
##siluo
##siku
##sika
##siona
guyi
guyu
gujia
guyuan
gudong
guju
gudu
guci
gushou
gutai
gufei
xinei
xinshi
xinhan
xinjian
xinjin
xinqu
xintai
xinbai
xinbao
xianhe
xianji
xianqi
xiancheng
xianchu
xianren
xianzheng
xianzu
xianlu
xianshui
xiannv
xianlilun
xianeryi
xianjieduan
yingyou
yingjie
yingyang
yingmu
yingbai
yinghuo
yingyun
fenshu
fenxiang
fenye
fenbian
fenshui
yeti
yesheng
yejin
yexu
yesu
yekong
huli
hucheng
husheng
hudu
hujing
hukou
hushui
##wuyi
##wusheng
##wude
binghe
bingshi
bingqi
bingzhong
bingxie
bingju
bingru
bingdu
binggong
binggou
bingbian
bingtai
bingcun
binghuan
bingkuai
xueji
xueqi
xuezhu
xueyou
xuehua
xueming
xuelai
xuequ
xuetu
xuefei
xuechao
sunxue
sunli
sunxing
sunshu
sunjia
sunyuan
sunhao
sunxian
sunyan
sunzuo
sunshe
sunzu
sunjin
sunying
sunqiu
sunyin
sunfeng
sunzhuan
sunmiao
sunsui
sunkaishi
sunhenghui
dengzai
dengshang
dengyin
dengzeru
guanhua
guanzi
guanying
guanshang
guanjun
guanbing
guankong
guanche
shehuixing
##bulu
##buduan
##bujue
##buxiu
##jiegou
##xieer
##mingtang
##fuka
##dongni
shengge
shengchang
shengdi
shengban
shengxiao
shengxia
shenghuifang
##juquan
1900
baoshi
baoyu
baoyou
baolu
baoshou
baojun
baomi
baobao
fangai
fangyu
fangwu
fangren
fangke
fangcha
fangfan
fangtan
fangsong
##yanyuan
##yanren
##shengji
##shengyu
##shengdun
jianhu
jianxing
jianshu
jiandi
jianbian
jiandui
jianbie
jianqing
jianmo
jiankong
jianeier
##zuozheng
##zuofei
zuoxing
huixiang
huihua
huifa
huisheng
huizu
huizhang
huisu
huite
huikuan
huikui
huihuai
huimie
##ruhe
tixing
tiqi
tifa
tizheng
tihuan
time
tianguo
tivo
tiangong
##daolv
##daoqu
suoyin
##ded
##dewei
##delei
##dehai
##degang
##dezhuyizhe
##delaishuo
##duct
##jingti
fud
fur
fuqi
fuge
fuhua
fufu
fudai
fudu
fuyao
fuye
fuyang
fuwen
fujue
fufei
fuse
fuchuan
fusun
fuqiang
fulanke
yuanxi
yuanchu
yuanbu
yuansheng
yuanjing
yuanzheng
yuanbi
yuanmo
yuanchao
yuanpei
jingjishi
meishu
meiguan
meidang
meitian
meimei
meitan
meinade
##renlun
##cil
##ciji
##keji
##keshi
##kefu
jiaqi
jiazhu
jiaju
jiajing
jiaci
jiashen
jiagu
jiachuan
danzi
danfang
dandang
danxia
danche
lingli
lingzhang
lingdang
lingshou
lingmu
linggan
##mental
##menclatu
dianchang
diansheng
dianwen
dianwang
dianbao
diansun
dianruo
dianjingti
##benni
zuixing
##rical
##duowan
siji
sishi
sixi
sizhe
sihao
sike
sifang
siqu
siling
site
siyin
siku
sichou
sifenzhiyi
simoer
sidegeer
204
20duo
20niandai
jianghu
jiangshi
jiangli
jiangzhi
jiangfu
jiangdao
jiangwen
jiangling
jiangze
jiangwang
jiangpai
##zhengzhuyi
bit
bihui
bizhong
bier
biyan
bijing
bimen
biding
bizu
bijin
bilei
bibei
bidui
biduan
bizhao
bixiu
bideluo
jiaofu
jiaolv
jiaoda
jiaogong
jiaota
jiaotu
jiaogei
bianli
bianzi
bianhao
bianjing
bianhai
bianlie
xujia
xulun
xuzhou
xushen
##yangjie
kaicheng
kaimu
kaituo
kaicai
kaiken
kaierwen
daoju
daodan
kexuelun
kexuejie
lilunjie
yigege
##wenxiang
##laier
##liangwei
cinian
ciyuan
cichu
cidai
ciyao
cici
cixu
cisha
lailin
##dal
##dalin
##jinyu
##jinyao
##jinsen
minge
mingong
mingxue
mingxiang
mingfa
mingbu
mingwang
yongxian
yongxu
yongdian
yongle
yongbing
yongshui
yongfengjian
neiyin
neitian
dangyi
dangcheng
dangchu
dangzheng
dangzhang
dangxuan
shouhui
shouke
shouqu
shouzhang
shouce
shoubei
shoulie
shoulian
shougao
shoukuan
gaiyou
gaixie
gaiming
gaidang
gaijiang
gaizhuang
juzhi
juyu
juci
juduo
juguan
jule
jubao
##haian
##dicine
jiuji
jiuyi
jiuge
jiuyuan
jiuhao
jiusuan
jiulu
rudang
rumeng
minzhi
minzhe
minzheng
minbing
mintuan
##leiwuju
quyi
quzhi
##rand
##xinli
##xinjiang
fanan
fanji
fanhan
fanyu
fanshu
fanzhong
fandong
fanju
fansu
fanbo
fansuo
fantian
fankui
fanmang
haier
hailu
##dianying
##tag
##tage
##tazhou
##tative
chanming
chanke
zuai
zuji
zuxue
shenli
shenxing
shenhui
shenzhu
shenxiang
shenzhe
shensi
shendao
shending
shenxin
shenkuo
shenshen
shenceng
zongji
zongci
zongchan
zonglu
zongshui
zongeryan
zongduer
zongdelaishuo
##ced
congbu
congye
conggu
##bia
##biang
##bile
houzi
houdai
liangong
liangshi
liangjie
liangdan
shiyongzhuyi
huali
huawei
huaguo
huaxing
huazhong
huayuan
hualun
huajie
huagong
huabei
huaxia
huashengdun
guangai
guangyu
guangxu
guangdian
guangqiu
guangkuo
guangxia
xiaodu
xiaofang
xiaoxin
##zhouwei
##shanda
##shanshanmai
qingjian
qingdao
qingren
qingshan
qinghai
qingmo
qingbao
qingsong
fazhanshi
fazhanzhongguo
changxi
changwei
changshu
changge
changjing
changzu
changdi
changtu
changbei
changtan
changsha
yunji
yuncang
yunnuo
xiahua
xiaban
xiatai
xiaxun
xialie
xiashui
nengdong
##dangran
zhengzhiju
##jiaohu
duoda
duobian
duolizi
duodezhuyizhe
zhuanshu
zhuanyong
zhuanzhe
zhuanchang
zhuanru
zhuanke
zhuanfang
zhuanqian
daizhi
daifu
daizu
dailing
daishuji
caiyuan
caifa
caifen
caice
caijun
##lum
lishiguan
lishizhen
lishiduode
gengzi
##suse
jisuanqi
tea
tequ
tekan
caokun
##lafu
##labang
zaozhi
zaosheng
zaori
zaoyin
tianbu
tiandi
tianxia
tianchun
zhengfujun
##tusi
##tuliang
##tupai
qianli
qianzhi
qianzhan
qianqiu
qianze
qiansuo
zhexuexing
dongyi
dongjian
dongjie
dongliang
dongzhou
dongjiang
dongyixue
yaoji
yaoshi
yaoxue
yaofa
yaoju
yaome
yaolve
yaogun
yueli
yueyu
yuequ
yuebei
yueting
biaoge
biaoyang
dingyu
dingxiang
quanxian
quanxia
quanceng
quanpan
guojiazhuxi
gaozhi
gaoguo
gaosi
gaojie
gaoming
gaodi
gaotai
gaobie
gaoya
gaoerjiya
gaokeji
monian
mode
mofang
mofan
moell
mosike
mobile
pingshi
pingju
pingxin
pingshen
pingfan
pingluan
2016
riji
rizhi
riye
rizhao
risun
rich
taixi
taishang
taiyishu
shuxuehua
suixuan
##beilun
anxing
anti
andi
anqing
annan
andongni
minzuzhi
jueze
juelie
junyu
junqi
##shouru
##shoudao
##mac
##make
##mazhou
xuanji
xuanxue
xuanshu
xuanxiang
xuanzhan
xuanlv
xuanmin
xuanbi
xuanshou
feihang
feizhu
feifa
feiwu
feiren
feiliao
feichuan
feituo
feishui
feitan
feiqin
feizhengfu
feimie
feignu
feixianxing
heneng
wanweiwang
wanyouyinli
wangong
wangshu
wangdao
wangzhao
1844nian
huanhe
huanwei
huancheng
huanyanzhi
hanliang
hanfang
hanmierdun
muxing
muhou
muye
muxiao
music
muhanmo
sanyue
sanhao
sandian
sanzhou
sanbai
sanweiyi
sanjieduan
sanfanshi
zhanxing
zhanshu
zhanchu
zhanshou
chuanqi
chuandao
chuanlai
chuansong
bank
banjing
banku
bankuai
bandula
banshichu
##xiaoyu
zhencheng
zhende
zhenci
zhenfen
zhendang
zhenliao
shuocheng
shuofu
kongyu
kongdong
kongqian
kongjun
kongshoudao
ziyoudu
renleishi
renleixuejia
xiecheng
xiedai
xiezheng
xielin
##telei
##tela
##junwu
mar
maʔ
mazu
machi
maya
madou
majiya
mart
masiluo
maxieer
makeshi
majunwu
##wangxing
guiji
guixi
guijie
guiju
guiru
guiguan
guigong
guibi
guijun
guilin
liufa
liuwan
liuceng
nianxing
nianbiao
nianxia
niannei
niantou
boai
boji
boyi
bohan
bohui
bozhe
bowu
bochi
boluo
boot
bowuyuan
##ley
##luohe
##luotai
##wanwu
##wanshui
chaoshi
chaoxi
chaoye
chaozhou
chaoting
chaogao
chaoziran
chaoxiaoyu
##bos
##boli
##bolatu
benji
benyi
benshu
benjie
benke
benmo
benshiji
benzou
tuxue
tuxian
tumu
tujue
fenxixuejia
cundang
cunkuan
fengxing
fengjian
fengke
fengjin
fengre
fengsun
waizi
waiduan
wailiu
waihuan
##musen
##musiji
bahu
bafa
bake
bagong
bala
bagang
baguolian
baleiwuju
touxian
toushe
touguang
duyou
dusheng
duqu
duzou
dushihua
liane
lianxing
jiegouzhuyizhe
chuangei
chuangzhi
chuangzhong
ruanjianbao
tanyue
tankan
tanzang
mouyang
mouqiu
nanxi
nandu
nanyang
nanfei
nanya
nanchao
nansong
nannv
nanqishu
xingweizhe
guanxiu
guanxia
yinyuexue
yinyuejie
yinyueju
yinyueting
102
104
106
10wan
lunshi
lunzhan
lunchuan
##xiazi
mid
mibu
mixie
mide
miyao
milei
mimou
zengjian
zengliang
zengda
zengsong
zengqiang
zengzufu
tuiyan
tuijin
tuice
tuishou
tuixiu
quedu
queqie
shejishi
woxiang
leishu
leibie
leilang
leiweiqi
tiaodong
tiaokong
zhongyibu
zhongyixuejia
nas
nahui
nalai
naduan
natur
naur
kendi
zhangxiong
zhangnv
zhanghushu
zhangxueliang
zhangzhidong
zhangwenxiang
zhangliangwei
suqu
suqiu
sujiao
sucai
susong
subje
susiman
ziranshu
ziranfa
nongdu
nongyao
nongzhuang
genian
genus
##miai
##mide
##miliu
##manren
shuixing
shuidao
shuiquan
jishuxing
wulixuezhi
wulixuejia
2002
2003
tuoxian
tuoye
tuoguan
tuopu
xunhang
xunhui
xunwen
xunchi
pushi
puyi
puming
pudong
pulin
puluotai
##feilei
##feierde
yundongxue
yazhi
yage
yazhong
yamen
yadi
yalu
yate
yaredai
##liushi
##liuchang
##baijia
##bairi
luqu
lusuo
luxun
luxiangji
lukasi
ludewei
lumiai
qiangxie
qiangzhan
qiangying
qiangpo
qiangeryouli
##lied
pie
piqi
pier
piye
pici
pica
piyajie
piaier
chongqi
chongshang
wenxueshe
linjin
lindi
linmu
##nie
##nide
huanghe
huangshi
huangyou
huangtu
huangse
huangmingtang
chengshihua
yibaneryan
yibanlaishuo
cano
canhou
canshu
canhai
canjun
canzhao
ganai
ganhan
ganxing
ganfu
gandong
ganmao
zhishilun
tongyiti
tongyilun
guominxing
taotai
taohongjing
yangai
yangdu
yangren
yangsan
yangmao
yangshukan
luoyi
luoti
luojie
luonade
luoxinjiang
suoyouren
celu
ceping
cezhongyu
hengduan
zhaoshi
zhaosheng
zhaoshang
zhaomu
zhaoxiangji
xijuxing
xijujia
1997
1998nian
laoli
laolun
laoren
laoban
nike
nipo
nizhuan
nirenlun
zhezhongxinli
##tiancun
111
chize
chichi
childe
chidaoqu
huodongjia
paiyuan
paihua
paisheng
paixu
paibie
miaozu
miaomo
miaozhun
ransu
randy
##ons
##onomi
jiaoyuzhe
mianshi
mianyi
mianyu
miancheng
miantan
mianqiang
maosi
ouji
ouran
oulu
oumeng
yizhizhuyi
##zhuangwu
faxueshi
ref
rexin
relie
revo
regi
zhouli
zhoudai
zhoudao
zhouchao
zhouenlai
##dunjie
kanwu
kanlai
kancha
kandeng
kansasi
kaneiman
aier
ailisi
aidaohui
aizibing
aisiku
##put
##puxun
##pulasi
yuanzituan
gongzuoyu
gongzuozhan
wenhuaquan
liaoguo
zhuangong
zhuangzu
zhuangda
##shuiqu
##ora
guojihua
guancetian
duanwu
duanluo
duankou
duanque
duanlian
rangdu
##med
##mela
aojian
aomi
aoken
kaohe
kaobei
zhiyiqi
zhiyizhe
baishi
bainian
baidu
baixipai
yuzhouxuejia
gudianshi
120
1916nian
guangzhoufu
diershi
dierduo
1983
1982nian
1906nian
banbenhao
menwai
chulichang
jiazhilun
songyuan
songci
songsan
guanliyuan
diaoke
diaowen
diaosu
##ogy
jingshenke
##ware
##pot
jingyanxing
jingyanlun
chajue
chaxun
hongyang
hongjun
hongnei
kuosan
##ret
##res
fenzijiegou
suanchu
suanzuo
suanpan
##fenge
##fenggong
nongyeyong
##lves
shanghaigang
chenbao
dulixing
gongjubao
shaohou
jilupian
gongjimian
yongyouzhe
maike
maifang
peitong
peibei
peidui
chouban
chouhen
manage
##qundao
1974nian
taiwansheng
ronghua
rongye
rongxu
rongqing
rongna
##tuandui
gongyuanshe
1890niandai
1899nian
1898nian
173
170
heiti
heixiazi
fabushang
fuwuye
##zaju
xianshizhuyi
162
163
liangzili
liangzitai
yisidun
1969
1963
1964nian
tanger
tangyao
tanglv
tangmo
tangsen
tangnade
tangmusen
tangpuxun
pipingjia
shanchu
shandong
shanman
chengzhanglv
makesizhuyizhe
chuanglizhe
hunhou
hunyin
hunweiyi
kangfu
kangzhan
kangkai
lasi
lawen
laqu
laka
latupai
lapulasi
tuandui
jishizhe
qinyou
qinzi
qindai
qinren
qinding
qinzhou
qinling
qinchao
colle
inde
input
lvxing
lvke
lvshe
poshi
posi
podu
pochan
pohai
poque
ruodian
ruojiaohu
##chenqimei
anquanxing
maoyiqu
cuozhe
cuozong
habo
hami
haermengde
##uerba
1955nian
1952nian
gangji
gangkou
gangqin
gangtie
hangcheng
hangdao
hanghai
hanglie
tingren
tingzhan
tingshuo
tingjue
tingdun
zunchong
1926nian
feichangdazongtong
chunjie
chunxia
chuntian
quanguoxing
gonglihua
pianyi
pianduan
pinyong
pindao
pinyin
lieshi
liefu
zhuyili
dianzixue
cusheng
mengdi
mengte
mengeer
##tions
yinhangye
yinhangtuan
laodongjie
chengdushi
bangong
bangji
##qinna
difangzhengfu
baohufa
baohuqu
##shaqundao
xueshenghui
fanduizhe
zhenjiuke
158
1500
kafei
kasite
kalaier
sop
sozi
solida
gongyeguo
yalishanda
140
kusa
nvquan
##ram
##raham
yanhualun
chubanshe
lingdaozhe
sulianyuan
theory
themse
##old
dituxue
guofulun
tieqi
tieshizi
tieqinna
minzhuhua
kouwei
kouyu
kouhao
kouliu
kouchuan
zhuiji
zhuidao
zhuiwen
zhuizong
faguoren
fusheceng
pinghengdian
luojixue
yijuhua
zhiwuxue
youxiaolv
weiruo
xingzhengquan
shuangtou
huobizhuyi
xinyangzhuyi
130
136
13shiji
pack
pamier
parti
pasika
pamela
##cho
##cht
##chte
##stri
deguoren
bukebimian
bukefenge
pansuan
panjue
panzhun
panluan
xibaoxue
qiuyuan
qiuzhuyu
xukequan
chixuxing
jihexue
weihuqiwei
qishidian
1944nian
1947nian
duozhongxing
teshuxing
250
yanchuzhe
jiejifenggong
diancili
guangyihua
yuehanna
guifanxing
##rogeology
renwenzhuyi
jianchaguan
nanjingshi
gps
jijixing
jinianbi
jiniantang
21shiji
##llo
##lls
jindaishi
biyesheng
300nian
kunchong
langdehai
zaji
zaju
zanshang
zanliu
zancun
zhongshanshi
zhongshanlu
zhongshanling
zhongshanqiao
zhiyuanzhe
shuaixian
shuailuo
shuailao
1930nian
1935nian
zhanzhengshi
chongtulun
communi
zhonggongye
wuxianpu
1870nian
1875nian
1872nian
gott
goods
saima
chanchuliang
1886nian
putonghua
kuayue
kuake
ningyuan
ningjie
shaxiang
qiaobusi
qiaomusiji
zhenglunbuxiu
pipanxing
cuihuaji
##ess
jianzhuwu
221
221nian
wajue
wakela
waerlasi
jixiehua
jixiezhuyi
zhongzixing
qiyejia
##gelamu
zizhitongjian
zhuanmenhua
shuomingsun
chexiao
pangjialai
hechengqi
chufadian
chushenglv
jinrongxue
2025nian
xiayidai
macos
macint
231
shixueshi
shizhixing
zhongzhihui
yanshengzi
fulidelixi
shuxuejiamen
nongminbu
##ologist
alaboyu
galilai
phot
##cation
##cated
paomo
paohuo
ruijin
xianzhuxing
sunyiwei
fuluomu
yaowuyuan
dutexing
sixiangjiamen
zhouqibiao
kaochadui
643
64kb
aerbiang
kuanxiang
kuansong
sousuo
souxun
xiongshou
xiongsun
chukouguo
chukouliang
duoyanghua
xuanjuquan
1990niandaichu
ningjutai
hob
home
medicine
seqiu
secai
##pedia
weililun
dishier
zhengdangxing
zhengdanghua
geshigeyang
zizhuxing
wulunruhe
yeyuzhe
guanlianxing
yuanzhumin
form
fortran
shiyingxing
zhonglichang
youjiwu
zixingche
guoduxing
jinengzhuyi
jinengzhuyizhe
biranxing
jiaohuanlun
pingfanggongchi
longduanxing
systems
fsf
##fort
lichengbei
weishengbu
guliguo
shenglixuejia
zhenshixing
bencaojing
lianxuju
fojiaotu
961
960wan
aspe
helixing
weiwulun
kejianyu
xinanbu
fangchengshi
taikongzhan
sunguan
sunguang
tuomasizhuyi
chuixi
film
fichte
nomenclatu
##fic
##zengzhang
##tionale
jingweixian
jieshaoxin
guofangbu
baoxianye
tidaipin
juxianyu
zhuanjingyu
mokuaihua
mimaxue
huangpujun
huaiyilun
heerxinjishi
freax
xigemengde
jinkouguo
quzhumanren
fanfubai
shenmizhuyi
zhengzhixuejiamen
gaozhongsheng
gaodengxue
andelie
1838nian
mierdun
miergelamu
qiangzhili
opensuse
geographia
596
62yi
amd
juanben
philos
raodong
##ronou
zhiguanzhongyao
zaicizhiqian
hexieer
wuyiweihuan
huojiangzhe
beiyangjun
guamu
siwanglv
xushichang
tianjinshi
junzhulun
liuxuexun
chiyouzhe
chiyouren
baihuaqifang
naizhiyu
sociologique
sociological
499
470wan
beta
const
routi
web
webos
##hods
jifengyulin
youshengdianying
keyongxing
di17
di14
gewuxue
taibeishi
suizhierlai
1803nian
1781nian
841nian
agenting
john
tengtong
tengnisi
wunong
wunai
wenge
zhayao
##sover
yibaiwan
shidalin
zhongnongzhuyizhe
yuyuantailang
yansuanfa
##ineer
dayitong
huxidao
yuanyuanliuchang
danshuihu
fanshizhengzhuyi
huashidai
guangweirenzhi
1826nian
chaodayu
nanbeichao
worst
world
chongqingshi
luokefeilei
ailixi
songminglixue
1798nian
lvewei
paluoaoduo
zhuozhongyu
professiona
alpha
anggui
funv
funet
perl
sinan
sinuoke
##ctive
##gnum
##spor
jidacheng
xiyangqi
lishuyu
lidaishi
likeqiang
zhongdingxuetang
##qiasi
weiersen
bulaizi
zhuyouke
gelunbu
sunfubing
fanguolai
yuandaima
##riable
2030nian
2035nian
gaiguohao
dongguanxian
banquanfa
bolibia
babilunren
mishuzhang
1776nian
simula67
about
capi
economi
loader
priority
stre
sangsheng
saochu
saomiao
server
service
special
zuanyan
##omial
##dbc
##work
##works
yifuyu
shidifu
xisailuo
diejia
di72
direct
yanhouke
xiangrongxing
wenyanwen
xianweizhuang
sunshoudu
fuchanpin
meirenyu
birth
birger
jiaoxiangqu
##jinqiyong
xiaojimian
yunchouxue
mozilla
1813nian
multi
multics
sanjiaoxue
lianjinshushi
zhangbaixi
qiangxianshi
taozeijun
yangshenghui
##oshop
baiwenwei
lagelangri
kalalabang
operating
international
internationale
psychology
psychological
william
institut
llvmlinux
3000duo
astrogeology
cent
calhoun
elect
flip
foss
fedora
historia
org
ppf
play
pedersen
tuntuliang
transpor
url
variable
wikipedia
##logist
##skin
##rnal
dependent
yizhengtao
lifangmi
lifanggongli
libreoffice
zhuzibaijia
diguilun
chengyuanguo
gedeer
shujinke
wuguanjinyao
wutingfang
wuseqi
erdengjiang
yinbiaoji
duizhuangji
xinyisan
sunfabiao
sunsimiao
sundongshen
shenggonghui
baoanhao
fugailv
fuzongli
jiaowuzhang
xuangao
laibunici
jiushenjie
zonggongsi
qingtianbairi
techn
dongzhiwu
feierzi
public
taochengzhang
luobinsi
niangzao
##linex
diaoyutai
1642nian
inferno
harold
zhuisuizhe
paul
languages
sateju
explor
80386
stallman
freeb
advanced
applied
imagined
symbian
cartographers
acupuncture
auto
ajimide
aleini
apache
c64
csab
crossover
effort
frank
fuertai
grub
http
ieee
journal
korg
methods
munihei
muouxi
olav
object
prudentia
running
this
tunixiya
ungar
usenet
vanilla
volk
##atura
##rdus
##mbers
defense
jipufa
yiselie
yilasimo
yimannuer
xixixiangguan
##lization
lidazhao
license
zhongyuansu
zhibuguo
hexiangning
hejubian
heritage
heqianting
weiduoliya
buguize
business
kechixu
kelaode
fakanci
datusha
dalangbeier
datalogy
gellner
gelaoxiusi
gewuzhizhi
geaoerge
shuqingshi
zibianliang
wurulun
wujingheng
wushenlun
wupeifu
ershouche
eryanghuatan
xiangzhenji
beibingyang
beixuanjuquan
jinpulu
##sibility
xianeryijian
yingyunersheng
fenshuiling
yejinxue
yesujiao
hujingyi
binggongchang
sunjinxing
sunqiuqi
sunmiaoqian
sunsuifang
dengyinnan
shengchanguo
huiteli
jiaguwen
lingzhanglei
sichouzhilu
sidegeermo
jiangzemin
bideluoweiqi
jiaotache
kaituoxing
julebu
jiuluxuepai
zongchanzhi
zongshuiliang
zongeryanzhi
congguzhijin
liangdanyixing
fazhanzhongguojia
qiansuoweiyou
yuetingren
gaoyaqu
moeller
wangzhaoming
muhanmode
sanweiyiti
madouling
martin
liuwansu
boluobenni
baguolianjun
natural
subjective
nipoer
revolution
aisikuluosi
aokenfa
management
tangsenlu
hunweiyitan
college
solidarity
themselves
partici
community
macintosh
photoshop
nomenclature
economic
04
01
070
08yi
001
1m
1yi
1bei
12nian
16nian
1zhao
2xia
25nian
2zhao
29nian
37
3shi
3hao
3qian
30nian
35nian
30niandai
370
4shi
40nian
4shiji
486
450
417
4qianduo
5shi
50nian
50wan
6ce
6wan
6zhao
6th
6000
6yiqian
7x
74
7hao
76nian
7000
750
89
81
8li
80nian
8guang
8fenzhiyi
8kb
8bit
893
888
9d
900
98yi
a2
aen
ali
aqi
ahou
age
ari
aduo
ada
adian
asu
ala
ate
abo
ami
alie
atuo
awa
abeier
achao
apei
aka
asa
alisi
ape
alla
arn
avo
akeluo
abola
arm
adaofu
arist
azuofei
adelei
by
bru
bri
bre
bel
bshuji
blum
buerba
cc
cl
c3
cd
cr
cm
cy
ccheng
cer
clai
cro
cct
cine
clas
ccd
crai
cres
dj
dre
dod
drm
eu
el
et
ed
ew
e8
ezhi
ewen
efang
egong
ejiao
ejun
emi
eba
ear
eds
eco
eden
ever
eee
fl
fla
fra
funi
flor
gn
gx
gl
gw
gri
gal
guer
glas
grand
graham
hy
how
hal
hol
hig
ir
iv
ios
je
jon
jol
jdbc
ki
king
kdai
kal
kron
krist
knop
lt
ls
lm
lal
lfs
mk
mp
mun
mys
mcc
mlilun
mcil
nh
n9
nw
nb
n8
nhe
nuan
nyi
nwei
nxiang
nyuan
nzi
ner
nsi
nwu
nren
nri
nshe
ntu
nqie
nhai
nyin
nluo
nmi
nfei
ndan
nguang
nba
nwo
ngen
nxiong
nkaer
nanguan
nmoer
none
nmierdun
ndangran
nmac
oo
ox
oe
ob
ora
ord
obs
olog
order
oas
oliwai
odbc
phen
pon
por
pre
peri
plv3
phere
pram
pronou
qq
rf
rt
rs
rhe
ring
rue
rin
ros
ral
runi
ram
rms
sc
sn
sg
ss
sj
s9
sp
sing
seng
sxiang
syong
stu
swai
shai
schi
sque
smo
stan
ster
spi
set
sty
spa
sto
s70
sgi
spot
scho
tz
tr
tv
than
tin
ter
tha
tlin
tre
tra
top
trou
tho
ui
ux
ut
ud
uhan
ufs
user
using
vh
vo
vl
ven
vlei
val
vms
whi
wji
wer
wri
wuer
wes
xf
xshi
xyuan
xxie
xshe
xlai
xdian
xbo
xfs
x86
xts
yg
zer
zbo
znan
zfs
zone
ɪn
ˈl
γη
γο
ικ
ια
λo
λο
μο
υσ
─renzhi
##hl
##ht
##hr
##hdai
##hle
##hni
##hor
##hog
##ua
##ud
##um
##usi
##uri
##uda
##uzhang
##ushan
##ujiao
##ula
##utu
##uts
##o1
##omen
##ota
##oce
##oping
##oni
##ochuo
##cz
##cing
##cci
##cri
##cle
##cor
##cre
##cka
##cro
##cted
##cles
##it
##isi
##iuai
##ial
##ird
##ius
##itter
##ided
##icz
##nq
##ny
##nang
##niao
##nke
##nha
##nce
##now
##non
##nch
##nograp
##nment
##nforma
##ncil
##gn
##gd
##ging
##gue
##gri
##gnus
##glas
##gger
##gmann
##ght
##xa
##xt
##xar
##xth
##x86
##xell
##xage
##xts
##ek
##echi
##emu
##emo
##etan
##eca
##etic
##eweishi
##fri
##fel
##funi
##fis
##l2
##lnet
##lture
##lton
##lgri
##lfis
##au
##aian
##axing
##azi
##axian
##aming
##adian
##asu
##atuo
##ater
##alabo
##ave
##aver
##acti
##aby
##astri
##ague
##zen
##zin
##zfel
##tun
##tla
##tte
##tchi
##tle
##tra
##tro
##tory
##tologist
##sc
##sn
##sr
##sao
##schu
##swang
##sor
##sme
##sca
##spe
##stics
##slas
##ssion
##stur
##scop
##jk
##jave
##97
##95
##9wan
##27
##27nian
##286
##23yi
##30
##31
##36
##3zhao
##32yi
##ql
##quo
##qad
##dc
##dd
##dsen
##deru
##dgin
##dore
##weng
##well
##wster
##wicz
##wny
##rr
##rp
##ruan
##ryu
##rsheng
##rren
##rce
##rtu
##rys
##rning
##rine
##rber
##rdal
##ko
##kin
##khai
##kken
##know
##ph
##pc
##pp
##py
##phan
##per
##pri
##ple
##ption
##ples
##pruden
##be
##bou
##bye
##bri
##bbin
##bed
##bmed
##mn
##mm
##muan
##mun
##mpu
##mner
##mler
##yen
##ybo
##ype
##yuou
##ylum
##yhni
##ynch
##ykken
##ving
##ven
##vue
##vin
##vation
##vryu
##7yi
##7wan
##712
##400
##4shiji
##43nian
##48nian
##8hao
##87nian
##8kb
##817
##0qian
##0nm
##0duowan
##11
##16
##1wan
##129
##59
##58
##55
##5xing
##500
##5shiji
##69
##6yi
##6wan
##əks
##эks
##ngong
##ngang
##ngen
##ant
##ans
##anhui
##anmen
##anling
##anie
##ander
##andl
##hia
##hist
##hics
##onglv
##onggong
##ongbo
##angu
##ange
##angen
##angdu
##anguang
##hexue
##heli
##heyu
##heer
##hexian
##heyan
##helei
##hexin
##hesuan
##hehai
##hezang
##hecong
##hecan
##hejihua
##hegua
##helm
##hezhongguo
##heyajie
##herder
##hemazhou
dexue
dexing
dezi
dewu
deju
deren
dewen
deliang
dejin
dela
deshou
depai
dejiang
deman
deyun
deter
dewo
dead
della
denai
deuts
deird
##huji
##hudao
##hujiao
##huduan
##hujun
##hukou
##huzhao
##hunan
##hurd
##huyanzhi
##ianer
##ianjihua
##aixing
##ailun
##aiduo
##ailu
##aiquan
##aok
##aoji
##aojian
##aoju
##aohusi
##eila
##eiya
##eikeer
##ens
##enha
##ensai
##ensen
##ension
##jixing
##jizhong
##jisi
##jiren
##jiri
##jijiao
##jilu
##jiquan
##jibing
##jipo
##jikesi
##jisitan
##jiqishi
##ouji
##ousnes
jihou
jitong
jijiu
jixiang
jiyuan
jizi
jiyue
jilun
jibu
jiming
jidai
jizuo
jiyao
jiye
jiri
jizheng
jiyang
jizhan
jiwen
jifang
jigong
jizhang
jibi
jizhou
jishan
jijiao
jiban
jitu
jibiao
jiling
jiwang
jipai
jibo
jikou
jihuo
jilin
jizhuang
jituo
jigai
jishui
jitao
jizhuan
jikui
jixuepai
jibusi
jirou
jizhui
jitela
##uel
##ues
##hengxing
##hengbin
yili
yicheng
yiyong
yilun
yihao
yiming
yiru
yiren
yidi
yiqu
yigong
yisu
yibiao
yishen
yiduan
yihai
yixiao
yisuo
yiqing
yiya
yizhun
yihuo
yihuan
yishui
yitao
yigui
yikang
yilang
yizou
yizhuan
yichun
yisake
yiteng
yidelixi
yi8kb
yihuji
shie
shiheng
shijia
shiyuan
shilun
shibu
shiju
shiru
shiri
shilei
shidian
shita
shizhang
shibi
shisuan
shilu
shibei
shishen
shitai
shiduan
shihai
shiwang
shimi
shimo
shixun
shiting
shibao
shilie
shigu
shimeng
shidiao
shituan
shicai
shiku
shipi
shilang
shitiao
shinv
shidianzhong
shikeng
shiguoji
shihist
##hongyuan
##hongguan
##hongwai
##hongerchi
##shit
##shing
##shizhi
##shichang
##shide
##shici
##shiliao
##shini
xihu
xishi
xixue
xiwei
xiyu
xichu
xilun
xiwu
ximing
xiyan
xide
xijing
xiwen
xilei
xigong
xice
xishan
xijiao
xitai
xiqing
xifei
xiting
xiya
xitian
xilin
xikesi
xigan
xisen
xieren
xipeng
xihaian
xitelei
xishaqundao
##xuer
##xuehui
##xueke
##xuemen
##xueqiu
##xueshuo
##unian
##xixue
##xisi
##xiye
##ximen
##xiyang
##xizu
##ximin
##xilu
##xiliao
##xilin
##xixuepai
##xirui
##xity
##xiruo
##xienian
##lia
##lis
##liwei
##liqi
##lijian
##lixian
##lifu
##lidu
##liren
##lici
##ligong
##libi
##libei
##lize
##liyin
##lishuo
##libai
##lipu
##liening
##litics
liuan
liwei
lihui
liti
lisi
liwu
liju
lidu
lici
liri
liduo
lizu
lijin
liqu
lita
lisuan
lilu
liquan
lishang
lila
lisuo
lijiang
limo
liting
ligao
lion
liqun
liuer
liwo
lisa
lizan
liteer
licu
lisp
lithon
lisao
living
##yixian
##yijie
##yisheng
##yidao
##yici
##yixin
##yishuo
##yiwan
##yiya
##yicai
##yichou
##yibang
##yieweishi
##yijiri
##yishini
##uisheng
##uiguan
##uichao
zhongan
zhongou
zhonghong
zhongnian
zhonghui
zhongcheng
zhongfa
zhongwu
zhongxie
zhongming
zhongyan
zhongchang
zhongren
zhongri
zhongnu
zhongjin
zhongdi
zhongfen
zhongran
zhongqiu
zhongsu
zhongbei
zhongwai
zhongjun
zhongmu
zhongfan
zhongdeng
zhongliu
zhongkai
zhongcun
zhongdan
zhongfeng
zhongchen
zhongpian
zhonggui
zhongmeizhou
zhongchangqi
zhongniao
##hangxing
##hangshan
zhic
zhihe
zhier
zhihao
zhiru
zhiduo
zhishe
zhizhan
zhifang
zhidi
zhishan
zhixiao
zhiyin
zhibo
zhiliu
zhibing
zhina
zhigu
zhigao
zhisan
zhipu
zhiyun
zhichao
zhichen
zhiku
zhiqiao
zhijuan
zhihuang
zhizeng
zhi17
zhiniu
zhipuyi
zhiqishi
zaili
zaizhi
zaiwei
zaixing
zaiti
zaijian
zaige
zaijia
zaizhe
zaiju
zaichang
zaizuo
zairu
zaiye
zaizhan
zaitu
zaixiao
zaisun
zailang
zairushi
##engan
##engbu
##englu
##engjinqiyong
##zhiji
##zhizhi
##zhiqi
##zhitong
##zhijia
##zhier
##zhizhe
##zhisi
##zhifu
##zhiru
##zhidao
##zhimen
##zhizheng
##zhilei
##zhiguan
##zhizhang
##zhibi
##zhicha
##zhixia
##zhihuan
##zhichen
##zhiniandai
##zhieryi
##zhijisuanji
he3
hean
hehu
hexi
heyi
hexing
hehui
heshu
hege
heyou
heyuan
hechu
heyue
helun
hezhe
hesi
hejie
heren
hexu
heran
hedian
hebi
hesuan
heshan
hezai
hebian
hebei
hetai
heluo
hefan
heqing
hekou
hefei
heque
helie
hezhun
hedan
hetian
hezhao
hetan
hequn
hetang
hezang
hert
hebre
herder
hehuajiang
heyanyuan
hello
hetun
herber
youcheng
youyou
youyue
youlun
youer
yousi
youbu
youjie
youfu
youjing
yougong
youce
youshan
youdang
youzai
youling
youwang
youping
youqing
youfei
youbing
youna
youmei
youguang
youpian
youmenggu
yourou
youyanghua
youhongxiu
youtazhou
youbeilun
youhunan
##weijian
##weiyuan
##weide
##weidi
##weigong
##weishou
##weixiao
##weijun
##weikou
##weibing
##hanzhe
##handai
##hanyang
##hanpi
##hanes
##guoyu
##guohui
##guozhuyi
##guowai
##yum
##yushi
##yuli
##yuyue
##yusi
##yufang
##yumin
##yuxin
##yuqing
##yungang
##yuangu
yuxing
yushu
yujia
yuzhong
yuchu
yuyue
yusi
yuwu
yuju
yuren
yuke
yuzu
yufen
yugong
yuqiu
yushang
yutu
yubei
yushen
yujun
yuyin
yulin
yupu
yuyun
yuqun
yuyixue
yulilun
yulaiyu
##xingyi
##xingxing
##xingfa
##xingsheng
##xingdao
##xingtai
##xinglong
##xingweiai
rene
renhu
renyu
renqi
renjia
renzhong
renxiang
renyong
renzi
renyue
renju
renyan
renzuo
rendao
renzheng
renfang
renshan
renxia
renqing
renman
rennei
renchao
rensun
renmai
rentang
renjinqi
##qiyi
##qizhi
##qihao
##qisi
##qiwu
##qiren
##qimen
##qizheng
##qishan
##qibiao
##qiping
##qique
##qimeng
##qiyun
##qifenzi
weihong
weiguo
weijia
weichu
weihao
weidai
weishe
weiliang
weifang
weijin
weixu
weigong
weidian
weimian
weishan
weidui
weiwang
weiluo
weijue
weiqing
weimo
weibing
weizao
weini
weina
weigu
weikong
weiceng
weikesi
weisun
weiku
weilao
weigen
weicong
weigei
weiyen
##nianlei
qihe
qiji
qihang
qiguo
qixing
qishu
qige
qijia
qier
qizhe
qijie
qiju
qidai
qijing
qiren
qiben
qiwen
qida
qimin
qidi
qifen
qiran
qimian
qiquan
qiqian
qiwai
qitai
qima
qiyin
qibo
qijiang
qixia
qiman
qipu
qizou
qipa
qipao
qileng
qihei
qiguai
qiwanwu
qiyuou
##huishi
##huisi
##huilv
##huizhou
##huidang
##huiwang
##huibao
##hous
##houlun
##houqu
##houbei
##house
##houzhizhi
bug
buhe
buxi
buqi
buhou
bujia
buyuan
buwu
bujie
buming
buyan
busheng
buru
buzheng
buzhan
buran
bugou
budang
buzai
bushang
bula
buqian
bubian
bubei
buyin
buwan
buping
bufei
buting
bucun
buzhun
burong
buxiu
bupian
busha
bukan
bull
bucuo
burning
zhuzhi
zhuwei
zhucheng
zhuyuan
zhuhua
zhujie
zhuju
zhujing
zhuci
zhuzheng
zhuding
zhuzhan
zhudi
zhulei
zhuxin
zhumian
zhuhai
zhuluo
zhuqing
zhuman
zhubing
zhuzao
zhucun
zhurong
zhunei
zhulin
zhutuo
zhuzhen
zhupei
zhupi
zhuzha
zhutui
zhusima
zhuhongyuan
zhuxingsheng
zhehu
zhehui
zhexian
zhefu
zheju
zheyan
zheren
zhebi
zheshang
zhejiang
zhemo
zhesan
zhekuai
shexue
sheyu
shezhong
sheyuan
shefa
shelun
shewu
shedong
sheyan
sheru
sheke
shezu
shegong
sheqiu
shechi
shemi
shetuan
shedingxing
shexiangji
shesike
kewei
keqi
kejia
kehua
kelun
kexie
keju
keben
kequ
kelei
keban
kelu
kesu
keshang
kela
kebian
keqie
kete
kewang
kebo
kefan
kemi
kexun
kelie
kegu
kelin
kepu
kehuan
kekong
kemai
kegui
kesha
keche
kell
kesa
kerui
kezhuyu
keleisi
kerr
kehuduan
di2
dihe
diji
dibu
dijie
diyan
diren
dici
didi
dizhang
didang
diqian
dibei
didui
dimu
difan
disuo
dituo
disun
dikang
dikuai
dizhuan
dicao
divi
digi
dijinqi
di24
dipuyi
distri
dioce
dijk
diange
##tongji
##tongxing
##tongbu
##tongri
##tongliang
##tongcun
yanwei
yanyu
yanhui
yanxian
yanwu
yandong
yanzuo
yandi
yandian
yanmian
yandang
yanban
yanlu
yancha
yanyin
yanqing
yanbing
yantian
yanlan
yanhuan
yantan
yanre
##inan
##inci
##inomial
##tif
##timu
##tique
##tilan
##tigan
##tika
##ties
##tivi
##timent
##tish
##tific
##tistics
fashi
faxi
falun
fazhe
fahao
fazuo
fawen
faxin
fazhang
face
falu
faquan
fala
faling
famu
fami
fabing
fagu
fadan
fazhishi
fayixue
fayanren
fabri
gongyu
gongxing
gongzhu
gongshu
gongyong
gongxie
gongru
gongke
gongyang
gongzhan
gongzu
gongshou
gongxiao
gongwang
gongxun
gongbao
gonggu
gongzhao
gongchuan
gongshui
gongpo
gongtuan
gongcai
gongchen
gongkang
gonglao
gongchun
gongzhuyu
gongyixing
gonghanyang
dahe
dahong
daxiang
dafa
dazi
dalun
dazhe
dasi
daxian
daming
daju
dajing
daye
dalai
dajin
daxu
dalei
daguan
dadian
dazhang
dabi
dazhou
dazai
daquan
daqian
dabian
dajun
dachi
dayin
dabo
dafan
daxia
dating
dabao
dakai
dalian
dashiji
datian
dalin
dachuan
dasan
dashui
dakong
dalve
datuan
dakang
dasai
dazhuan
dalao
daluan
dasd
dapao
dapen
dahl
damn
jinghe
jinghou
jingge
jingcheng
jingzi
jingsi
jingxian
jingjie
jingming
jingdong
jingde
jingjing
jingren
jingshe
jingguan
jingzai
jingshang
jingshou
jingpin
jingmi
jingliu
jingmo
jingkuang
jingguang
jingmai
jingkang
jingweiyi
jingmiao
jingsui
jingmao
jingzhiwei
jingnianlei
chengxue
chengzhi
chenghan
chengnian
chengjian
chengzhe
chengdao
chengde
chengmen
chengzu
chengfang
chengda
chengdi
chengxin
chengdian
chengjiao
chengzai
chengquan
chengla
chengqian
chengbian
chengwai
chenghai
chenguang
chengjun
chengxia
chengbai
chengmo
chengting
chengtuo
chengfeng
chengyun
chengqun
chengsun
chengqin
chengongbo
zhengji
zhengjian
zhengjiu
zhengzhong
zhengyou
zhengchu
zhengjie
zhengsheng
zhengde
zhengci
zhengzheng
zhengxu
zhengdian
zhenglu
zhengsu
zhengqian
zhengbei
zhengshou
zhengling
zhengxia
zhenggang
zhengbing
zhengzhao
zhengshui
zhengtuan
zhengwuyuan
zhengedai
##zhuxian
##zhuzhuyi
##shun
##shuyu
##shuyuan
##shufen
##shuguan
##shudian
##shujiao
##shufan
chuhu
chuyuan
chuyong
chuwu
chuming
chudong
chuju
chuchang
churu
chujing
chumen
chuduo
chuzheng
chuzu
chuguan
chuzhang
chuce
chuchan
chutu
chushou
chuduan
chuhai
chuxiao
chuwang
chuqing
chufei
chuting
chuse
chunei
chushui
chuog
chukong
chudiao
chuguang
chuqin
chubin
chutang
chumou
chuyueqi
chuochuo
chuheli
chuaiduo
chuzhieryi
##jianying
##jianquan
##jiancha
##jianchi
##jiansiji
gehong
gexing
geer
gezhe
gezu
gelv
gebi
gela
getu
gexiao
gete
geting
gelie
gese
geor
geos
geba
getou
gegui
gesong
gera
geologi
gelasi
gewuer
geweiqi
geologie
gerang
getiancun
##jiuyu
##jiujiu
##jiuyao
##jiuri
##jiudi
##jiushiwan
##geyi
##gezheng
##geda
##gezhuyi
##gema
##gedeng
##geman
##getuo
##gethe
##gefanshi
##gelite
shuqi
shuhui
shutong
shuxiang
shuwu
shuyan
shudu
shuke
shuben
shuxin
shuzai
shupai
shulie
shurong
shunei
shuzhuang
shushui
shuguang
shucai
shugan
shuzhai
shuxianxing
shubuzhi
shukeng
##jiaci
##jiaben
##jiazu
##jiadi
##jiachan
##jiacuo
##jiahukou
jiehu
jiewu
jiefu
jieju
jiesheng
jieci
jieke
jieyang
jieding
jiewen
jiefen
jiezhang
jieban
jieshang
jieshen
jieluo
jiepai
jiexia
jieliu
jiegu
jiehuo
jiechuan
jiesun
jiekang
leo
lee
leian
leji
leyi
leshu
lezhong
lelun
lefu
lejing
lear
leona
letter
legal
leff
lehr
league
lemm
levin
zihan
ziqi
ziti
zijian
ziyong
zisi
ziwu
zixie
zifu
ziren
ziyang
ziding
ziwen
zixu
zixin
zidian
zizhang
zichan
zizai
zilu
zishang
zibei
zishou
zichi
ziwang
ziyin
ziman
zibai
zidan
zigao
zimei
zitan
zisun
zigen
zico
ziyiju
ziyuehan
zibolatu
ziheer
zishizhi
zixuemen
ziyuangu
##zhongduo
##zhonglu
##zhongquan
##zhongluo
##chengyu
##chengxing
##chengjiu
##chengchu
##chengming
##chengda
##chengzhuo
##xiangge
##xiangcheng
##xiangyuan
##xiangbi
##xianggao
##xiangcong
##youwei
##youyu
##youjia
##youcheng
##youju
##youren
xingli
xingtong
xingshu
xingyuan
xinghua
xinghao
xingchang
xingci
xinglai
xingying
xinggong
xingshan
xingjiao
xingqian
xingshen
xingqie
xingjun
xingxia
xingcun
xingtian
xingchen
xingbutong
xingsn
##yuanshu
##yuanjia
##yuanzi
##yuanfang
wuai
wuxi
wuyu
wuhui
wuyuan
wuyue
wuzhe
wuwu
wufu
wuding
wuwen
wuliang
wufang
wujin
wudi
wuxu
wuying
wudian
wudang
wusu
wubian
wuliao
wuling
wuping
wuliu
wubai
wushui
wuqun
wuba
wuqin
wuxuan
wulang
wuzang
wulong
wujuan
wusiding
wujihua
wuqianduo
wushanshanmai
wujinqiyong
##chuxin
##yonghu
##yongyi
##yongyu
##yongnian
##yongxiang
##yongshang
##yongjun
##yongfengjian
##huahui
##huashu
##huashe
##huace
##huameng
##huahewu
ershu
erchu
erfu
erye
erren
erri
erlai
erqu
erfen
erxin
ermu
erfei
ergang
erbing
erik
erfenzhiyi
erhuaren
erqisi
guoxue
guoxi
guohou
guoshu
guojian
guozhong
guoren
guoding
guolai
guofen
guoxin
guotu
guoshen
guoshou
guopin
guojun
guoyin
guomu
guozao
guoqiang
guozhai
guonai
guodegang
guoyijie
##face
##fact
##ziyu
##zizhu
##zide
##ziye
##zici
##ziwen
##zita
##zichan
##zilla
##zilou
shangai
shangji
shangguo
shangchu
shangzhe
shanghao
shangsi
shangxie
shangming
shangke
shangyang
shangwen
shanglai
shangxin
shangguan
shangdian
shangzhang
shangjiao
shangban
shangbian
shangtai
shanguang
shangxiao
shangbai
shangcun
shangdan
shangchuan
shangshui
shangkong
shangsun
shangtou
shangbang
shangguimo
shangcan
shanglilun
shangqianwan
shangfaxue
##yueling
##yuersheng
yinxi
yinyi
yinzhu
yinshu
yincheng
yinsi
yinjie
yinchang
yinjing
yinren
yinzheng
yinwen
yinlai
yinmian
yinqian
yinling
yinni
yinzhun
yinkuang
yinyun
yinku
yintiao
yinjiadi
yanjiuxing
yanjiuhui
yanjiuren
yanjiuwang
yanjiuzun
huoxi
huozhi
huoyu
huozhu
huojiu
huojia
huoyou
huohua
huoer
huobu
huosheng
huoyao
huoren
huoke
huoduo
huonu
huodian
huomian
huoshan
huosu
huoneng
huoxia
huoman
huobao
huolie
huobing
huoni
huochuan
huodun
huoba
huopen
huochangqi
huoyuanjia
xiangxing
xianghui
xiangchu
xiangbu
xiangxie
xiangfu
xiangsheng
xiangdai
xiangjing
xiangren
xiangqian
xiangbei
xiangwai
xiangling
xiangchi
xiangyin
xiangle
xiangmo
xianglian
xiangnan
xianggan
xiangnong
xiangzeng
tongqi
tongtong
tongjian
tongzhong
tonghua
tongzi
tongyue
tongdao
tongzheng
tongliang
tongda
tonglei
tongguan
tonggong
tongwang
tongpai
tongcun
tongpei
tongqun
tongchuang
tongsun
tonggan
tongtou
tongche
tongxuepai
tongdie
tonghun
tongmou
duiji
duizhi
duizhe
duijie
duifu
duichang
duidai
duide
duiluo
duideng
duinao
duiliu
duibai
duilian
duihuan
duisun
##luni
##lunhe
##lundian
##lunbao
##lunniu
##lunkefu
##lunliushi
taxiang
taxian
tayao
tazu
tayin
tale
tamei
table
takela
tajikesi
zhongguoshi
zhongguozhe
##erg
##ernian
##erbu
##erjie
##erru
##erduo
##erran
##erte
##erbai
##erdan
##erdun
##erfeng
##ergan
##ertao
##erson
##ershinian
##ervation
##eronggong
##zhesi
##zhemen
##zheweikou
##haotailang
beihan
beizhu
beijia
beichu
beiyong
beihua
beizi
beidong
beidao
beiduo
beiwen
beiqu
beidian
beimian
beiban
beila
beijun
beijiang
beiya
beihuan
beifeng
beichao
beizeng
beisaier
beimeizhou
beilunhe
jinli
jinfa
jinhao
jindong
jinchang
jindu
jinjing
jinmen
jinben
jinliang
jindi
jinqu
jinxin
jinbi
jinban
jinhai
jinze
jinjun
jinyin
jinchao
jinba
jinsha
jinkuai
jinwo
jinhuai
jinxiangshan
jinhuang
jinken
jin50
jineiya
jinhongwai
jinxienian
jinzita
wenzhu
wenzhe
wenwu
wenbu
wenxie
wensheng
wendao
wenshe
wenjin
wendang
wenlu
wentai
wenqie
wenze
wenping
wenmi
wenxun
wenzao
wentan
wensun
wenhuibao
##sio
##sil
##sis
##sim
##siheng
##siyi
##sizhe
##sijie
##siduo
##sidi
##sizhuyi
##silei
##sibiao
##siwang
##siyin
##sigu
##sipu
##sizhen
##sity
##sider
##sishinian
##sifeierde
##silifu
guh
guai
guqi
gutong
gujian
guge
guxiang
guyue
guwu
guming
gufu
gusheng
gudao
gujin
guran
guzhou
gudang
gujiao
gubei
guya
gufeng
guzhen
gutou
gulang
guada
guteng
gushengwuxue
guguai
guweijun
guhanzhe
xinxue
xinti
xinzhu
xinzhong
xinyong
xinyue
xinlun
xinhao
xinfu
xinju
xinsheng
xinlai
xinmin
xintu
xinbian
xinshen
xinte
xinshuo
xinmu
xinqing
xintuo
xinuai
xinshui
xinxiu
xinchen
xinlang
xinzang
xinzeng
xinfuluo
xinkelai
xindelei
xinbolatu
xinzhiguan
xinhuashe
##xianhong
##xiancheng
xianxue
xianyi
xianjian
xianyuan
xianzhe
xianhao
xianjie
xiande
xianjing
xianzhang
xianbei
xianshen
xianhai
xianling
xiansuo
xianchuan
xianfeng
xianbin
xianxuan
xiancang
xianyueqi
yingx
yingong
yingxue
yingli
yingyi
yingqi
yingzhong
yingyuan
yingchu
yingfa
yingzi
yingsi
yingwu
yingyan
yingyao
yingren
yingshe
yingbi
yingshang
yingkou
yingsun
yingpan
yingkui
yinggelan
yinglixing
yinghujun
yinggema
yingyuersheng
fene
fenyi
fenxing
fenti
fenchu
fenzhe
fenhao
fensi
fenming
fenfu
fenju
fenzuo
fenmen
fenlixue
fenzheng
fenwen
fenjin
fenjiao
fenquan
fentu
fenxiao
fendan
fenyixue
fenyongjun
yeji
yexi
yewu
yeju
yelu
yekuo
yebian
yewai
yeshou
yeman
yezhuang
yepu
yegui
yeyijiri
yejianying
yexianggao
huji
hujia
huyou
huyao
humen
huying
huwai
hutai
huma
hujun
hujiang
huqun
husong
hugo
hutt
huzuofei
huyisheng
##wuli
##wuzhu
##wusi
##wubu
##wuchang
##wuzu
##wuhai
##wupai
bingzhi
bingwei
bingcheng
bingyong
binglun
bingsi
bingming
bingfu
bingjin
bingqian
bingshen
bingma
bingwang
bingbao
binglie
binggu
binghuo
binglin
bingzhuang
bingxuejia
bingpo
bingfeng
bingyun
bingchong
xuean
xuezhi
xueyu
xuecheng
xuehao
xuebu
xuezhan
xuezu
xuewai
xuepin
xuehai
xuexia
xuebai
xuegai
xuepo
xuefeng
xueyun
xueza
xueqin
xueruo
xuedunjie
sunhe
sunqi
sunhou
suncheng
sunyou
sunyong
sunbu
sunxie
sundai
sundu
sunren
sunzheng
sunyang
sunding
sunlai
sunfang
sunqu
sunxin
sundian
sunmian
sunbi
sunqian
sunbian
sunbei
suntai
sunma
sunpin
sunduan
sunxiao
sunchi
sunwan
sunmu
sunfan
sunxia
sunqing
sundeng
sunque
sunxun
sunting
sunbing
sunzao
sunzhun
sundan
suntian
sunpo
sunceng
sunba
sunqin
sunsong
sunhuai
sunrui
suncang
sunqiao
suncong
sunhuang
suntongshi
sunzan
sunzhui
sun12
sunchangqi
sundingli
sunhongyi
sunqigu
sunshengyu
sunmiliu
sunhuzhao
sunjianchi
dengxi
dengqi
denghao
dengsi
dengke
dengzhou
denglu
dengtai
denglong
dengyongfengjian
dengziyu
guanji
guanshu
guancheng
guansi
guanxian
guanjie
guanyan
guanlixue
guanlv
guanjin
guandi
guanbi
guanwai
guanlan
guanzhao
guanchuan
##bujian
##bujiu
##buyong
##buxian
##buming
##bufu
##buzuo
##buduo
##bugong
##buquan
##bula
##buqian
##buhai
##bujiang
##buxia
##butian
##buhuan
##buzhen
##bukang
##buted
##bury
##jieshu
##jiefa
##jiesheng
##jiedian
##jiezhun
##xieke
##xieshihou
##mingshi
##mingyi
##mingwei
##mingqie
##mingbing
##ful
##fushu
##fulai
##fudi
##fuzhou
##fugang
##fugai
##fupian
##fulasi
##fuzhitong
shengang
shenghe
shengshi
shengzhi
shengqi
shengxian
shengbu
shengren
shengwen
shengda
shengying
shengdian
shengqie
shengchi
shengya
shengdan
shengkuang
shengkong
shenglang
shengzan
shengbuji
shengshuiqu
shengximen
##juxue
##juchang
##juren
##jutuo
##jusite
bao2
bao3
baoxue
baoyi
baoguo
baoxing
baochu
baofu
baochang
baozuo
baoren
baoke
baoding
baozu
baoguan
baobi
baoquan
baoduan
baoyin
baoman
baogu
baofeng
baokao
baoguang
baocang
baozeng
baofushe
fangao
fanghong
fangun
fangjian
fangzhong
fangchu
fanghua
fangru
fangdu
fangda
fangjin
fangshou
fangxiao
fangjun
fangman
fangkai
fangbing
fangzhao
fangkong
fangpi
fangkuan
fangyizhi
fangxingweiai
##yanuo
##yanshi
##yandao
##yankai
##changjia
##changbo
##shengqi
##shengcheng
##shengsi
##shengdong
##shengke
##shengchan
##shengni
##shengcun
##shengyichou
jianhe
jianji
jianzhong
jianyuan
jianyong
jianyue
jianfu
jianzheng
jianxin
jiandang
jianjiao
jianzai
jianban
jiansu
jianshang
jianshou
jianze
jianjun
jianpai
jiansuo
jianting
jianbing
jianhuo
jianzhuang
jianlve
jiandiao
jianbang
jianrui
jianqiao
jianruo
jianzeng
jianpiao
jianmingqie
##daishi
##daihui
##daixie
##daijin
##daiying
##daishui
zuoyi
zuocheng
zuozheng
zuoce
zuoqiu
zuobiao
zuoliao
zuopai
zuozao
zuogai
zuofeng
zuosun
zuoba
zuozhuan
zuonong
zuojiyun
zuolibai
huihe
huili
huiyu
huijian
huichu
huiyue
huilun
huihao
huijing
huiben
huilai
huilei
huibi
huishou
huipai
huijue
huixia
huibing
huigu
huipu
huifeng
huidiao
huicui
huizeng
huigeng
##ruyi
##rusheng
##rutu
##rugu
##ructs
tihui
tijian
tixiang
tizi
tidu
tiyao
tilixue
tiwen
tiqian
tibian
tisuo
tikuan
titongshi
tizen
title
##daoxing
##daode
##daozhan
##daowan
##daofei
##daosun
##daozhongluo
suozhi
suoxing
suojian
suoxiang
suolun
suosi
suoding
suolv
suozhang
suogou
suoni
suotan
suogan
suohuai
suoxuer
suoshengcheng
##desheng
##dezhang
##defei
##demengde
##debulu
##degger
##duzhu
##dusi
##duxiu
##dust
##jingang
##jingyue
##jingzhan
##jingshen
##jingtou
##jingluan
##jingwuyi
##yaoxian
##yaobu
fuxi
fuyong
fuzi
fuxian
fubu
fuming
fuyan
fuke
fuben
fulai
fufang
fuying
fuxin
fushan
fusu
fuqian
fubiao
fushen
fudui
fuhai
fuxiao
fuwan
fujiang
fuqing
fudan
fuzhuang
fumei
fudiao
fugui
fuchou
fulang
fulizi
fuck
fucong
fubusi
fubuji
fuzengzhang
fuweng
fu11
fuxiangge
fudaode
##yeos
yuanji
yuanhong
yuanzhi
yuanwei
yuantong
yuanshu
yuanlun
yuanwu
yuanfu
yuandu
yuanyang
yuanjin
yuanqu
yuanying
yuanbian
yuantai
yuanliao
yuandeng
yuanxun
yuandan
yuanshao
yuanlin
yuanlao
yuanmao
yuanzaju
yuanhengxing
yuanhoulun
yuanjiacuo
jingjiyuan
jingjidai
jingjiren
jingjiquan
meiyu
meiyue
meihao
meibu
meiming
meijin
meigong
meiyin
meiluo
meimu
meina
meilan
meilin
meikuang
meiheyan
meijijiao
meixiye
meilijian
##renwu
##renwen
##renting
##rencun
##renfeng
##renkong
##renkeer
##renius
##cilei
##cixin
##citai
##ciling
##cial
##ket
##key
##kexue
##keli
##keke
##kemen
##kexun
##kekao
##kelite
##kewude
##ketazhou
##keley
jiahe
jiaxue
jiawei
jiajiu
jiahua
jiabu
jiajie
jiayan
jiasheng
jiayao
jiaye
jiamen
jiaduo
jiazhan
jiafang
jiada
jiajin
jiazai
jiapin
jiaqie
jiazhuang
jiapu
jiache
jiamao
jiayuehan
jiawanshui
jiaershinian
jiadaozhongluo
danu
danli
danzhi
danjian
danhua
danming
danfu
danyao
danbian
danqie
danbao
dandan
danfangmian
danjieshi
dandunjie
danhexin
danxixuepai
danjingtou
lingji
lingyuan
lingwu
lingren
lingzu
lingda
lingdi
lingguan
linghai
lingwang
lingnan
lingkong
lingsun
lingqiao
##mendi
##mentu
##mennide
dianxi
dianhan
dianqi
dianyuan
dianyue
dianwu
diandao
dianfen
dianzhang
diantai
dianchi
dianxia
dianqing
diandeng
dianliu
diantian
diantan
diandaolv
##benji
##benbu
##benren
##benying
##bensu
##benbo
zuiming
zuifan
zuilan
##ric
##riyuan
##riwang
##riting
##rizhishi
##duoyang
##duozhou
##duola
##duoshao
##duocai
sizhi
siguo
sixing
sishu
sizhong
sichu
sijie
sijing
siben
siri
siyang
sizhan
simin
silu
sishang
situ
sitai
sima
siwan
sixia
siqing
sise
sigu
sizong
siche
simp
sikete
simon
sidalin
sizhouwei
silafu
sixth
sidd
sigetuo
siyuanshu
202nian
207nian
20zhao
jiangwei
jianghui
jiangfa
jiangzhe
jiangwu
jiangjie
jiangyang
jiangying
jiangxin
jiangmian
jiangqiu
jiangban
jiangtu
jiangpin
jiangluo
jiangnan
jiangning
jiangsiling
##zhengang
##zhengyi
##zhengqi
##zhengshu
##zhengbian
##zhengyumin
big
bihan
biyu
bitong
bixian
biming
bide
biliang
bilv
biying
bigong
bidang
bilu
biwang
bijiang
bilie
bibing
bigu
bitan
biguang
bill
bibli
bidel
biologie
bijixing
biyongnian
biluni
bisipu
jiaoheng
jiaohan
jiaoguo
jiaoxing
jiaoti
jiaocheng
jiaoyuan
jiaochu
jiaoyong
jiaohua
jiaofa
jiaozi
jiaodao
jiaozheng
jiaofen
jiaoquan
jiaowang
jiaoxun
jiaozao
jiaozhun
jiaoshao
jiaorong
jiaocai
jiaogan
jiaopan
jiaotang
jiaocui
jiaoruo
jiaocuo
jiaohexue
jiaoerdan
bianxiang
bianbu
bianzuo
bianduo
bianqu
biantai
bianbie
bianqing
bianhuan
biansun
bianzhuan
biantiao
bianleng
bianhei
bianqiuxing
bianmingwei
xuwei
xuzhu
xuyuan
xuyong
xuyan
xudai
xuyang
xulv
xuxu
xuxin
xuqian
xushou
xuduan
xuhai
xujun
xusuo
xuxia
xuruo
xusou
xuenian
xuchenqimei
xungen
xuxilin
xuzhichen
##sheji
##sheerde
##yangshi
##yangxian
##yangliu
##yangbing
##yangpian
kaili
kaizhi
kaihui
kaitong
kaifu
kaidao
kairen
kaimen
kaida
kaikuo
kaishou
kaixiao
kaiyin
kaikou
kaidiao
kaizong
kaisa
kaizhai
kailasi
kainisi
kaiweiqi
kaiguoer
kaitelei
kaihuyanzhi
kaikemen
daoguo
daohui
daoge
daoxiang
daolun
daoru
daoqu
daobi
daosu
daoyin
daogao
daoguang
daozou
daosen
daotui
daogelasi
daoerdun
kexuefen
kexuejiang
kexuezhemen
##dingwen
lilunshi
lilunlie
##zhanyi
##zhanhuo
yigeyue
yigeyanghua
yigeshichang
yigesheji
##wenjia
##wensheng
##wenna
##laiya
##liangji
##lianghua
##liangjie
##liangzhuyi
cili
cihua
cizuo
cizhan
cizu
cixin
ciqian
citai
ciwang
cijiang
cibai
ciceng
citang
ciota
##zufang
##zudingli
##lv2
##lving
laishi
laiyi
laiyu
laihui
laiyou
laihua
laide
laike
laite
laiwang
laidiao
laizhijisuanji
##fangqian
##fangzhisi
##daji
##dafang
##daguan
##dalu
##daliya
##daketazhou
##dabenying
##jinyou
##jinke
##jinta
##jinshui
mingxi
mingli
mingnian
mingzhu
mingyou
mingchu
minghao
mingwu
mingri
minglixue
mingding
mingjiao
mingtai
mingliao
mingjun
mingqing
mingmo
mingbao
mingbing
mingtian
mingsun
mingchen
mingsite
mingyanyuan
mingjibing
mingsiyin
yongc
yonghe
yongji
yongheng
yongshi
yongli
yongzhi
yongchu
yongsheng
yongdai
yongru
yongyao
yongjin
yonggong
yongjun
yongbo
yongjue
yongping
yongqing
yongkou
yongcai
yongcan
yongxingdao
yonghuilv
yongshujiao
yongrencun
neiyi
neixiang
neiyou
neiwu
neifu
neidu
neike
neizheng
neilu
neineng
neiliu
neixiu
neizhifa
neixiangxing
neixingfa
neijiesheng
dangm
dangshu
dangjia
dangwu
dangming
dangyao
dangxin
dangmian
dangshou
dangjiang
dangxia
danggang
dangtian
dangtuo
danggai
dangtou
dangzong
dangkui
shouhu
shoushi
shouzhi
shouxing
shoucheng
shouyue
shouwu
shoujie
shouzuo
shouren
shouzhan
shoulai
shouzu
shoufen
shougong
shoujiao
shoushang
shoubiao
shoushou
shoupin
shouze
shoujun
shouyin
shoujiang
shouxia
shounao
shouxun
shouhuo
shoukong
shouyun
shouchao
shouchen
shoudou
shoutigan
shoujingluan
##minik
##mination
##minant
gaixi
gaihang
gaihui
gaiyuan
gaiyong
gaihua
gaidong
gaici
gaidi
gailei
gaibi
gailuo
gaikuang
gaitou
gairui
jus
juhe
juxi
juchu
juzi
jujie
jufu
judong
juzuo
juren
juliang
juzu
jujin
julei
judian
jutai
juchi
jubo
jumu
juliu
jushao
jugao
jutou
just
juhewu
jusang
jubuwei
jules
juhengbin
##hage
##hala
##haman
##hagen
##dima
##disite
##disita
##dikete
##ditation
##disci
##ditions
##disijie
jiuzhu
jiuyou
jiuchu
jiubu
jiuyao
jiuri
jiudi
jiuzhang
jiuquan
jiuliao
jiupai
jiufei
jiusan
jiuzhen
jiuba
jiugui
jiuzhai
jiucuo
jiuxiju
ruyu
ruhui
ruhou
rushu
ruyuan
ruxie
rudu
rumen
rushe
rufang
rujiao
rushang
rukou
rufei
rugu
ruhuo
ruguang
ruba
ruqin
russ
ruliwei
ruzhuxian
ruxiangyuan
ruhuashu
rulianghua
mint
minhang
minyu
minchu
minyong
minfa
minying
mindang
minzai
mintu
minjun
mindiao
mincui
minis
minfaxue
##lein
##leima
##leigang
##leiguang
##leikelai
##leierman
##yingxi
##yingjian
##yinger
##yingfu
##yingdai
##yingdian
##yinglu
##yingtao
##yingerchu
quwei
quyuan
quyong
quzi
qufu
qudi
qubian
qumu
quting
qugao
qupu
quyun
qucai
qusui
quali
qujinyu
quanguang
##fenji
##fenshou
##fenzhizheng
##xinyi
##xinru
##xinjing
##xinren
##xinbo
fanyou
fanyong
fanyue
fansheng
fandao
fanjing
fanbi
fanya
fanrong
fanlan
fanel
fankuai
fanziran
fantie
fanwuzhi
fandehua
fanalabo
fanailun
fanqimeng
fanchengda
fanjiefa
##gongxiang
##gongyao
##gongshe
##gongzhen
##gongmiao
haili
haidao
haide
haijing
hailiang
haiguan
haimian
haimo
haibing
haiya
hailang
haidegeer
haiwangxing
hairuan
haiqifenzi
haishuguan
haizhonglu
hairenting
haizhengyumin
##dianxing
##taxing
##take
##takesi
##table
##tabli
##tary
##task
##talism
##tatistics
chanshi
chanzu
zuian
zuguo
zushu
zuge
zujie
zujin
zuqu
zushang
zuduan
zugu
zulin
zupu
zugui
zuzong
zurao
zuxilu
shenhe
shenao
shenyi
shenyu
shenzhong
shenxian
shensheng
shendai
shenye
shenwen
shenda
shenqu
shenzhang
shenjiao
shensu
shenqie
shenhai
shenling
shenmu
shenshui
shenxuejia
shenmei
shenkong
shentou
shenjiaben
shenbuhai
shenzhengang
shenyangshi
##zhanguo
zongyi
zonglun
zongzheng
zongying
zongjiang
zongzhuang
zongtan
zonggen
zongmiao
zongshouru
zongjiancha
zongzichan
##cel
##cezi
##celiang
##ception
##gouwu
##gouguan
congxing
congyuan
congming
congnao
congtou
congmeiyou
douji
doufa
dougong
dourm
douglas
##mianfei
##bike
##bilv
##bion
##bitela
##bislas
##bizhizhang
houyu
houjian
houzhong
houbu
housheng
houru
houdu
houxu
houbi
houban
houbei
houjue
houbao
houkai
house
houya
houxiu
houzhen
houqun
houqin
houzhui
houaiquan
lianguan
liangli
liangwei
lianghan
liangxing
liangjiu
liangdian
liangmian
liangchan
liangshen
liangtai
liangqie
liangchi
liangwan
liangcao
liangnong
liangqianduo
lianggefanshi
shiyongliang
shiyonglv
huaji
huaqi
huashu
huacheng
huaxiang
huachu
huafa
huazuo
huaru
hualai
huasuan
huashang
hualiao
hualuo
huaya
huazhuang
huadiao
guangan
guanguo
guangxing
guangnian
guanghua
guangming
guangdu
guanggong
guangzhang
guangjiao
guangbei
guangneng
guangzhao
guanghuisi
guangdaowan
##suanfa
xiaozhi
xiaoqi
xiaoxiang
xiaozi
xiaowu
xiaoxie
xiaoming
xiaofu
xiaodong
xiaoduo
xiaoqu
xiaopin
xiaoqie
xiaoling
xiaowang
xiaomi
xiaobai
xiaoting
xiaolan
xiaolao
xiaoruo
xiaotuandui
xiaoshudian
xiaojuchang
xiaochangjia
xiaoshengni
xiaocezi
##zhouzhuyi
##zhouzhiqi
##shane
##shanxiang
##shanzhen
qinguo
qingji
qingzhi
qingguo
qinghui
qinghou
qingzi
qingming
qingliang
qingqu
qingdian
qingdang
qingtai
qingjun
qingdeng
qingfei
qingbing
qingse
qinglian
qingshui
qingzhen
qingkang
qingzong
qinghuai
qingcang
qingzhengfu
qingchun
qingteng
qingshuai
qingguoji
qingnang
qinghehai
fazhanxing
fazhanquan
changji
changnian
changjia
changyou
changyuan
changyan
changsheng
changde
changke
changzheng
changyang
changding
changjin
changqu
changmian
changduan
changhuan
changgui
changpao
changgeng
yuni
yunan
yunshi
yunzhi
yunyu
yunhua
yunxian
yunlai
yunlv
yunying
yunzai
yuntu
yunbian
yunshen
yunduan
yunshao
yunmeng
yuntan
yuntuan
yunsong
yunzhuan
yunhanpi
yundaiying
##chanpin
yijiang
yijiao
yijimou
zeping
zeguai
zejiqishi
xiaai
xiali
xiawei
xiashu
xiayou
xiafa
xiazhe
xiabu
xiawen
xiadang
xiazai
xiabian
xiajue
xiaxia
xiabai
xiamo
xiagu
xiazhao
xiameng
xiadie
xiagei
xiabenji
nengshi
nengle
nengfou
##dangdang
zhengzhibu
zhengzhijie
zhengzhizhuyi
chengweishi
chengweinan
##jiaoyu
##jiaohui
##jiaobu
duoji
duoshi
duozhi
duoxing
duohui
duochu
duozhe
duoqu
duoquan
duoshen
duotai
duonisi
duoyilun
duohandai
duoxiancheng
duorenwu
duoduoshao
zhuanyu
zhuanhui
zhuanti
zhuanfu
zhuanzuo
zhuandao
zhuandu
zhuanren
zhuanshe
zhuanxin
zhuanjiao
zhuanlu
zhuanshang
zhuansuo
zhuanlie
zhuanbing
zhuanxiu
zhuanyun
zhuantou
zhuanleng
daishi
daili
daixing
daihui
daiyuan
daihao
daixie
daiming
dairen
daizheng
daixin
daimian
daibi
daitu
daishen
daishou
daimu
daizhen
daiyanren
daimler
daiensai
daigezheng
daidesheng
caie
caizhi
caijian
caici
cailiang
caifang
caigou
caimian
caiquan
caishen
caixiao
caikuang
caishui
caizhuan
caixa
##zaiyu
##zaiwu
##zailai
##zaitao
##banshu
##banfa
##banjie
##lulu
##lufan
##lure
##lutake
lishiyu
lishixing
lishiduo
lishiceng
lishizhuyizhe
jingjixuepai
gengzhu
gengzhong
gengshou
gengtian
##quanzhu
##sufang
##suangen
##shangang
##shangqu
##shangkou
##shangfeng
tex
tev
teshi
teyi
tewei
tezhong
teyou
teshe
teda
teshou
texiao
tegu
tewo
team
teles
teyixing
telnet
caoan
caoyuan
caochi
caochuang
caocai
caonong
caomang
caozide
caoyingfu
##lagong
##laman
##lation
##lasong
##lalinpike
##laerfu
##lawny
##laduozhou
zaoti
zaoyong
zaofu
zaogong
zaoqiu
zaoshang
zaobao
zaolin
zaochuan
zaochen
zaoyibu
zaowuzhu
zaoxieshihou
##qiancheng
##qianjiang
tianhou
tianzhong
tianyuan
tiansheng
tianzhou
tianchan
tianshang
tianbian
tianhai
tianse
tiantan
tianzhen
tiancao
tianrui
tianshanshanmai
tianwangxing
tiananmen
tianjingang
##tushi
##tuta
##turist
##biaoli
##biaoti
qianqi
qiannian
qianzhu
qiancheng
qianfa
qianzi
qianming
qiandu
qianjing
qianren
qianqu
qianmian
qianbi
qianbian
qianyin
qianwan
qianqing
qianque
qianbai
qianlie
qianceng
qiancai
qiantao
qianzou
qianzang
qianlong
qian10
qianfanshi
qianerzhe
qian4shiji
qian5shiji
qiantushi
zhexuewang
dongshi
dongshu
dongfu
dongdu
dongyao
dongdi
dongqu
dongcha
dongshou
dongneng
dongyin
donglin
dongchuan
dongba
dongkui
dongyangjie
donghaian
dongsizhe
donggongshe
yaozhi
yaoshu
yaoyong
yaoyue
yaoming
yaoyan
yaoru
yaozheng
yaoshan
yaowang
yaosun
yaocai
yaoku
yaoqizhi
yueji
yuexi
yuejia
yueer
yueju
yuesheng
yueri
yuedi
yuetai
yuedan
yuetan
yuetuan
yuegui
yuexiya
biaoyi
biaoti
biaochu
biaozheng
biaozhang
biaoshang
biaoling
biaoqing
biaolie
biaonei
biaoceng
dingzhong
dingyong
dinglun
dingsheng
dingqu
dingxu
dingzhang
dinggou
dingtai
dingjun
dingyin
dingni
dingfeng
dingfenzhizheng
quanjia
quancheng
quanfa
quanju
quansheng
quanjing
quanliang
quanxu
quanran
quanzhang
quanshuo
quancai
quandou
quanluan
quanmou
quantongxing
quandaihui
butongdian
guojiaji
guojiafa
guojiaju
guojiazhuyi
guojiarenkou
guojiayufang
gaoli
gaowei
gaoqi
gaojian
gaojing
gaoda
gaozhang
gaoshang
gaopin
gaohai
gaomi
gaozhun
gaogao
gaoshui
gaore
gaonong
gaoxiong
gaochun
gaofubai
gaoyichuan
gaodefei
gaojiaobu
mox
mol
mot
mohu
mofa
moju
moyan
mosheng
mori
moda
moxu
moluo
momo
motian
mogao
modun
motuo
mohuan
more
mogui
mora
molisi
move
mone
moeryi
moder
model
monke
mojave
mohexian
moguoyu
motif
##bianchen
pingji
pingyi
pingwei
pingxing
pingzhu
pingshu
pingchang
pingjing
pingzheng
pingyang
pingfen
pingbi
pinggang
pingbai
pingbing
pingtian
pinghuan
pingsiji
pingpang
pingzhiru
pingqiping
pingfangqian
2014
2010
2010niandai
riguo
riyu
richeng
riyuan
rizi
riren
riri
riwen
riliang
riying
ridian
rimian
riqian
richa
rixiao
ripo
rizhai
ricci
ritchi
risc
caozuoyuan
ruanji
ruanshi
ruanjin
ruandie
ruanzhuo
ruanjinyu
ruanyingjian
taixue
taizhi
taier
taibi
taihai
taixia
taibai
taiche
taicang
taijiong
taijiquan
taihongguan
taihangshan
shuxuexi
shuxuejie
shuxueyao
##chat
##chaju
##chale
##chaft
suiyuan
suixian
suidong
suidi
suicha
suishen
suipai
suimu
suichao
suitang
suibitela
shijieyang
shijiezhuyi
shijieguan
##beiqi
##beijing
##beilu
##beila
##beiluo
##shenyi
##shenjun
##shenzong
anzhi
annian
anxiang
anfa
anwu
anjing
anding
anfang
anran
anxin
anneng
anxia
anse
annei
antuo
anal
antou
anzang
ansa
anlizi
andingxing
anne
anniu
anjier
andalu
anfenshou
minzuxue
minzuxiang
juewei
juezhong
juedou
juezhuan
juehouqu
jueshengqi
junhe
junhu
junji
junshu
junyong
junjie
junxie
junyan
junru
jundao
junduo
junfang
junda
junxu
junquan
junsu
juntu
junhai
junfei
junnan
junzhixue
##duizhang
##duichen
##shouqian
##taixue
##tainie
##mal
##mad
##mar
##mage
##maer
##masuo
##mafeng
##magan
##matics
##macu
##matic
##masheerde
##malaiya
xuanyi
xuanwei
xuanyu
xuantong
xuanyuan
xuanyong
xuanhua
xuanyang
xuanding
xuanzu
xuanjiao
xuanshang
xuanxiao
xuandan
xuantian
xuanxiu
xuanchuang
xuansun
xuanpan
xuanba
feishi
feixue
feiyu
feixian
feiyan
feidi
feiling
feijun
feimu
feikuai
feiqiang
feiuni
feijinshu
feiyilun
feipang
feilixing
feiouji
feilipu
feiyieweishi
feiguowai
feiqiwu
feitongbu
feikexue
feirizhishi
feizhengyi
feifangzhisi
feimianfei
feibizhizhang
feisuanfa
feishane
henji
henzao
hennan
shijinian
shijicheng
wanxi
wanzi
wanming
wanju
wanda
wanzhang
wanneng
wanqing
wanlian
wanshiwan
wanrenkong
gemingshi
gemingzhuyi
##liaote
fangfaxue
wangu
wange
wanguo
wangshi
wangxi
wangzhi
wangyu
wangxing
wangming
wangdi
wangquan
wangqian
wangxia
wangmo
wangfeng
wangchao
wangtao
wangweiyi
wangchong
wangyishuo
wangqishan
wangtongji
wangjiaci
wangfupian
shiyanfa
shiyanzu
shiyanqu
shiyandui
1845nian
18400
huanshi
huanxing
huanqi
huanxiang
huanbu
huanjie
huanle
huanman
huanliu
huanbing
huandiao
huankuai
huantang
##duanzhuyi
hanhu
hanli
hanyuan
hanwu
hanjin
hanqu
handian
hanjiao
hanfei
hanbai
hanlin
hanchuan
hanxuejia
hancang
hanmao
handw
muji
mujiu
muzi
muqu
muguan
mubing
muse
muhuo
mucai
much
muzhiwei
muham
muhongxiu
muqad
muxixue
sanwei
sanshu
sanyuan
sanfa
sansi
sanbu
sandao
sance
sanlu
sanling
sanle
sanluo
sanxia
sanya
sansha
sanhuang
sandianzhong
sanzhongquan
sanzudingli
##haili
##haijing
##haimu
##haijiezhun
##lingdun
zhanyi
zhanzhong
zhanfang
zhanzai
zhanwang
zhanbai
zhanlang
zhanyixue
zhanshangfeng
chuanyou
chuanda
chuanxin
chuanjiao
chuanshang
chuanqian
chuanshou
chuanwang
chuanliu
chuanpo
chuanyun
chuandaohui
banan
banzhi
banwei
banxing
bannian
banzhu
banshu
banchang
banqian
banshui
banjiaoshi
banqiuxing
banchengshi
##zesi
##xiaoyi
##xiaobo
##xiaogang
zhenhe
zhenzhi
zhenjian
zhenfu
zhendong
zhendao
zhenye
zhenke
zhending
zhenying
zhenshou
zhenjun
zhenque
zhenlie
zhenkong
zhenlong
zhencuo
zhennie
zhenchaju
shuochu
shuoci
shuotie
kongxi
kongyi
kongxiang
kongjie
kongju
kongmen
kongguan
kongsu
konglong
kongdangdang
##nengzhifu
ziyouhua
ziyouzhuyi
ziyouqie
xiee
xieli
xieyu
xiexing
xieshu
xiechu
xieming
xiedao
xiexu
xiexin
xiezai
xielu
xiechi
xieyin
xiemi
xiedan
xiepo
xiezou
xiecao
xiezuan
xiezilou
xielingdun
xinlixuezhi
xinlixuehui
xinlixuejie
xinlixuepai
##tes
##tep
##tejin
##teyun
##tesen
##tead
##tehei
##tection
may
mashe
mading
malei
maguan
malu
mashang
male
mafan
majiang
madeng
mafei
malie
maguang
matou
mater
mache
math
matics
magi
matic
magal
mayichuan
matik
magnum
mauri
maemo
maastri
matla
mastur
madsen
maple
magelite
maxinyi
malasong
machale
##ching
##chixin
##wangshi
##yinyu
##yinxiang
##yinsu
guige
guizhong
guichu
guike
guixin
guisu
guiyin
guibing
guigu
guizhen
guitiao
guishuyu
guijiuyu
liushu
liuzhong
liuyou
liuchu
liuyue
liuru
liudao
liude
liudu
liuzai
liuqian
liushou
liuxia
liushao
liuzhen
liulang
liushinian
liuzhuo
liubuzhi
liuzun
liushengji
liuhecong
liucixin
liuxiaobo
nianji
nianshu
nianhua
niandong
niandu
nianfen
nianzhang
niantu
nianjun
nianping
nianchun
nianshouru
nianzengzhang
huaxuejian
jinxingzhe
##shuozhe
##shuolai
box
boen
bowei
bozhong
bochu
bohua
bofu
bozuo
bode
boduo
bowen
bolai
botu
boduan
boyin
bodeng
bobao
bose
boya
bodan
botian
bopu
boxuejia
botan
bonan
botou
bolang
bokuan
bonasi
boruo
bonade
boshaizi
board
boyilun
book
bogeman
boerduo
bobufu
bojutuo
##lex
##lese
##left
##lection
##lehog
##leum
##leau
##lexity
##lezilla
##luobu
##luode
##luola
##luociji
##luoyiya
##wanshi
##wanhua
##paint
chaohu
chaozi
chaodai
chaojin
chaoran
chaowan
chaotuo
chaofeng
chaoku
chaowo
chaoyuanfang
chaoduichen
chaoyinsu
##bowei
##boge
##boke
##bora
##board
##book
##botusi
shengchanxing
shengchanlv
bent
benyuan
benhua
benfa
benming
benying
benjiao
benneng
benna
benxuepai
tux
tushi
tuqi
tuzhong
tuyou
tuyong
tulun
tuban
tubian
tuliao
tupian
turuo
tuzhui
tujiazu
tujinshui
tulufan
fenxihua
fenxifa
cunyu
cunqi
cunyou
cunren
cunzheng
cunwang
cunliu
cuntian
cunerbu
jisuanjijie
fengxi
fengli
fengxiang
fenghua
fengdu
fengjing
fengmen
fengdian
fenglu
fengbian
fengshou
fengneng
fengjun
fengchi
fengdeng
fengmi
fengbai
fengya
fenglin
fengshui
fengzhen
fengchao
fengguang
fengqin
fengnuo
fengqiyun
fengxiaogang
waiyi
waiyu
waixing
waijian
waijia
waixiang
waifu
wailai
waiguan
waizhang
waimian
waishang
waitai
waigu
wainei
waimeng
waixuan
waizhuan
waichong
waipao
waizhifa
wailaiyu
waizufu
waixiangxing
waiwusheng
waihangxing
waiwubu
waibenbo
##bielei
##mujian
##musi
##mula
bayuan
bachu
bayue
bazhe
bahao
bale
bafei
baliu
bapu
batan
baba
bazong
bawo
bacui
back
bazan
bash
bakelai
bajisitan
bageda
baergan
bamennide
badisite
batuta
babeiqi
bates
toushi
toutong
touxiang
touzhe
touying
toulu
tousu
toushen
touyin
toubao
toulie
tougao
shijianxing
shijianzhe
shijianru
shijianpian
duzhi
dufa
dumen
duri
duda
duxin
dudian
duban
dusu
dubian
dujiang
duchuang
ducai
dutang
ducao
dujuan
duzhanzheng
dupli
lianshi
lianzhu
lianshu
liansheng
lianye
lianbiao
liansuo
lianna
lianmai
lianyungang
lianeronggong
lianzufang
lianduizhang
jiegouguan
chuanghe
chuanguo
chuangdang
chuangshang
chuangyiman
ruanjianjie
tanxi
tantong
tanchu
tanxian
tanming
tanfu
tanta
tanshan
tantu
tancha
tanwang
tanpai
tanlian
tantian
tankong
tanyun
tanhuai
tanxunhuan
tanyankai
tanrenfeng
tanbensu
tanwensheng
mouguo
moufa
mouri
mouni
mousha
mousike
moubenbu
nanhua
nanzi
nanbu
nanjie
nandong
nanchang
nandao
nanren
nanduan
nanwan
nanman
nankai
nancun
nantian
nanzhao
nanfeng
nankan
nansen
nanxiong
nanshaqundao
nanshuyuan
nandaketazhou
xingweiren
guanxishi
neihehurd
xiandairen
xiandaizhuyi
xiandaizhuyizhe
yinyueshi
105
10shi
10yu
10duo
10000
1024
1032
1095
1031
10weidi
luni
lunji
lunxing
lunjia
lunfa
lunju
lunchang
lunzuo
lundao
lunlai
lunqie
lunjiang
lundeng
luntan
lundiao
lunnade
lunyanshi
lunzhouzhiqi
##fanwu
##fandi
##suoshu
##suocheng
##suodong
##suoju
##suoxin
jichuxing
##xiaceng
mishi
mili
miti
midao
mici
mifang
midian
mishen
miping
miliu
milan
mizong
mick
mijihua
mills
micro
mikhai
zengyu
zengnian
zengyuan
zengbu
zengfu
zengduo
zengshe
zengbing
zengtian
zengsun
zengkuan
tuijian
tuicheng
tuiwu
tuibu
tuishang
tuichen
tuigui
tuirang
dianyinghui
dianyingpian
quexing
quebu
quexin
queshuo
queshao
queyibu
queqiao
queshuiqu
shejimian
woyou
wofang
wodang
wotu
wobei
woman
word
wood
wochuo
wofugang
##kouxiang
##kouling
##kouchi
leishi
leiun
leiwei
leibu
leizu
leibi
leiluo
leimi
leimeng
leinan
leimengde
leifulei
leiweiye
leiheyu
tiaohu
tiaoshi
tiaozhi
tiaoge
tiaomu
tiaoxuan
zhongyiyuan
naer
nadao
nasun
nacui
nationa
nature
nacl
nashenjun
kenpai
zhangai
zhangxiang
zhangyuan
zhangxie
zhangdai
zhangci
zhangda
zhangquan
zhangshang
zhangjun
zhangxiu
zhangcong
zhangsang
zhangaian
zhangxiruo
zhangjingyue
zhanggongyao
zhangnengzhifu
sushi
sucheng
suyuan
suhua
suzi
suming
susheng
sujing
suyang
sugong
sushen
sujun
suyin
sukai
suse
sumei
sumiao
subs
super
sumner
subilv
ziranren
ziranqu
ziranzhuyi
ziranpai
ziranzhijian
ziranerran
nongyi
nongshu
nongjia
nongmu
nongsuo
nongqiao
nongcuo
nonggeng
nongxuehui
nongchanpin
rengxu
genu
gene
genre
genzong
gensui
genera
##miya
##mity
##mander
##maniuai
##manuel
daxuebu
daxuetang
shuihu
shuiji
shuizhi
shuiqi
shuiyuan
shuibu
shuizhan
shuilv
shuijin
shuidian
shuigou
shuishan
shuilu
shuitu
shuishen
shuineng
shuiba
shuiku
shuifenzi
shuibeilun
shuifugai
shuishengdong
shuizhengqi
jishuhua
jishujiang
wulixuesuo
200chang
200duo
200wan
2000niandai
tuoyu
tuochu
tuoqiu
tuoshan
tuolu
tuowang
tuoxia
tuomo
tuoni
tuoguang
tuotao
tuoqiuxing
tuoyingerchu
tuomasuo
tuoluociji
xunwei
xunyuan
xunhua
xunzi
xunhao
xunzu
xunzhang
xunluo
xunjue
xunmi
xunnan
xuntao
xunhuai
diannaojie
puchang
pudu
pumen
puwen
puqun
puchen
putao
pull
pubmed
pufuzhou
purenkeer
puleiguang
pudianxing
pulutake
##feijian
##feierte
diyishou
yundonggan
cunzaiyu
yayi
yayu
yachu
yalun
yachi
yase
yagao
yamei
yayun
yapian
yaqiang
yatilan
yayuanzi
yadaoxing
yakouxiang
##liufu
##liushinian
zuzhifa
zuzhizhe
##quest
##quebuquan
##baiji
##baizhi
##bailiushi
##moxing
##moti
##mote
##mosen
##mories
##mologist
##modore
##moko
##mosizhuyi
wulixi
wulilun
wulijiang
luqi
lubu
luzheng
lutu
luze
ludeng
lufei
lubai
lurong
lutian
lutou
lushengwu
ludaofu
ludw
luskin
lushide
luyongxiang
luyaoxian
luyingdai
luxinjing
##tingzhe
qiangjian
qiangjia
qiangren
qiangzu
qiangdi
qiangling
qiangpai
qiangdan
qiangzou
qiangyinli
qiangangdu
##baoshi
##baofu
##lieb
pilun
pifu
pike
pilu
pifei
pimei
pipei
pidou
pijuan
pikaer
pipa
pigeng
pixar
pidgin
pixirui
pijingzhan
piyingxi
chonghe
chongshi
chongxi
chongxing
chongsheng
chongdang
chonggao
chongfeng
chongyangjie
cengli
cengyuan
cengzi
cenglun
cengmuan
cengyongyi
##bingxue
##bingke
##bingjin
##bingxu
##bingjun
##bingqianjiang
gainianhua
##sec
##session
wenxuesuo
##zaoche
line
linyu
linshu
linbu
linqu
links
linэks
linjianquan
linjiedian
linsuangen
linxiaceng
##nic
##nis
##niang
##nijie
##nijun
##nique
##niya
##nics
##nical
huangyu
huanghou
huangliang
huangshan
huangling
huanggang
huangbao
huangdan
huangtian
huangzhao
huangmei
huangchao
huangpian
huangsha
huangjilu
huangyongshang
huangyandao
huangsufang
##nard
##narity
daibiaoren
daibiaoquan
ribenshi
yibanhua
yibanshuolai
canshi
canyi
canhui
canzhong
canyue
canfang
canliu
canbai
cancun
cankan
canto
cansang
canzei
canud
canadian
canjiren
canquebuquan
ganen
ganheng
ganwei
ganjian
ganchu
ganxie
ganyan
ganlai
ganxin
gansu
ganshang
ganbie
gansuo
ganzhao
ganzou
gancui
ganxuepai
ganzang
ganxibao
ganhuaren
ganhezang
ganbenren
zhishiyu
tongyisi
tongyici
sixiangshi
sixiangjie
jihuaju
shiqisheng
yuyanc
yuyanxing
yuyansuo
yuyanxuejia
yuyandel
jieshiqi
jieshihua
jieshifa
jieshiren
jieshiri
guominjun
taoyi
taojia
taoru
taofang
taojin
taozhuang
taomei
taopian
taozong
taopao
taolibei
taokouling
taonijun
yangli
yangyu
yangxing
yangjie
yangfu
yangyan
yanglai
yanguang
yangqing
yangbing
yangzhuang
yanggen
yangsiji
yangximin
yangjiahukou
yangxianhong
yangwupai
yangmingbing
yangwenna
yangxinru
yangquanzhu
##yal
##yadang
tianwenzhong
luocheng
luohao
luodao
luodi
luosu
luoluo
luobo
luoting
luolie
luoyibu
luolang
luosang
luohuameng
luozhesi
luofulai
luobianchen
yixueshi
yixuejie
yixuetang
suoyouge
suoyouzi
ceqi
ceyan
cedao
cede
cequ
cewai
ceshenyi
lizijian
lizihua
xingshitao
jiushier
henge
hengli
hengti
hengjia
hengxiang
hengfu
hengchang
hengdian
hengcun
hengku
hengtiao
hengduzhu
##owd
##owor
##gudingli
lixueyu
zhaohui
zhaoshu
zhaojiu
zhaochang
zhaodai
zhaoyang
zhaozu
zhaopai
zhaoxun
zhaoshao
zhaohuan
zhaogua
zhaoguohui
zhaoerfeng
zhaoyinyu
zhaobingjun
dilixuejie
xijuqu
xijupian
1991
1996
kaifaqu
kaifashang
laoshi
laoshu
laojiu
laojia
laozi
laozhe
laosi
laolei
laopai
laokao
laojiaohui
niyu
nizhu
nixiang
niming
niban
niyin
nifei
nizong
niersi
nikela
nikeluo
nils
niluohe
nicho
niechi
niyingdian
##rongchuan
##huoer
##huofu
##huoshao
zhezhongyu
zhezhongzhuyi
zhezhonggai
zhezhongyuyan
zhezhongshengchan
gnulinex
119
117
110
116
11wan
1100nian
1127nian
##gaos
chizhi
chihou
chizhu
chijian
chiyan
chishe
chimian
chizai
chiling
chiping
chire
chish
chine
chishizi
##land
##lanshi
paizi
paidao
paizheng
paiban
paijun
paiman
paipian
pai55
paitaxing
miaoshi
miaoyi
miaoyu
miaohui
miaoxie
miaoxiao
nuoyong
nuosi
nuomu
nuoman
nuosha
nuobote
nuova
shishili
shishilunliushi
shishikeke
ranxi
ranwu
ranbing
ranse
ranshao
ranpo
ranbujiu
##ones
##onsibility
jiaoyuxue
jiaoyujia
jiaoyubu
jiaoyujie
##mengdi
##mengnide
zuoyonglun
mianli
mianzhi
mianjian
mianchu
miandian
mianban
mianwai
mianshou
mianling
mianmu
mianbao
mianxuepai
mianhuai
mianhongerchi
maoxian
maopi
maochong
maoliren
out
oushi
ouxiang
ouwen
ouda
oula
outu
ousang
ouhudao
oulibi
oumaer
yizhishuji
yizhizici
yizhibujian
yizhibanjie
##bufenke
faxueyu
faxuejie
faxuegai
faxueyici
gouzhi
goujia
goudao
gouri
gouxia
goubing
goulan
gouyun
gougudingli
ree
res
redian
requan
reliao
reqie
rebing
real
reyun
rechao
rechen
revi
reed
read
resp
rega
reader
reali
redaolv
regnum
recor
revue
retongliang
request
remote
zhoushi
zhouyu
zhouzi
zhouri
zhouying
zhoushan
zhoumi
zhouliu
zhoudun
zhoupan
zhouxuan
zhouzhuan
zhoumou
zhouhoubei
zhoushufen
zhoudaguan
zhoujinke
zhoushangang
##sannian
##sanshiwan
##sanbailiushi
liyongzhe
kanyu
kanxing
kancheng
kanhao
kanqing
kanbing
kanzaiyu
kanshangqu
##tuofu
##tuoman
##tuomasi
aix
aid
aixing
aijiu
ailun
aida
aishan
ailve
aisite
aixibao
aidaosun
aidemengde
ailiaote
aimaniuai
aimosen
zhihoudui
zhiduzhuyizhe
##pudun
##huanyan
##huanmian
##huanya
yuanzilun
yuanziduo
yuanziliang
yuanzikong
gongzuozhi
gongzuozhe
gongzuori
gongzuozu
gezhonggeyang
liaoli
liaocheng
liaofu
liaoyang
liaokuo
liaoshao
liaoruo
liaoning
zhuangshi
zhuangyu
zhuangqi
zhuangzhong
zhuangyuan
zhuangshe
zhuanglei
zhuangzai
kongjianyue
kongjianzhan
##shuijie
baohanyu
dangshiren
dangshishiliao
faxianzhe
chengxufa
chengxuku
gerenzhuyi
##orpe
guojixing
guojijiang
guancezhe
duancheng
duanju
duanyan
duanding
duanwen
duanxu
duanran
duanduan
duanxiao
duanlie
duanceng
duanpian
duanzhihuan
duandaishi
rangyi
rangwei
rangwai
rangsun
ranggei
rangeming
rangaoji
juedingquan
juedingpai
henduoshihou
geiding
geisun
##mes
##mework
zhixingji
zhixingyu
zhixingti
zhixingbu
zhixingxu
aoyuan
aoxian
aoren
aotu
aobei
aoka
aokela
aoweide
aogedeng
aofulasi
aojusite
aokewude
aodaliya
aoleigang
kaoxi
kaozhu
kaoyan
kaoda
kaojin
kaodi
kaoshan
kaokesi
kaofuka
kaojuxue
##osphere
bailun
baibu
baidong
baidao
baiduo
baiguan
baishan
baiban
bailing
bailiu
baise
baitian
baiyun
baipi
baicao
baihuai
baimiao
baitui
baifubai
baietan
baiaixing
baixueqiu
bailiyin
baizheweikou
baidisijie
baibeiluo
bailanshi
yuzhoulun
guanchaguo
guanchafa
guanchaliang
129
128
12yi
12wan
1200
120wan
12000
guangzhouta
guangzhougang
haoshi
haoyuan
haoyong
haozi
haohao
haobu
haodong
haoduo
haojin
haoqu
haobi
haoneng
haowan
haomi
haofei
haoting
haoguang
haogan
haokan
haoyixian
ershiyi
ershier
ershijiuri
huodezhe
xuqiuliang
xuqiufang
xuqiumian
bushizhe
bushijie
fangmianjun
minguoshi
10yuehao
10yuedi
10yuefen
renshian
renshijian
qiehe
qieshi
qiewei
qiege
qieduan
qiewuyi
qielunkefu
qiesizhen
qiefuzhitong
zhuzhangzhe
1987
1988
1981nian
1908
banben3
banbenshen
mensi
menpai
menander
##meishi
##meitang
songzhi
songchu
songyong
songsi
songzhengfu
songgei
songhuajiang
songzaju
songziwen
songjuren
songshenzong
guanlichu
guanliju
hengxingfeng
diaoji
diaoshi
diaoxing
diaodong
diaoyan
diaoci
diaoban
diaoqian
diaoluo
diaonan
diaoxiu
diaopei
diaomac
diaobingqianjiang
gongsili
gongnengxing
gongnengzhuyizhe
jingshenzhe
zhengshiban
##waxi
##wadi
##wabutian
##poluo
##poff
##pologist
##politics
jingyanzhuyizhe
xiangguandu
xinliji
xinlijia
biaozhunc
biaozhunhua
biaozhunyin
chae
chashi
chazhi
chayue
chadian
chahuo
chalisi
chart
chambers
chahuahui
chabuduo
chafenji
chaceliang
hongshi
hongyi
hongqi
hongchu
hongxian
hongdong
hongshan
hongse
hongmei
hongguang
hongdou
hongbote
hongzha
hongshizi
honggun
hongweibing
hongxinren
kuojian
##tanni
##ree
fenziliang
suanxue
suanjia
suanhua
suanjie
suanming
##ella
##ellan
##elbre
##fengzhe
nongyeshi
yishuang
yishujia
yishujie
yishulei
getimen
getizhuyi
##alfor
##kaoer
xingzhiweijian
xiangduixing
xiangduici
xiangduieryan
chenshi
chenwen
chenman
chenhuan
chennan
chenxiu
chenyun
chenpeng
chenshufan
chenyouren
chensigu
chenduxiu
shidaitu
##xiuri
##xiute
zongjiaoxing
zongjiaozhe
zongjiaozhuyi
zongjiaotu
dulizizhu
gongjuxing
shaoshi
shaowei
shaojian
shaoyuan
shaoliang
shaoda
shaoxu
shaobian
shaoxiao
shaobai
shaobufen
shaoxiu
shaodiao
shaolizi
shaoyangbing
##yunqi
##yunianer
gongjiri
gongjiliang
maichu
maifu
maidao
maijing
maishen
maibo
maidiao
maikesi
maiza
maika
maigen
maiken
maikeluo
maijinta
maimengnide
peiwei
peiqi
peizhu
peizhong
peifang
peiban
peixiu
peitao
peisong
peileierman
peitaixue
yilaixing
liyixing
zhiliaoxue
zhiliaofa
daliangang
tongjixing
tongjiyuan
tongjisun
ruantibao
chouji
chouqi
choujian
chouyuan
chouyang
chouwen
chouzu
chouqu
choushen
choumu
choumi
choukai
choukuan
choumou
choucuo
chouanhui
chouzhibi
manxing
manzhu
manhua
manyan
manchang
manren
manfen
manjiang
manazi
xiuzhu
xiujian
xiujia
xiuyuan
xiufa
xiuxian
xiuci
xiuxia
1973
1977
1970
tebieban
xuanzexing
rongqi
rongge
rongru
rongren
rongmin
rongqie
##tuanju
taiyangwei
taiyangbiao
taiyangbing
taiyangceng
1892
1891nian
171
1700
1744nian
1750nian
1745nian
1748nian
heihe
heihu
heixiang
heise
heixiong
heixingxing
heidegger
##guangpian
##sunke
fabuyu
fabuban
tedingzhou
##ganren
##zard
##pant
##pand
##pany
##paneila
xilawen
ziliaoru
xueshuji
junshixue
junshihua
167
165
166
1600
16zhao
1644nian
16bit
1687nian
fashenglv
liangzijisuanji
yishijian
yishiliu
yishixingtai
zhongxinxian
zhongxinzhan
gongtongdian
xinxilun
fenzhixueke
hudongshi
hudongzhe
hudongpai
1962
1968
1960
1966
1967nian
1968nian
tangzhi
tangti
tangyou
tangfa
tangsi
tangde
tangkou
tangba
tangsong
tangmasi
tangdegang
tangshouqian
tangrongchuan
##bahe
##baheng
##baqiu
##bating
##baba
##babuwei
##bamazhou
##baek
dilisi
pipingsun
shanshi
shanyi
shanyu
shanzhong
shanlun
shanliang
shanshang
shanshui
shanfeng
shanhujiao
shanhaijing
zheyangyilai
gongchengliang
chenggongxing
chengzhangqi
zixunxing
makesiliening
huning
hunao
hunli
hunxiang
hunyue
hunju
hunru
hunza
kangshi
kangxi
kangli
kanghan
kangyang
kangyouwei
kangpudun
kangpaneila
law
layu
latai
lama
lagang
latian
lagao
lamei
laba
lazha
laxiju
lasiman
lamake
lauda
labou
ladebulu
layangpian
labora
lawaxi
tuanliu
jishiwan
jishibao
lixinghua
qinai
qinxue
qinqi
qinti
qinshu
qinfu
qinlv
qinbi
qinban
qinshen
qinqie
qinwang
qinlian
qinshui
qinxiong
qinhuang
qinxiaoyi
qinbowei
qinpoluo
xianghun
zhuanyezhe
coco
coak
copy
inc
invo
intro
indust
lvou
lvxue
lvli
lvzhe
lvci
lvkuo
lvtu
lvse
lvlizi
lvguangpian
osx
ost
oster
osdl
poyi
powei
pohou
poqie
powan
polie
pohdai
poetic
pozaitao
poshuijie
popoff
ruoli
ruowang
ruopai
ruodan
##chenxing
guangfanxing
anquanfa
mudilun
maoyie
maoyidao
cuoyu
cuojue
cuobai
hali
hawei
hatong
hahao
hadai
hade
hard
hagen
have
haken
hamengde
haak
haxell
haandl
hamasheerde
haluode
habaizhi
zhengtilun
zhengtiguan
1958
1955
1950wan
jiagoushi
fanyingdui
houlaizhe
xinlixuejiamen
ganga
gangao
gangyu
gangxing
gangjian
ganghao
gangfu
gangdao
gangyao
ganguang
hangei
hangzhou
hanglu
hangmu
hangyun
tingchu
tingwen
tingqian
tingliu
tingre
tingqilai
tingmalaiya
tingmengdi
zunian
zunxing
zunqi
zunyan
zunsun
zunfengzhe
1922
1920niandai
1928nian
bianhualv
ruguoshuo
shenzhisuoju
kuaiji
kuaiwei
kuaiyao
kuaiqu
kuaiqie
kuaiman
kuaidaozhan
kuaibanshu
naihe
naishi
naili
naiwei
naiyu
naizi
naisou
naichengyu
##tern
##terpri
jingzhengxing
jingdianli
jingdianxing
chunji
chunyin
chunman
chunms
yingguoshi
yingguoren
suoyiran
fuzadu
zaochengfu
tiantilixue
dongwuyuan
dongwuru
dongwuqu
quanqiuxing
gonglizhuyi
gongliying
pianai
pianli
pianjian
pianzhong
pianxiang
pianyuan
pianzhe
pianfu
pianfang
pianxu
pianzhen
pianzhuan
pinhe
pinyu
pinhui
pinfa
pinshan
pinpai
pinfan
pinqing
pinpu
pinfeng
pinnong
lieyou
liezai
lieshang
lieqian
liebian
lieyin
liezhuan
lieqiang
zhuyizhe
jiashezhi
dianzishu
dianzihua
dianziwu
dianzijisuanji
haiyangxuejia
cuyong
cufen
cuqian
cuse
cucao
mengyi
menghui
mengxiang
mengzi
mengxian
mengsheng
mengde
mengbi
mengsuo
mengxia
menglie
menglong
menguichao
menggouwu
mengtainie
##pix
##pire
##pirical
##piscop
##piens
yiyihuishi
zhunsheng
zhunzhou
daluzhe
dalubao
zibenlun
danganju
daimaxing
kongzhiquan
kongzhitai
pubianhua
laodongzhe
wanchengzhe
liuxingyu
liuxingyongyu
liuxingbingxue
niuling
niusita
niulunbao
9yuechu
bangei
bangbu
bangqiu
bangshou
bangxuan
bangzhuangwu
bangxinglong
union
unifi
univer
unions
shiyezhe
shiyeyoucheng
kejishi
kejixing
kejihua
difangxi
difangxing
jieheti
shangyexing
baohubu
baohuzhuyi
canyushi
jiduhua
yiyuanlun
yiyuanshe
weizhishi
weizhiqi
wenzixue
wenzifa
gaigepai
fanduidang
fanduipai
bensheneryan
159
151
15yi
150wan
1514
1543nian
kalun
kalei
kamu
kaxuepai
kateer
kasp
kafuka
kamake
kahle
qunian
qunzu
soc
solution
wutiaojian
wutihuiwang
jingjixuejiamen
yalikexi
143
145
146
146nian
14000
147wan
kuen
kuli
kuyu
kuxing
kujie
kuquan
kucun
kurt
nvhu
nvji
nvyong
nvsheng
nvren
nvshen
nvpu
nvedai
nvwabutian
##rashing
##rasil
disanduo
daqichangbo
chubanwu
lingdaoguo
lingdaoquan
situoerman
tuxingxue
tuxingka
sulianzhi
sulianren
sulianpai
they
there
theod
theater
##olm
tiehe
tiedao
tiecitai
laishuoyonghu
minzhudang
minzhuchi
minzhupai
minzhujizhong
unixyuan
unixware
kouhu
koushu
koujing
koubei
koucun
kouqiang
koukeli
zhuizhu
zhuishu
zhuixun
zhuigen
zhuipeng
##langjie
##langshangkou
##langmafeng
daxingji
daxinganling
pinghengliang
luojier
luojike
shiwuzhe
shiwuju
shiwudang
shiwusuo
zhiwuqun
xingzhengyuan
xingzhengfa
bianchengshi
2012niandi
kuangfu
kuanggong
kuanguang
kuangre
kuangchao
pengdao
pengren
pengpai
pengpi
famingzhe
famingling
famingtian
shuangxing
shuangxian
shuangqin
shuangchong
shuanghuang
shuangchongxing
shuangmang
shuangzhongzi
shuangheyajie
shuangxiuri
xinyangzhe
yingtishi
quyuhua
13yi
13hao
130nian
13wan
1350
138yi
1327
paxing
past
pasen
paris
pass
parna
pajinsen
pasca
palalinpike
pafanwu
##chrys
##ston
##stre
##stra
##stola
##senna
bukeshengji
bukeyuyue
buketongri
fenleixue
fenleifa
panxing
panzhong
panju
panding
panwang
panluosi
pancra
panluohe
##kaluo
##kawa
shizhengxing
xibaoji
xibaoxi
zhongdaxing
qiuji
qiuti
qiujian
qiujie
qiudong
qiuzheng
qiumian
qiushou
qiumi
qiutian
qiugao
qiuzhuang
qiuzhuangwu
qiutongcun
zishenhua
zishenwuzhi
tongyongxing
fenbuqu
bianyixing
xukefang
pinglunhui
pinglunjie
chixubuduan
##bangjie
shixinggong
zhihuixue
zhihuiguan
zhihuiquan
zhihuisuo
weihuxing
qishier
qishiwu
qishiye
qishiniandai
zhengminglun
zhengmingzhe
tongzhihui
tongzhizhe
tongyanghui
xianzhixing
1945
1941nian
1946nian
jiaoyifa
jiaoyiliang
jiaoyitang
shenmede
changchangjiujiu
duozhongduoyang
teshuhua
wangluhua
251
25hao
250wan
2570
250yi
2569
yitihua
gongminxue
gongminquan
gongmintuan
jiejishi
diancichang
guangdongtian
yuehannisi
guifanhua
tuidongzhe
12yuedi
twitter
##roy
##rope
##roleum
##ronics
renwenzhuyizhe
zhengyidian
fuhaoxue
fuhaohua
xiaofeiguo
xiaofeiliang
yisilanyao
yisilantian
gplv2
jijimian
jinianhui
jinianbei
jinianting
zhizuoren
zhidingzhe
qihouqu
keguanxing
keguanshang
keguanqie
hanssen
xieyihui
xieyizu
218nian
jihuang
zhongwenwei
zhongwenzhan
zhizaozhe
zhizaoju
zhuoxiang
zhuoyue
zhuoding
zhuolu
zhuohai
zhuomo
jingliling
chengguozu
gegejipo
jiezhidao
yinduyang
xianfaxue
sunwenxue
sunwensu
biyezhe
biyezhengshu
wanzhengxing
bolatuzhuyizhe
bolatuxiaolv
000yi
301
30duo
30wan
kunlun
kunju
kunjing
kunzai
kunnao
kunhuo
kunku
kunbang
kunmingshi
langan
langshi
langdao
languang
langbo
langchao
langlangshangkou
zashi
zaxiang
zazheng
zafang
zaran
zajiao
zacao
zashua
zawenjia
zabingke
zanshi
zanlie
zanmeishi
##laoni
##zuikui
zhongshanzhan
zhongshanzhuang
zhongshantang
zhongshanbeilu
zhiyuandui
zhiyuanjun
youxianji
youxianyu
shuaihou
shuaijun
wenmingyushi
1930
1932nian
1934nian
1933nian
1937nian
1938nian
1932yi
dingweiqi
2016niandi
chongtuti
chouxiangju
chouxiangceng
common
commander
commodore
company
500duo
doszi
##zangbujiang
bujinyizhi
wuxianwei
wuxianqi
wuxianliang
fangwenxing
qudongyangliu
fanchoulun
shenjingzhi
shenjingxing
1879
1872
1873nian
1877nian
1870niandai
huangxinghe
huangxingren
socius
263
267
goshi
gover
good
godel
nux
nuyi
nupu
nulla
nubiya
saiyi
saize
saiya
saidun
saiche
saiyide
saimou
saint
sailfis
yihouzhe
didacti
yanjinxing
yanjindu
xingquxiang
xingquzhe
xingquxian
xiangyingyu
xiangyingxing
1885nian
1887nian
1880niandai
hanyiwu
chuangzuozhe
putongren
kuali
kuaqi
kuadu
kuatai
cangyi
cangyu
cangshu
cangxiang
cangqu
cangsu
canghai
cangnei
cangchuan
cangnan
cangku
canghuang
cangwuzu
ntjin
ningbo
ninggu
ningmeng
shae
shasi
sharen
shazu
shamian
shaluo
shawan
shaya
shahuang
shachenqimei
shalidu
##gensitan
##ruila
yiqiansanbailiushi
lichasen
weiguanxing
weiguanshu
qiaohe
qiaoyi
qiaoyong
qiaoshe
qiaowai
qiaoqiao
qiaomiao
yanzhongxing
zhenglundian
simichang
mingmingfa
changqiliu
touziguo
touzizhe
kuozhangxue
kuozhangyu
kuozhangqi
jidujiaoyi
tieluxian
guxilaren
cuida
cuiruo
cuicu
cuishushi
##open
##opment
##ophy
##ophanes
##luanma
deyiyu
lifaming
lifaju
lifaquan
fadongzhen
gongshihua
shuzhiyu
xinwenbiaoti
huaishi
huaigeming
huaieming
huaishengsi
huaiyangxian
huaitehei
huaiyunqi
dianjiyu
bilishi
bilichi
kaiyuanlv
sanminzhuyixue
waijiaociling
222
224
228
225
22yi
220qian
longqi
longde
longxin
longzhou
longtou
longhor
wayang
waxu
wats
wakasi
waste
walunniu
wayaobu
watesen
##cangsheng
##ystem
jixiexing
jixieguan
##qiaofu
buzhijiachan
zizhipai
jinzhiyu
danyiun
dangdaishi
dangdairen
dangdaibiao
fanzuizhe
fanzuiren
fanzuilv
zongduyu
zongdumei
xiaoshuojia
zhuanmenxing
dongjingshu
moniqi
monitor
shuomingshu
fenggegeyi
genbenxing
zhaokaidang
276nian
2729
2700nian
2758
cheli
chejun
chewang
pangu
pangxi
panghui
pangbu
pangdi
pangpian
pangtingzhe
zoushi
zouguo
zouchu
zousi
zouzhang
zoubi
zoulu
##ctrine
##sdom
chengshuyu
chushengzhi
chushengwu
chushengdi
chushengyuqing
yinlichang
jinrongye
jiankangxing
jiankangren
2025
2022nian
2021nian
jiangouxing
jiangouzhe
jiangouwu
jutihua
tianqitu
huanyinghui
sandazhanyi
xiezhuxing
guilvxing
zhongyiyaojie
luomashi
luomasiduo
laogongbu
chenjiwu
chenjiyan
29hao
239
land
lanzhou
lantu
lanbai
lantian
lanyixue
yicici
shizhishang
zhongzhifu
yousuowei
yousuobuji
weijiwei
zhuxituan
shequnmen
yanshengerchu
faqiren
dayuejin
chengjiuzhe
chengjiujiang
chengjiugan
wudaoju
xiangfanjian
xiangfanzhishi
xiangfankeer
fenlizhuyi
fulide
fuliqiaofu
dianshiju
dianshita
2017niandi
andy
anderson
waibuderu
lianhehui
nongminjun
xunihua
tingzhixing
tingzhibuqian
nulizhi
240
2400
240yi
alabowen
gasang
phone
phylum
sage
sashan
sabo
sadan
saga
sasiman
samun
sahelei
sahala
salaman
sapiens
##cator
##cabula
##ary
shijiuri
shifenzhiyi
zhongleinei
zhizhiling
zhizhifeijian
zhiyuliang
hepingzhuyi
hepingshan
qitiyun
qixiangzhan
xingqiri
xingqilang
xingerxia
##erence
fenliehua
guanjianxing
guanjiandian
caizhengxue
caizhengzhe
1862nian
1863nian
1869nian
chuanboxue
xietiaoyuan
xietiaozhe
boshidun
fengfuqie
fengfuduocai
rengehua
naijiateyizhi
cujinhui
option
operation
optimu
paoji
paoti
paobu
paochang
paodao
paoting
paozhifa
ruiying
ruinforma
tuerqiren
unknow
##thorpe
##vist
yidadui
gongchanguo
wuchangshi
shangpinfang
sunshili
sunshichang
sunshizu
sunshitu
sunyiguan
sunyilu
sunyiduan
sunyiqihao
fuzhiyiju
fuluolian
zuheti
dongbeiya
zhanlvexue
guinaxing
guinafa
fengonglun
xunlianxue
xunlianyuan
cankaoxi
cankaoshu
cankaoherder
zhouqilun
kaochazhan
kaochatuan
zhunquexing
kaerzhuyi
kaerzhier
kaerfeierte
640
640yi
64bit
aero
aermengde
bini
binan
binwei
binshan
binlin
binomial
binswang
binsiwang
exaby
excel
expand
kuanfan
kuanrong
piaoji
source
##cola
##nuobike
xiongci
xiongzhang
xiongxinbo
##yidexuepai
zhizhonggu
zhiyezhe
qiyuefa
qiyuequ
shequfa
zhengfaliang
chukoue
geziweizhan
duiyingci
jianchengmin
jiazushi
jianguohui
bianqianlun
minglingbu
minglinglie
biaozhixing
quanshixing
quanshizhe
guimohua
niandaixue
turologist
huangdizhan
computics
computation
ningjuli
ningjuti
704
70duo
homo
hotel
hots
meta
mejiao
media
members
measu
means
memories
possession
seqing
semi
secu
sepuyi
sewanwu
sexage
sequo
sevryu
sysret
##onalization
##cki
##ckr
##cking
##zhake
shiyiyue
shiyihao
shiyiwu
shiyike
shiyiri
xiyishi
xiyizhe
xishouku
lixiangguo
lixiangxing
lixiangbeijing
zhichengxing
zhichengwan
weilizhe
zhurucilei
dishisi
dishiliu
dishisan
yanxuxing
chengfenzhilei
geshihua
shuruzhi
zidongji
tongxunzi
tongxunwang
quxianji
shenruliang
qingxuxing
qingxuhua
kongdeweishou
zhangwojun
yazhouzhuyi
80duo
8088
80duowan
80286
fofa
formed
formula
stable
staging
stabislas
tornq
##edom
yiwusuocheng
shiyingzhi
shiyingyu
shiyinghui
youjihuahewu
youjikexun
weihezhuyi
weichihui
gongbubi
xingfaxue
guoduceng
gudinglun
jiaohuanji
xushuxiang
xushuzheng
jubanquan
xuanchuanbu
xuanchuanzhuyi
zhenlixing
zhenlibao
lianjiezhuyi
lunlihua
yanghuaji
yanghuaxing
yanghuawu
interacti
interven
interface
interdisci
duanqiruizhimen
362
36xiang
fsm
foutong
fouren
fouzheng
##ford
##formity
##deni
dezhulaerfu
##huangshi
yichuanbing
shilipai
lichengshu
heerman
heermosizhuyi
hebingyue
youyiyu
youyitian
weishengshu
weishengyuan
dashiguan
shunshi
shunqi
shunying
shuncha
shuntian
jierudian
wuxingshengke
huoyueyu
wenshiren
guliwuyuan
xinhainian
sunzilun
sunzigui
sunzizhuan
sunditan
sundicui
tiyuhui
tiyuchang
tiyuguan
fuzhuxi
fuzhushishi
jialifuni
zuigaodian
biangao
shenhuyou
zongzhihui
bencaoxue
cunqudian
lianxubuduan
lianxubujue
paihangbang
gouzaoxue
gouzaozhuyi
gouzaozhuyizhe
scientific
3200
32bit
320nm
310
96yi
960nian
964nian
asynch
aspire
sense
sensing
seneca
sensor
sentiment
scolundian
renshuyuan
bumenfa
chucunyu
wuqiaxian
wuranhui
shanghanza
shanghanxuepai
yinyongshui
yincangyu
sunyusuo
lingtingzhe
##ments
bianjiexian
neigezhi
